#version: 0.2
  t
  a
h e
i n
r e
 t he
o n
  s
  w
  c
i t
i s
h a
o u
  b
  f
in g
  p
v e
 a n
l e
o f
m e
  of
d e
â 
i c
r a
i on
  e
l a
m a
r s
  n
o t
  re
l y
ha t
 b e
  g
r t
o w
i e
  T
  I
 t hat
  on
k e
  S
  is
o s
i g
â 
 w a
  A
i a
  u
  C
 s t
h is
o p
  y
  it
 c a
  he
  ma
r y
m p
 s e
  de
 w e
  M
me n
 w it
 wit h
 a s
  B
i ve
d a
ou t
 s a
  P
 wa s
men t
 c on
r n
in t
l s
i f
i de
 a t
o ve
  W
o re
  H
o c
 s u
ou n
 a re
  D
ic a
 p a
  1
o rt
 n e
  R
r u
 T he
in e
  2
 b u
  (
  F
 p e
â 
 e x
â 
ha ve
 n ot
  have
  le
  N
ra t
ha n
 b y
d s
  la
r c
  G
 f a
ion s
l u
ie s
' s
b le
l t
l ly
  L
d u
 t his
q u
v a
ha s
 b a
r g
 t e
 st a
  E
  int
  his
ic e
d ing
 u n
 e n
0 0
 a c
  “
  has
  J
l it
ra n
os t
o g
in c
  O
l le
  j
in s
 t a
m u
 ca n
ou s
 p la
 s p
 u s
 the y
i p
 bu t
r ing
os e
ow n
 w he
  U
m s
r it
ou g
k ing
  "
o mp
oug h
i ke
 e ve
in a
 p re
 M a
  out
m ore
 re s
k s
da y
i le
 f e
 re a
 u p
o a
 g e
  more
d is
i re
 y e
b out
 on e
m on
 I n
 a bout
ia n
 c omp
 p u
op e
 a g
 we re
ra c
l ike
i z
  K
me s
r is
 be e
  dis
ie n
 con t
ow e
m y
 ex p
 of f
 s c
 S t
ion a
 bee n
ig n
rs t
  like
 ye a
 j u
 g a
  mu
 ma n
l is
 re c
  inc
l ing
i mp
 int e
 le a
 a p
 f u
oun t
rc e
d y
 se e
rg e
  ot
 ot he
r on
k n
op le
 us e
ide n
 e a
 R e
 it s
â 
  ove
  ve
 the re
 w hat
 C a
 H e
 ne w
 a ls
 re p
 als o
 t han
 be c
 a f
 ap p
 pa rt
 whe n
du c
 pe ople
l on
 D e
  qu
 A n
r ma
 he a
rat e
 an y
 ju s
 jus t
d it
  Y
d on
 n a
 I t
  kn
ins t
  3
 sp e
 sa y
  my
l f
 ge t
  if
  V
 W e
. ”
 con s
 t w
i rst
 sta t
me t
 P a
 ac c
 S e
 c u
r re
 eve n
 pla y
o ry
m ost
  imp
 B u
os s
i ma
v ing
da t
m is
iden t
  -
â 
 ac t
ic t
 s he
iz e
ica n
 c e
 af t
 aft e
, ”
r ies
rn e
 f irst
lit y
 1 9
i ous
rs e
 ma ke
' t
l ine
 de s
 on ly
 bec a
r p
 at t
 N e
lon g
  ru
m it
l og
 tw o
 su p
r ough
  don
 S a
 de c
 ba c
h ose
 se c
 pre s
  mon
 be t
o ing
. "
rac t
r ot
 B a
  most
r de
v is
 un de
 su c
r ke
 stat e
ment s
 fa c
  –
 B e
ia t
l oc
h ile
 wa n
r f
r ly
 ag a
 exp e
in f
m ing
  4
 W a
 wa y
 ta ke
 wan t
d n
  va
me a
  —
 U n
 beca u
 becau s
 becaus e
 bac k
 H a
ica t
 ne e
l if
d re
 te a
  $
d own
l la
r ds
d g
 kn ow
 c han
 St a
, "
 st u
  mea
d if
 c re
o rma
h ough
 eve ry
l p
ha p
  5
rn a
 sup p
 the s
 D a
 g u
o duc
r oduc
 thes e
  inf
 whe re
 J a
r ve
ou p
h rough
 c ount
 be ing
 L a
h ip
 n u
  day
dif f
in u
 inc lu
i ly
 ma y
ie w
 de f
 the n
 M e
 man y
dg e
  [
r ien
  diff
 la s
ra g
 Bu t
op p
 se n
 re g
 comp a
 t hrough
 rec e
lis t
 rep ort
 se a
  ope
 s y
l ot
 pa s
 S u
 c la
rit y
 as s
  down
 las t
 t hose
 ve ry
 L e
 mu c
i ble
 muc h
 T his
l ls
l ve
 pu b
 ge n
v iew
ic s
rs on
 ca s
ran s
r oc
 de a
i x
 2 00
  own
ra p
  ke
v ice
 sta rt
 a u
  long
 g ove
l ling
 e s
 be f
 bef ore
 g re
in is
i la
 A s
 gove rn
 pla n
rot e
o log
 ba s
 Ne w
 G e
 ma de
 na t
 P e
 la t
 J u
 suc h
 we e
 g oing
i lity
 C on
 chan g
 b ot
l ive
r og
o lu
 T e
 ma t
 e f
 N a
 fu n
 fe e
 re f
i va
 ef f
 aga inst
 se t
m ot
  6
in n
m ove
 en t
r ican
 cre a
 t u
mis s
 play e
 he lp
r oup
 lat e
 w hile
 e le
 mea n
i mes
 supp ort
o rde
i lle
 con c
l ice
m mu
 say s
ina t
 diff e
o lle
 con f
 crea t
 p roduc
 f re
 g ive
  inst
 chang e
 R a
 dis c
 res p
r oa
o rce
os it
ire c
 diffe re
 T ru
 bet w
 betw e
 betwe e
 betwee n
 t hough
 spe c
irec t
r ding
 a w
 differe n
 la w
mmu n
 mu s
 c it
  han
 S c
dat e
 s ign
 govern ment
 F a
 re t
 ex t
 ru n
 t rans
 G a
ic u
ra s
 pla c
lif e
 he re
b ility
 Sta t
ica lly
 sy s
rre n
 sys t
ima t
ie ve
 syst e
ig a
 O n
 tea m
 gen e
 rea lly
 plac e
rag e
me rican
 ex a
 g roup
ran c
 ex c
r ope
o mmun
. [
  7
 I s
 compa n
l ose
d le
hap p
 S p
iat e
 gre a
 s it
 grea t
in ve
ris t
 ca p
  loc
 wa t
 ce n
r ove
 cas e
  happ
 fac t
 pe rson
h ous
d irect
 Tru mp
in ing
 The y
r w
 de p
inis t
 bot h
 qu e
du ring
 aw a
 p owe
  inve
 de t
  move
r ive
 Stat e
 R u
  during
  life
 au t
r ip
 mon t
 P re
l owe
 mont h
 de ve
o rding
 deve l
rg a
  8
 cen t
ie t
v ot
 is s
 s inc
 sinc e
 iss u
 t ru
orma t
roc e
imat e
 A merican
 A u
o lice
 p rog
 off e
â 
 fe w
ou rt
 c le
 le g
 issu e
 J e
o mes
 ag e
 la rge
 inc re
  direct
r ry
o dy
 a rt
 pe rce
 re la
r of
  lot
  9
ia lly
  opp
 s ma
 re qu
i ms
v it
d ly
 T a
 app e
 ele c
r ms
 elec t
oun c
 c he
rit e
 s oc
 pu t
 I f
 se ve
 an ot
 anot he
 anothe r
iz a
r vice
 be s
 ba n
 re le
 be g
 differen t
 ope n
 st e
 conc e
r oss
i ving
 inve s
 inves t
 E n
d de
 resp on
 bu s
  '
l de
 t re
 pas s
 e c
 c ommun
 M u
ron g
 we a
 pa t
 cont inu
 p oss
ran t
 F e
 res u
 att e
  met
 def e
 appe a
 ca mp
 cle a
  vot
 sea s
T his
 p roce
da n
 rela t
 loc a
 la n
 fe a
 ea c
 eac h
 ne ve
ou rse
dat a
 ne x
o ble
 nex t
 t ry
 seas on
 p rote
 que s
 sec on
 ques t
 g ot
l w
ou rce
 neve r
 fre e
 att a
 Re p
  ‘
 bes t
 st re
rga n
 syste m
 acc e
 ca re
 T hat
 le t
i dn
  live
 p ost
olu t
 U S
ic le
 atta c
r ious
i u
 perce n
 percen t
l ieve
 b re
 sta n
 res e
 dis t
 A f
 bas e
  line
ormat ion
lit t
r oble
 le s
  data
rren t
lw a
 pe rf
 off ice
ra f
op t
 resu lt
 wee k
 ea s
 imp ort
 comp le
 incre a
 increa s
 with out
 w on
 inclu ding
 even t
 ca u
r king
â ¦
 p roble
m ine
r ks
 happ e
 re ma
 happe n
in it
 count ry
 bet t
o lve
 K e
rke t
 rele a
 vot e
 inclu de
 relea s
o ming
 qu a
  litt
 ke e
 bett e
 be lieve
ie f
 bette r
 rece n
 recen t
 inte re
 ca lle
 intere s
r ian
 interes t
 les s
iga t
o rgan
 litt le
 c lose
 an n
 le ve
 calle d
 ne a
  vis
 The re
 te c
 K a
  list
 S he
rna t
mit t
 pa y
 tec h
 Pre s
 e mp
 A c
 le f
 produc t
 lef t
 releas e
 A p
 res t
i ls
  Z
lwa y
d idn
m inist
 kee p
op u
 act u
  didn
 actu a
m oc
 T u
ra de
 p olice
l ding
 te s
 b la
 eff e
 tes t
 s w
_ _
 creat e
  orde
 continu e
 effe c
 effec t
 A t
rs it
ide a
 us ing
in de
 Un it
v ious
l oa
 E a
ran g
ron t
 sp a
iza t
 f orce
ive rsit
 ec on
 import a
 Ma n
lit a
 econ o
 rea s
  idea
 c olle
icat ion
 importa n
 e dit
 new s
 cla s
olog y
 Ca n
 Na t
 mon e
 secon d
m ily
lway s
 pres e
l re
 se rvice
' re
l c
lre a
lrea dy
 cont e
 proce s
 are a
 defe n
 proces s
ig u
 s imp
rien c
 be a
du a
 cu rrent
r iva
i lla
ranc e
 his t
 C e
i rt
  =
 pres ident
 compan y
 bre a
 In t
 t y
 - -
 reas on
 Unit e
 M on
 un t
opu la
 a lready
m inat
 Unite d
ract e
  organ
 O b
o rking
mitt e
 ma j
o king
r va
 mone y
 p osit
ima g
 a lways
 expe c
 tech n
 expec t
 bus ine
 busine s
 busines s
 lea s
  Q
 maj o
iversit y
l ian
 1 2
 ma rket
 rea c
 clas s
rienc e
 inf ormation
 des ign
 Ru s
ic ke
ha re
 p rof
 a ble
 st ory
 n on
ia ls
 W he
 hea lt
 healt h
i lt
l ies
 pas t
ina n
h ort
oun g
h owe
 report e
 awa y
 mus t
 cit y
hous e
 ty p
 H u
os p
 1 8
 es t
 man a
 importan t
i lita
 Sa n
 ma s
ide s
 commun it
 Int e
ris e
 respon s
dre n
 ret u
 E u
 leas t
  oc
 expe rience
du s
 c ost
 day s
 camp a
rang e
 campa ign
iden c
 b it
 p opula
 af f
 suc c
 cons t
 spe n
o rds
 sec u
 en ough
 re ve
 mana g
  view
  mot
  imag
 requ ire
 ma king
 G re
 exa mp
 examp le
l dren
 cont a
i ldren
h ildren
 an t
 fac e
d dit
 fa mily
d ian
 D u
 fa n
o ls
 lea de
 te n
l ize
 Rus s
rac e
ig e
 1 5
 ce rt
 succ e
 ta x
icat e
 rese a
 w orking
 resea rc
l ican
 Rep u
 tu rn
ig g
 c oa
lis he
 Repu b
me e
 prese n
 unde rst
 cau s
 comple t
  miss
ounc e
 rece ive
ra w
 though t
o ks
 fea t
 increas e
 of t
rg u
 f ore
ha racte
rw a
ra y
 va lu
 actua lly
 H ous
o oks
dus t
o lla
i qu
 oft e
 wat e
 ofte n
 manag e
 ex e
d oing
 c ove
mee t
 age n
o oking
v ict
 acc ording
 G u
raf t
 V a
 t imes
 C u
  meet
 ga mes
 1 1
 sen s
 st ru
 ba t
 stu de
 stude n
 studen t
izat ion
moc rat
ha ving
 be n
 s ing
ha rge
 f la
m ount
 su g
  opt
 St e
 Ob a
 M c
idenc e
 Oba ma
 s hort
 19 9
 S y
d ict
 Ma y
 c haracte
 T w
  doing
o ries
ic y
 playe rs
 con ve
 feat u
inan c
 comp e
ra is
 p ot
 sc a
 ea rly
 see n
/ /
 c ourse
ra ve
  having
 c hildren
 fu t
dde d
 whe t
v olve
 Pres ident
 seve ra
 whet he
 whethe r
 orde r
 a lt
 severa l
ha lf
 we n
 complet e
 dec is
 pres s
 f ive
 wen t
 su re
 y oung
 e qu
 des c
 fut u
 oc c
 like ly
l lowe
h rist
 en g
 cert a
 en e
h ope
icu la
dre s
 sc ien
 don e
 a va
m ilita
 Se n
 Eu rope
 State s
 tre a
 a long
 succe s
 futu re
 succes s
ig he
 month s
r ict
 underst a
 se x
 ag re
 on c
 agre e
 Repub lican
 s hare
  hope
l dn
 la u
 p le
 start e
 a rgu
i lding
 c ourt
 quest ion
ou ldn
 a mon
 dis p
 amon g
 det e
 onc e
 reg u
 certa in
 ca t
o rks
lishe d
dres s
 poss ible
 regu la
 invest igat
 understa n
 su s
op s
  ]
 Whe n
 valu e
  milita
 mean s
ila ble
m inu
 g oa
 V e
o ds
 an a
 not e
 kn own
 We s
 E ve
 ope rat
 s on
 N ort
 dis a
 ye t
i vit
 ac ross
 prote c
 protec t
 P u
 cu t
 caus e
 ru le
  rate
 st rong
 communit y
l most
l ip
 sug g
 sugg e
 F re
 exp la
 sugge s
 sugges t
  &
 cons e
 make s
 featu re
rnat iona
 fa s
 as ke
 e t
 retu rn
 wate r
rva t
 aske d
 b ring
o lde
 give n
 Hous e
 nat iona
 atte n
 se rve
 out s
 Ce n
 get t
l icy
r own
 E x
o licy
 inst a
 W hat
iet y
 gett ing
 Wes t
igg e
 ext e
r ous
 proble m
 mat t
 Un iversity
d ies
in dust
l int
 3 0
 In s
  ident
 Y e
 sen t
 C hrist
 P la
 ne t
rg y
 w rite
 c harge
h ighe
rip t
l ooking
 t og
 rep re
 part icula
 wat c
 matt e
 O f
i lling
 spa c
i ds
  X
 presen t
inn ing
' ve
 repre s
ra e
 sa f
 det a
 C it
 fa t
 starte d
 dea t
 deat h
 ava ilable
i dua
 saf e
  highe
 base d
  house
 trea t
  indust
 De mocrat
 part y
 acc ount
olut ion
 Cen t
 stu dy
. )
 spac e
igu re
 emp l
 empl o
 emplo y
  #
 hist ory
 exc e
minu t
 nat u
 S out
 Se c
icu lt
 spe e
v idua
 sit e
i vidua
d ividua
 a ddit
 any t
 se ries
 c omes
llowe d
 try ing
 ann ounce
 a lmost
 s ource
 tog e
 toge t
 toget he
 ex is
 ke y
 exis t
minut e
 togethe r
 acce s
 f oc
 acces s
 Can a
 On e
  half
in volve
rre s
 Wa s
  inde
 s ix
 is n
 p rope
 ref e
 1 6
 ste p
 pot e
 repres e
 represe n
  involve
 represen t
 person a
 pote n
m mitte
o mmitte
 a dded
iqu e
inn e
me on
d minist
 f ile
 inte n
 typ e
ris on
meon e
 foc u
 focu s
 sing le
  mes
o meone
du e
d dle
 en c
in j
 poten t
in dividua
o rwa
mis t
 leg a
 p riva
ina lly
  looking
lint on
 produc e
 anyt h
  )
 anyth ing
 cu s
 bu ilding
 O c
 cons u
 Su n
  individua
 D on
lit e
 say ing
 eff ort
l ds
 1 3
 ben e
ions hip
h ost
m ous
  vict
 clea r
 Q u
 majo r
 take n
 Mu s
rais e
iat ion
 En g
icat ions
 compe t
 spe a
 W it
ha lle
 Ja n
' m
 milita ry
  z
 mu lt
 nea r
 t ot
 1 4
 cus t
 secu rity
 disc u
halle n
 gu y
hallen g
 H is
 discu s
 discus s
 f inanc
 bat t
 Le a
lit ies
 De p
 de e
oun ds
  Â
 pre t
 econo m
 spec if
 pre vious
 acc u
 p olicy
 mes s
dminist rat
 bla c
 want e
 wante d
* *
 tot a
 s omeone
rae l
oun de
 imag e
  |
 con n
 cu lt
 Nort h
ic ip
i mu
 b oa
icip a
  minute
 ass e
 ent e
 1 7
 Au s
 Nat iona
 atte mp
 attemp t
 C linton
 ta king
 sign if
 fun c
  lu
 As s
 c lu
 2 5
 exte n
  :
 can n
 de n
 e ls
 b ody
 els e
 reporte d
 b loc
 f ront
i lls
 F u
  inj
o z
ic ials
i day
 1 00
 a lle
 conn e
i vis
 ana ly
 Is la
 vis it
 conne c
 connec t
 B la
 func t
howe ve
howeve r
 pa c
 researc h
rc u
 Cit y
 mas s
 c oming
 Su p
 desc r
ic it
  due
o rge
roa c
 colle c
 collec t
 Re s
 re duc
  however
 art icle
o rse
 descr i
 descri b
 conte n
 fe de
 nationa l
 run n
i date
 bene f
 signif ican
 sup e
 Aus t
 e it
d dress
 decis ion
 eit he
 eithe r
orma n
 N ot
mis e
v idence
 un c
b ody
o ving
b ove
 ta rge
 targe t
 fu rt
 furt he
 sc e
 qu it
 H owe
 outs ide
rien ds
 lau n
 occ u
 Ju n
o ols
d raw
 Was h
 Nationa l
 w rote
 D is
 fede ra
 c halleng
 a ve
o og
 Fa c
 mea s
 issue s
 furthe r
 Wit h
 cust o
 lea ve
 blac k
k ille
 see ms
 every t
 ref u
 compan ies
 exe c
 everyt h
 sce n
 everyth ing
l king
 De c
 e y
ie c
 state s
h ims
 Ge rma
ige n
 ey e
 He a
 Wash ing
 leade rs
 Howe ve
 Howeve r
 Washing t
 Washingt on
 watc h
 sc re
 te mp
 se lf
 che c
 Germa n
 ne c
 off icials
 federa l
l lu
i ddle
i bility
 release d
 beg a
 Ins t
 re n
 Is rael
 es p
 bega n
 L u
 Ap p
 meas u
 c oup
 sus p
ou ble
ou c
rne t
 pa g
 student s
orwa r
 bu y
Ã ©
 posit ion
 matte r
orwar d
 exec u
 execu t
 e ma
hims e
 long e
himse lf
 attac k
 set t
  himself
 a bove
  init
 a mount
 Pa rt
v y
 the ms
 thems e
 its e
 defen s
 e vidence
 itse lf
 themse lve
 themselve s
 tru e
 own e
 19 8
 sens e
 count ries
 gu n
 ne g
 laun c
iec e
 a ddress
 pass e
 Sout h
i ding
ha mp
 act ion
 est a
 imp rove
 significan t
 simp ly
 pe n
 pag e
 was n
 Ju s
 A g
' l
'l l
 sit u
in king
 devel ope
 describ e
 diff icult
i j
 t rade
  dan
 situ a
 Se a
oog le
 f igure
 imp a
 runn ing
 s n
 Jus t
ivit y
 Ge n
 situa t
 mat c
 prof e
 profe s
 employ e
 net w
 nee ds
 profes s
 group s
 an s
 Gre e
 app roac
 cult u
in ds
 every on
 everyon e
 des t
 Se p
 pret t
 benef it
os ing
 nee de
 neede d
 ans w
 answ e
rit ies
 alle g
lon e
 chan c
 chanc e
l ost
ra ry
 ma g
 prett y
 inj u
rne y
 dec a
 su rp
 pu s
 measu re
 sa w
 priva t
 dee p
 Re a
 Con s
 de vice
 Ac t
 cap t
 playe d
 con dit
 quit e
ract ice
 indust ry
 ene rgy
 Tw it
 play ing
 5 0
 sec t
 fas t
 loca t
 sta y
 Af t
 f riends
 respons e
 a dministrat
 esp e
 Aft e
 meet ing
 New s
 espe c
 inst e
 conten t
 b igge
 inste a
 instea d
 mess a
  lost
 messa g
 espec ially
ins u
  race
ia g
orman c
  host
ormanc e
da ma
d iate
 comp u
 wee ks
  kille
 recent ly
 elect ion
 su f
r inc
 Twit t
 Twitt e
 opp ort
 opport u
os a
 opportu n
 des p
 kn e
 suf f
 change s
 Twitte r
 stan da
 mat e
 p ort
  lowe
 Oc t
 conce rn
d idate
 e p
 Ma t
 longe r
  raise
i ling
 challeng e
 Afte r
 Dep a
  {
 pa re
 stru c
 t it
 acce p
 accep t
 Ba n
lize d
 Con g
 privat e
 Depa rt
__ __
me diate
 L on
o rms
r ming
 C he
 S w
 Sen a
 offe n
 M y
 se rious
 ave rage
 w orks
 p ractice
 coup le
ra dit
 pare n
 f orward
ommitte e
 2 1
 wa it
 paren t
rres t
 w rong
 st ore
 Sep t
 Fac e
 The s
 Depart ment
 highe r
 opportun it
 on line
 e duc
 2 4
rit t
 educ a
 educa t
 reg a
 potent ia
 Sena t
 ple a
 potentia l
dama g
 compu t
 Ea s
 let t
 understan d
 Thes e
 t rave
 messag e
v oc
 de ma
in ding
 Au g
rit a
 w ords
 can didate
 re view
 deca de
 result s
 service s
 law s
m ile
 lega l
icate d
 popula t
l oss
 pla t
r ose
 minute s
 brea k
 Sp a
hap s
d ding
i lities
 any on
 anyon e
 Jun e
 analy s
  damag
ha e
 agen c
r iday
 susp e
 exp re
 expre s
 dema n
 un it
 exa c
 prote s
 protes t
 nec e
 nece s
 expres s
 neces s
 resp e
l igen
 j a
me rge
 inte rnationa
 lan d
 respe c
 techn ology
r haps
 respec t
 tea c
 sta g
 pe a
 C ount
 Be n
 receive d
 ta s
 expect e
 expecte d
 p iece
 la c
 create d
 Cong re
 B re
 ident if
 Ju ly
du le
 proble ms
 lan g
 perf ormance
 way s
 reve a
 sec re
 scien t
voc a
 announce d
 coa c
 cap it
 eas y
 cann ot
 Congre s
 Congres s
 quest ions
 tit le
 un a
 Eas t
 goa l
 pa p
op y
 rep e
 impa c
 impac t
i dge
met imes
o metimes
 lang u
 s of
 Face b
  +
 support e
 eng ine
 sc he
 my s
 simp le
 Faceb o
 Facebo o
  draw
 Faceboo k
o mot
 involve d
 Sa t
 pre p
 pa n
m mediate
 Aust ra
ra ining
l iving
 cap a
ic ian
minat e
 exp a
o ose
 F riday
 c ru
 de live
 up date
 exac t
 sta f
 staf f
 care e
 capit a
 G oogle
 O p
 nea rly
 Tu e
rre c
 sof t
 langu a
 langua g
 languag e
 ext re
 case s
 St re
 19 7
 relat ionship
 us u
  <
 Pa t
ic ien
rrec t
rac y
m miss
o mmiss
 hea rt
rvat ive
 fan s
 differen c
 differenc e
i rcu
  insu
 w ort
 Mon day
 expa n
 Tue s
 live s
 a rrest
 Tues day
 C la
 secre t
 rep la
 c y
 te le
 sea rc
 wort h
  living
ritt e
 kille d
iz ing
 report s
 scre e
ã 
i mmediate
 Da n
 compet it
 pap e
 s ize
 met h
 ma c
  rap
 ass u
 persona l
 st rate
 ass oc
 esta b
 strate g
dat ion
 tw e
hous a
d ien
 requ e
housa n
 reque s
 usu a
 reques t
d og
 clu b
 American s
rit is
 damag e
 internationa l
 Ja p
i ot
r mine
  immediate
 se le
 a bility
mit e
 trans f
 take s
 Russ ian
 2 2
 Jap a
 wea p
 weap on
 Japa n
 scree n
 mate r
 t radit
 te rms
 sele c
  loa
 selec t
 pub lished
v inc
 W hile
 Sp e
ritte n
ic ks
l ligen
 O u
l imate
 sa le
 Europe a
 s ort
 ga ve
 Europea n
 mot he
 s la
 s qu
 list e
 financ ia
 4 0
ommiss ion
 financia l
 sc ore
 inf lu
 part n
 partn e
  log
 happen e
 happene d
 sa t
 regula t
dde n
 B y
rit ing
 necess a
 fore ign
 seve n
m ble
 scen e
 current ly
 Of f
 N ove
 cent e
r omot
 Jan u
rs day
u rsday
h ursday
 w hose
 situat ion
  @
 great e
 aff e
 Pa u
 affe c
 affec t
 plan s
 p lu
 K ing
ia s
 Pe n
 pat ien
r ike
l ks
rs u
o ods
 prope rt
 Fe b
minat ion
 p ict
 rec og
 Janu a
 recog n
 event s
 part icipa
 Janua ry
 repla c
 natu ra
 equ a
 tea ms
 prep a
 disc ove
 pre ve
 s hip
 sex u
 int roduc
 preve n
 C ourt
 sexu a
 preven t
 comput e
 Sept e
 pict u
 design e
 Septe m
 Septem b
 Septemb e
ritis h
 gu a
 Septembe r
 area s
r olle
 mult ip
 pictu re
 g on
l ication
 ta ble
osp it
 T V
ospit a
o rrect
 lett e
 en s
  date
ouc h
 An g
 nat ion
 caree r
 C omp
me w
 We dn
 Wedn e
 Wedne s
 reduc e
 Nove m
 se p
 Novem b
 Wednes day
 Novemb e
 Novembe r
 fe lt
 M inist
 han ds
  range
 approac h
 te x
 J on
h icle
 influ e
 influe n
 Be a
 T hursday
 administrat ion
 tex t
 Eve n
 Te x
 fat he
 conf e
 plan e
 effect ive
 popula r
 Ac c
 bu ilt
 Gen e
 Ja c
 plan t
  hat
 stre e
 stree t
 en j
  loss
 Sc ot
 f le
 enj o
 stag e
 t housan
 product ion
 Aug u
ras t
 pre c
 econo my
 Augu s
 enjo y
 Augus t
 2 3
 Ma s
 Sun day
 plan n
 alt e
 custo me
ra ine
 Y a
 le n
 p rove
 a llowed
 Ca p
ins p
 spen t
 matc h
 Oct o
 include d
d iu
 Octo b
 Octob e
 Octobe r
 leg is
 legis la
 legisla t
 atten t
i ring
 kne w
 want s
ris ing
 t own
 sa ve
? ”
 sep a
r idge
 def init
 B ritish
ras s
 Con t
 Pe t
 qua rt
l ooks
 Cana da
 Bu s
ounde d
 perf e
 plea s
 sp ot
 p romot
 are n
 get s
 perfe c
 perfec t
 move ment
 de mon
 Cent e
 insta n
 ma int
 sa n
 pu rp
  }
 Ma c
 force s
 ga s
 repe a
ig it
 va rious
 Dec e
 Ke n
 Stre e
 batt le
 struc t
in ks
 patien t
i mite
 netw o
  minist
 compa re
 w is
 pu n
 accu s
 chec k
ic hae
r my
 particula r
 attent ion
 Stree t
 populat ion
 U K
 K u
  looks
 b rough
 brough t
rot he
 f it
 K ore
ide re
 quart e
imite d
 stat u
 I S
 netwo r
 networ k
 reac h
 count e
 s howe
idere d
 t raining
m ix
 ve hicle
o rities
' d
 dan g
 prog re
 progre s
 progres s
 suff e
 Kore a
 ass is
rant s
 defens e
 assis t
 son g
 an g
 disp la
 Bla c
ra ms
 Dece m
 b on
 Decem b
 Decemb e
m oving
 it e
 conta c
 es s
 contac t
 Decembe r
 man u
op ing
W hile
 dep e
 leade r
 19 6
 rule s
 depe n
 lowe r
 cultu re
 P ost
 cre dit
 con duc
 fathe r
 mothe r
 cit ize
 citize n
 boa r
 up on
ichae l
 inde p
 t on
 stru g
 strug g
 late s
 lates t
 struct u
 indep e
 cons is
 consis t
 indepe n
 De s
 un s
 indepen de
 independe n
 re move
 feature s
 searc h
 coac h
 replac e
 success f
 successf u
 ta lking
 pus h
m ments
o mments
 Je w
 boar d
 dang e
 Senat e
 La n
 dep a
 p s
lligen c
lligenc e
 depa rt
 trans p
 cons idered
 p rison
 opp osit
 T imes
 conduc t
 leve ls
 ens u
 individua l
 Count y
 employe e
 investigat ion
 argu e
 Part y
 won de
ia ble
 res ident
  insp
 funct ion
 An t
 Don a
 press u
 mac h
 scien c
 scienc e
ig ious
inne r
 cent u
 Cente r
d olla
 c ircu
 f is
 addit ion
 200 8
 const ru
 parent s
 Wa t
ic is
 I ma
 syste ms
 c ross
h inking
 n ort
 sp ort
 Christ ian
 gu e
 w ritten
 gene rat
 consu me
 est imate
 In dian
 A le
 S oc
ra u
 increas ing
 bloc k
 offen s
 relat ive
 Ne t
 Mus l
 reac t
 execut ive
 ta c
 p it
m iddle
 Ca t
 c limate
 Tex a
l ict
 g la
 b lu
 spee c
 C re
 refe re
 conc lu
 Blac k
 w riting
 st y
 f ix
 la y
l ions
 not ice
 bot t
 constru c
 f ine
 su rve
 construc t
 complete ly
 200 9
l ief
 pressu re
 c olla
 e merge
 ma p
 O t
l imited
 interest ing
 res ource
 opportunit y
rc has
raf f
 majo rity
 mach ine
 colle g
 particula rly
 Lon don
 desp it
 despit e
 un f
 cla ims
 Isla m
 demon s
 gre e
op a
 f inding
 soc iety
os u
 ca rry
 inc ident
 sw e
 answe r
 attac ks
 require d
 bigge s
 bigges t
ou rage
 exact ly
 M ore
 dete rmine
o rney
 influen c
 St u
 bea t
 exce p
 office rs
 Ima g
v s
 excep t
 ju dge
 2 6
  middle
diu m
icke t
 2 8
 2 7
 certain ly
oz e
 st ories
 Dona l
 product s
 s ometimes
 alleg e
 gue s
 Donal d
 rea ding
 stu f
 Gree n
 stuf f
 f inally
 can c
 lea g
 comp la
 leag u
 leagu e
 canc e
 pape r
 Mc C
 one s
 imp le
 u lt
 expe n
 colleg e
 lea ding
 describe d
 Feb ru
 expe rt
  mix
 Febru a
 squ a
 Februa ry
 s out
 ass a
 de g
 deta ils
lit ics
 met a
 start ing
o litics
 qua lity
 multip le
 fee ling
 showe d
 bu dge
dre a
 g iving
l igious
 ea t
 eng a
 cost s
 enga g
ra ma
  dolla
 relat e
r ring
 pac k
 T H
 ce le
 app a
l lions
ina ry
 T re
 influenc e
 pre f
 exc it
 continue d
 educat ion
 reg ion
 demons t
 Be c
ron e
 un e
osp e
 displa y
 part s
 sign a
 budge t
 c omments
 lac k
 post e
 researc he
  rise
 rea dy
 natura l
 maint a
 ret a
 t hinking
 ga t
 s le
 Republican s
 st rike
igit a
 refu s
 w ouldn
vinc e
 nu c
 Lea g
k ids
 pu rchas
l ications
 Leag u
 Leagu e
 Democrat ic
 purp ose
h ospita
 imple ment
hap e
 increase d
 nuc le
 Da y
b ilities
 effort s
i llions
 vote rs
 j e
 M is
 p rinc
 ep is
 clea n
 ca lls
 usua lly
 effect s
 addit iona
 plat f
 structu re
  ine
 refere n
 Z e
 pe rhaps
 a lone
 N A
 surp rise
 Minist e
 confe re
 F irst
 alt hough
 confere n
 conferen c
 quarte r
 Texa s
rant e
 guy s
 Ca s
 standa r
 sexua l
 Ja mes
 be y
  hospita
 w if
 event u
 eventu a
 bey on
â ¢
 direct ly
h ools
 beyon d
 conferenc e
 ( @
 speec h
  mile
 rea lity
 cele b
  kids
 Ba s
me ly
 cas t
 through out
 c ouldn
 M ichael
 help e
 standar d
 safe t
  dog
 immediate ly
 b orde
iag e
 include s
 conce p
 cove r
 concep t
 comple x
 A rt
 additiona l
 repea t
 wif e
 mean ing
 ve n
 assoc iate
 c opy
olut e
icien t
 soft w
o rry
 epis o
 Ma rt
 ess e
 softw a
 softwa re
 Ministe r
  …
 gon e
 designe d
 U p
 safet y
 I I
o lds
igita l
 dis e
 inst ru
 ps y
d vis
 b ooks
 c orrect
 ref le
 sepa rate
 agenc y
in ke
 Pla y
 minist e
 office r
 en de
 a he
 esse n
irt u
 reac he
d raft
i lies
 beg inning
 mu rde
 thousan ds
 ta le
 psy c
 ahe a
 ahea d
v olution
 App le
me c
  dy
 episo de
  Ð
 b log
? "
 Re c
o rist
l icit
 pre dict
 u t
 Off ice
 dec la
  >
 launc h
 appea rs
r rive
r iage
 art is
 passe d
 cente r
 Ha n
 6 0
 Ang e
 sty le
ris is
 propert y
 helpe d
  lose
m ilies
o lt
 sma rt
 ne u
 disa p
 Ass oc
  x
 disap p
 en a
 Ra n
 De a
o lding
 Imag e
oun ding
 posit ive
r riage
 a rrive
du lt
 lette r
 suspe c
 suspec t
 su it
 ban k
 en f
 Democrat s
  moving
 nucle a
 conve n
 natu re
ha c
 condit ions
 The n
 organ ization
 powe rf
 t ouch
 powerf u
 Te a
in ian
 Sup e
  ign
 reason s
 ste a
r ief
 supp ose
 mys e
 nuclea r
 myse lf
 liste n
 happ y
 may b
 Mat t
 mayb e
d ouble
 pref e
v ille
 fe ma
 fema le
 fa ile
 faile d
 characte rs
s olute
 y a
o ope
 compute r
b solute
 compare d
 Ex p
 tradit iona
 agen t
 refle c
 es c
 reflec t
 artis t
 e va
 inst it
dien c
 instit u
 reg is
 sea t
 regis t
 Fre n
 eye s
 Fre e
 n ice
 Eng lis
 powerfu l
 large s
 centu ry
 Englis h
 re ligious
 institu t
o llowed
 tru s
 y ourse
 ye s
 He re
 U s
 ap a
 profess iona
  limited
  lite
 A lt
ha u
 C han
 stre n
dienc e
 A la
 force d
 necessa ry
illa ry
 act ive
 scient is
 expen s
 Ba t
ima ry
r imary
 Fren c
 trus t
 scientis t
 Frenc h
 larges t
 introduc e
 E s
 Me t
 analys is
oze n
 spen ding
 su rf
 te e
 2 9
 conse rvative
 citizen s
 Ge orge
 stre a
r ls
 sc hools
ha rt
rose c
 purchas e
 G ove
 awa re
 mean t
 eventua lly
 G O
 f ollowed
 Res e
r ospe
 pea c
 imp re
ic he
i lu
 treat ment
 stren g
 sign e
 independen t
ra dua
 ensu re
 Op e
 streng t
 capita l
r opp
 as p
  draft
 f ort
osu re
rosec u
rosecu t
 dec line
 Qu e
 eas ily
 Se rvice
 a ma
  ille
o mew
 appea r
 fa milies
 ille g
 sy n
 princ ip
 spee d
i rma
 act ions
 f ru
h orities
op ose
 Me x
r opose
 const it
 constit u
 un ique
 give s
 Â £
 yourse lf
l osing
 appa re
 appea re
 sp re
 appeare d
ician s
ic king
 strugg le
  double
 signe d
m ory
 idea s
 ma le
 inte g
 sett le
 fre qu
 frequ e
 freque n
 weapon s
 instan c
 but t
rren c
 c hamp
 deg re
oun dation
 instanc e
 impre s
 degre e
 decade s
 p olitics
 sche dule
 apa rt
 enf orce
 Inte rnationa
  mist
 b rothe
 use s
 Gove rn
 impres s
voca t
 P ort
 peac e
 psyc h
 Pet e
 sale s
 Austra l
 alte rnat
 develope d
iz on
 custome rs
 benefit s
 dise a
 disea s
 engag e
 conf lict
 diseas e
 bea u
 tru t
 c risis
 p ropose
 E U
 note d
 Austral ia
 Sta n
 La s
 trut h
 consist e
 relate d
 sett ing
 Ea rt
 Internationa l
 goa ls
 individua ls
 beau t
 fea r
r izon
 continue s
 Eart h
 Un ion
dre w
 illeg a
 appare n
 apparen t
 P olice
  drea
 inte lligence
 opt ion
 participa t
 German y
 previous ly
os c
 3 1
 fu lly
 manage r
  lice
 rate s
 wee ke
 weeke n
 pleas e
 line s
 clea rly
 ve t
 prepa re
 successfu l
 Re g
 a dult
 Cana dian
 large r
 t raff
 spre a
 Pa c
 know le
 prog rams
v u
 La t
inis he
i P
 lice n
 exc lu
 C olle
 resource s
 Ma g
 greate r
 p rimary
 knowle dge
 e mot
 stu dies
 ke p
 kep t
 au dience
 essen t
 A re
 fee t
 gree n
 De f
v irtu
 sle e
 reache d
 Inte rnet
 accus e
  mec
 B rown
 ba la
 teac he
r iate
ica g
 Ste ve
 place s
h icag
 ann u
 ju mp
m ming
ic ies
 exc han
 exchan g
 statu s
 manu f
 manuf a
 manufa c
 manufac t
 ta n
 manufact u
 ag g
 launc he
 meth o
ivis t
 a dvis
l lian
 bala n
 know s
 balan c
 act ivity
 han dle
 metho d
 source s
 N u
l icies
o licies
 E le
 owne rs
 cause d
hicag o
 B lu
 A ma
o lling
 Sc ien
 opt ions
 mass ive
 200 7
 twe e
 Le t
 Sec u
 mile s
 ult imate
 cit ies
 N F
o rst
ij u
 ca lling
 Ag e
 sent e
 Scot t
 st opp
d opt
 ende d
 spea k
 De n
 sente n
 pit c
  olde
 Va n
 researche rs
 su n
 regula r
 senten c
 capt u
l ous
 w orse
 fu e
 surf a
 C E
 surfa c
v ides
llu s
 spen d
 Eve ry
 happen s
 have n
 employee s
 Gu a
 Eng la
 Engla n
 F rance
 tele vis
 w illing
 cy c
 3 5
 st oc
rolle d
 Pa le
 raise d
 Ba y
  virtu
 Inst it
 Instit u
 K n
 a dding
 exchang e
 na mes
 p olicies
 Englan d
 Institu t
r orist
r rorist
 N B
 charge s
 a bsolute
 any w
 In c
 inten t
dre ds
d ropp
 concern s
 un p
n dreds
 twee t
 re j
 ac qu
. '
 f ly
 surfac e
 fun ding
. ’
 patient s
 open e
 aut horities
 annu a
 rec ove
 creat ing
 A P
 ministe r
 R oc
 mec han
 C le
 tre e
 hea ring
 see ing
rc is
 pat t
olog is
 neg a
 wa g
iju a
 Sec re
 pack a
ijua n
 packa g
 nega t
mit s
 temp e
ijuan a
ic on
 lea ving
 c ry
 consiste n
 refus e
 cat c
 Pe ople
 offe re
 traditiona l
 ma rriage
ract ion
 trans it
 engine e
 offere d
 La w
 agree ment
 Secre t
v illa
 n ine
 H illary
 C O
 poste d
 g rap
 def ine
 opp on
 oppon e
 oppone n
 opponen t
 M ost
 weeken d
 B it
 p rosecut
 va c
 esc a
 revea le
 reveale d
 R y
 app lication
op osa
 most ly
r oposa
 value s
 Ale x
k ills
o vides
r ovides
da ily
 hea t
o lls
d icated
 Acc ording
 a dopt
 blu e
rna list
 b le
 rec ords
 transf e
r ijuana
 S n
 deman d
 open ing
 an c
ilu re
 Mon t
 O ve
 c ommittee
i ming
 believe d
 et c
 b rief
 rest a
 strateg y
 Mis s
 edit o
 des e
 patt e
 arrest e
 dist a
minate d
 acc omp
 che a
 It a
ou rnalist
 sca le
 device s
 part ies
i rls
 T rans
h olding
 law y
 lawy e
 balanc e
ranc is
 C ommittee
 arreste d
 referen c
 what e
iga n
 cat e
 stat ion
  iP
  mount
 Ge t
 whate ve
 qu ot
 reve n
 represent a
 neg ot
 assa u
 whateve r
roc k
 assau lt
 C hicago
u ndreds
 pe t
 s omew
  ;
 p rovides
d igital
 platf o
 West e
  mine
 sa mp
 as king
  dropp
 representa t
 sn a
 produce d
me mory
 hat e
 estab lis
 establis h
 g radua
H owe
 focus e
 Au t
 T han
 image s
T ru
 p roposa
 Bus h
 Pu b
r ouble
 on t
 run s
 Pres s
 dist rict
izat ions
 19 5
 platfo r
 prof it
 resident s
 borde r
 Ye a
Howe ve
Howeve r
 exten s
i rp
 enc ourage
ript ion
 An n
 opposit ion
 Hea lt
 patte rn
 Healt h
 Pa n
 s hape
 inf e
 sma lle
 C ommission
 const a
 appea rance
 S on
op riate
r opriate
 c ore
 3 2
 F rancis
 licen s
 Bec a
 Just ice
 captu re
 sect ion
 ta p
 dolla rs
ivis ion
 mist a
k illing
 platfor m
  digital
 s olution
 Cu p
inishe d
m illions
 Ot he
 interest e
 intereste d
 sentenc e
 tale n
i lian
rg ing
 talen t
 19 4
 gene rate
 highe s
 highes t
 dista n
  memory
 pa int
 Fe de
 respons ible
  daily
 E c
os of
 Pale s
 the ory
lip p
 offe rs
 Pales t
  vs
 occ a
  villa
 occa s
 rest rict
 He n
 tre n
 agree d
ha w
 recogn ize
 televis ion
 C oa
 mista ke
osof t
 re w
 surve y
 Beca u
 Becau s
 Becaus e
 In f
op he
 dete c
r osoft
 detec t
 expla ine
 invest ment
 At t
 definit e
 type s
 opp ose
ic rosoft
 p rospe
 f lu
 Institut e
  millions
ima ls
 M ike
h undreds
 gat he
 referenc e
 rec a
 equ ip
 hea vy
 bas is
icis m
ivit ies
 propose d
 8 0
 understan ding
 agg re
 te rrorist
rw is
 B ru
 Gre a
 explaine d
 San de
 F B
 consta n
 plane t
i mon
ologis t
 partne rs
 slee p
 defe a
rwis e
 defea t
 ont o
 c hose
 constan t
 hospita l
____ ____
 associate d
 fa ilure
 We b
  ice
 Ou r
 NF L
 negat ive
 rej e
o lly
 bec omes
 reje c
 rejec t
 Secu rity
 dange rous
 wa ve
 fre s
  hundreds
 opene d
 app ly
 res is
 resis t
l ving
  killing
 ident it
r ray
 T y
 Z a
 Weste rn
 ga y
 manage ment
 con g
 S inc
 bec oming
 cont rove
 eas ie
 easie r
 w inning
 Grea t
 condit ion
 ama z
ou is
 legislat ion
 un like
 act ivist
 controve rs
d ds
 assist a
 assista n
 Man y
 fa ls
 alternat ive
 accuse d
 constitu t
 spec ies
 packag e
 wag e
 rea de
rita in
 put t
r iot
v iding
 miss ion
 we s
 200 6
 just ice
 Je s
 Pla n
 serve d
 fa it
 extre mely
 wes t
 illega l
 C ommun
 Dis t
 locat ion
iat ions
 A M
 att orney
 scientist s
 vict ims
 wea lt
 wealt h
 sca n
 be lief
 ma rijuana
rc a
 Te c
 communit ies
 j ournalist
 bott o
 as t
men s
 init ia
 t rouble
 F la
 P M
 mas t
 inte rnet
 depart ment
 fla g
iz z
 fast e
 Sande rs
 vict ory
 9 0
 Musl i
 leaders hip
 Ka n
 D irect
 Musli m
 sw a
 Supe r
 exist ing
 sw it
o ops
 n ove
 fait h
olu n
  holding
 swit c
 transp ort
ina ls
 Af rican
 poss e
 watch ing
 note s
 imag ine
 promot e
 view s
 samp le
 fres h
 non e
 teac h
r ounds
 putt ing
 A ve
 cove rage
 z on
olun t
 supporte rs
 3 6
 argu ment
o lving
 L ike
 consisten t
 Sa u
 bu n
 launche d
 exist e
 respon de
 ite ms
 Le g
 expla in
 pan e
d inat
 botto m
! ”
 definite ly
 sa c
 se s
r dinat
 back g
 posse s
  hac
 charge d
 ma x
 L ive
 M ot
 repeat e
ire ly
 issue d
 inte rf
o rdinat
 E g
 TH E
 imp e
 competit ion
 play s
in va
 posses s
 des ire
 up s
 FB I
 Tec h
r iety
 stre s
 stres s
 dec e
 ru s
 suggest e
 suggeste d
d ozen
 Sinc e
 site s
 ca rds
 pu rsu
 nort h
 resta u
 Af g
 tempe rat
 cas h
 temperat u
 temperatu re
lc u
 an imals
 B ot
 secu re
 professiona l
 Afg han
 te lling
 mon it
in vit
 ret ire
h omes
 R E
 discove re
 un le
 Def e
 tee n
 w orst
 close d
 inten s
 ent irely
 asp e
 B ritain
 fals e
 C ru
 Ba c
 reven u
 organ is
 revenu e
 P le
 H on
 F orce
 smalle r
 t ools
 f ourt
ie g
 In de
 discovere d
 O s
 direct ion
 excit e
d vocat
 U N
lif t
 b ru
 len g
 profess o
o ost
m ort
 batt e
 supporte d
 Jon e
 De t
 don a
 cate g
ã 
 leng t
 aspe c
 Jone s
 aspec t
 business e
 businesse s
 7 0
o viding
r oviding
 L ouis
 olde r
h olds
 decla re
 plann e
 initia l
 require s
 act ivities
 dona t
 insu rance
 ses s
rcis e
 lu c
 strengt h
 identif ie
 conse qu
 4 5
 large ly
 princip le
 Isla n
 consequ e
 cau g
 caug h
 conseque n
 caugh t
 P owe
 candidate s
inke d
 de le
 test ing
 suppose d
ins e
 ope rate
 regist e
  invit
 C hamp
 conte x
 ena ble
 contex t
 comp on
 decis ions
 compon e
 compone n
 componen t
 virtu a
d omes
 P C
 fa mous
 believe s
 presen c
 refu g
 presenc e
ie lds
  homes
 Blu e
 tu n
 Rese a
 construct ion
 tru ly
** **
 Resea rc
 refug e
ig rants
 eas t
 gues s
 Con f
 Pa k
 Jew is
 generat ion
 organ ize
  dozen
 Jewis h
 annua l
 wit n
 witn e
 witne s
 witnes s
  inva
 un re
 lengt h
 plann ing
domes t
 asse s
 se qu
 C B
 app rove
 was t
 place d
 Ban k
 Assoc iation
 te lls
 gen de
ommitte d
 edito r
 ce lls
  rough
 Me n
 Ste p
 At la
 identif y
 has n
 ent it
 su rge
 interest s
 supp ly
 catc h
M ore
 offens ive
 wis h
 M P
 view e
 che e
hous ing
 enforce ment
 Ange le
 u rge
 GO P
 Te n
 introduce d
 B B
 rep u
 stopp e
m igrants
 Je f
ins is
insis t
v olunt
 sport s
 M icrosoft
 miss ing
 Defe n
ig inally
 C I
r iginally
b ble
 p roviding
 wait ing
 use f
 usef u
 chan n
 chann e
 zon e
 sequ e
 Ye s
 C A
  insist
v ies
 beaut if
 conven t
rc raft
l lies
 estab lished
 R ive
 ban ks
 occu p
 mast e
 news p
 Jef f
 Angele s
 200 5
 remove d
 Inst e
du re
 G roup
 amaz ing
 F ore
  domest
 Inste a
 Instea d
 inju ry
 stoc k
 usefu l
 fan t
 discuss ion
 Cons t
 t icket
 swe e
 down loa
 sprea d
 fant a
 CE O
 asses s
 ten s
 sout h
 Colle g
 newsp a
 stan ding
 newspa p
 newspap e
irma n
 fanta s
 Comp a
 tax e
 beautif u
 stoppe d
 Sup re
 Sy rian
 measure s
m my
 fourt h
 file s
 g irls
 operat ion
 cance r
rac is
 grap h
vu l
 manage d
 ea rt
 there f
 Te s
 Palest inian
rke y
Ã ¡
 Ry a
 va s
 figure s
 frequen t
 vict i
 techn ique
 identifie d
 capa c
 licens e
 Pak is
 Be t
 rega r
  housing
 Pakis t
 t ip
 s kills
 A w
 f inished
 fun ds
 Pakist a
 Pakista n
 locat e
o ront
 c ommitted
 vet e
 focuse d
 app re
 Le e
 arrive d
 e g
 keep ing
r igge
 ac kn
 theref ore
 offe ring
 ackn ow
 acknow le
 A ls
ic ing
 capac it
 exclu s
 emerge n
 eart h
 compla int
 Rya n
 step s
 victi m
 t ough
i king
 s ides
 Japan e
 Japane s
 Japanes e
 st range
 instru c
 Colleg e
 loa n
 instruc t
 200 0
 relative ly
 La ke
 Supre me
 out c
 fee ls
 identit y
 quot e
 othe rwise
 fis h
ha irman
ha rp
Tru mp
in p
oront o
 protect ion
 owne r
ic ious
 imp oss
lcu la
 P rof
 inte rp
 Spe c
! "
 S E
 chea p
rne s
 defens ive
ia ms
 exe rcise
 A rmy
 Su b
 connect ion
 attac ke
l iams
i llus
 Govern ment
 va n
l liams
 E dit
 f orge
 brothe r
i lliams
 ele ments
 e dge
 happen ing
 Se e
 c lot
 D N
 a dvocat
 Ama z
 collect ion
 sy mp
 Ka t
lcula t
 Sw e
 s ke
 emergen c
 trans la
 transla t
 assu me
 aggre s
 Secret a
 tas k
 suggest s
 con vict
 aggres s
 z e
 out p
i lot
 Alt hough
 c ommission
 Austra lian
 gende r
 backg r
 Ou t
 McC a
 mu t
 present e
 J ose
 Bit c
 bigge r
 distan c
 de la
 monit o
 backgr oun
 start s
 backgroun d
i lly
m out
rrenc y
 demonst rate
 Cons e
 sus t
 spec t
iat ive
 ac a
 spea king
 ta lks
 acc ident
 suspe n
 Sp ort
rip p
 organ izations
 lau g
 Scien c
raine d
 Scienc e
 a rmy
 taxe s
 than ks
 planne d
 Ma ry
 cre w
 su dden
da ry
 Un de
du t
 asse t
 dela y
 cut s
 L y
ras e
 help ing
 ste e
rast ru
lip s
ide ring
rastru c
 esca p
rastruc t
rastruct u
 partne r
 standa rds
 ba g
 murde r
ha rde
 Tea m
 scient if
 C N
 dropp e
 secon ds
 Researc h
 is la
 consequen c
 consequenc e
 Ope n
  volunt
 T O
 M iddle
 19 3
 wast e
 distanc e
rien t
 Bitc o
 sust a
 Pa s
 Als o
 turn s
 Secreta ry
 aca de
rastructu re
 US A
 va riety
 market s
osp he
 En t
 conclu de
 advis e
 s ounds
 droppe d
rvat ion
 account s
 Atla n
 ign ore
 prospe c
 prospec t
 Atlan t
 Da t
 N O
o rary
 imposs ible
o vis
rres p
 3 3
rante e
 E S
 P A
 professo r
 isla n
 operat ing
 Me a
 b ike
 vote s
rac ke
mout h
irp ort
 increasing ly
  harde
 R oa
m ining
 develope rs
 apparent ly
 serve r
 live d
  vul
ra it
 chang ing
 w orry
 refuge e
moc racy
 test s
 unit s
 allege d
 ple n
r imes
 domest ic
 butt on
 ru ling
 F oundation
 Francis c
 Man a
 express e
ila n
 agenc ies
 sit t
 pen a
 ya rds
 tw ice
 ultimate ly
 tas t
imu la
  losing
ã 
 Image s
 cultu ra
 health y
 absolute ly
 def a
 pay ing
 S ing
 off s
 villa g
 devel oping
 villag e
 colle a
 vis u
 collea g
 close r
 colleag u
 colleagu e
 stat is
 Ple a
, [
 cent re
 see king
i lve
 rega rding
 lan ds
 expens ive
 vas t
o ordinat
% )
 poss ibility
 beautifu l
 conta ine
 care f
 La u
 expert s
  racis
  rock
 sp on
 Las t
 c hart
 visu a
 Dist rict
 Ve n
o rage
 g ian
 conf u
 write r
 gian t
 statis t
 Ele c
 Hu ma
 app ropriate
 ban n
 confu s
 tac k
 f if
 Elec t
 gradua t
 Pete r
rais ing
 B ost
 fue l
 A N
 Ca mp
 Plea s
 laws u
 lawsu it
 sitt ing
 invest o
 app lications
 fif t
olog ies
r oops
 plen t
mise d
 Francisc o
 percent a
 percenta g
 percentag e
 T oronto
 unle s
 unles s
i dden
 200 4
 respons ibility
 Mas s
 E mp
 tru c
 capacit y
 caref u
i rcraft
r omp
 I mp
 A C
 a rms
 cove re
 covere d
 f orms
  illus
 rew a
 Pu t
 5 00
 un iversity
 Amaz on
 gu ilt
rresp on
 manufactu re
 presente d
 mag a
 Eg y
 Aw a
 st ring
 Egy p
 Egyp t
 E t
 scientif ic
 elect ions
 estimate d
 she e
 maga z
rama t
 magaz ine
  ly
 inten de
 vehicle s
 W illiams
ra ding
 intende d
 help s
 occu rre
 occurre d
 street s
 Bost on
 = >
 rec orde
 hea ds
o body
icke n
rit u
 consu lt
 On c
 han g
 expan s
 gua rantee
lit icians
o liticians
hap t
 mag n
 sp ring
 M A
 y out
  dress
r ovis
 Bitco in
 interp re
 gun s
 interpre t
rc le
 inf rastructure
 t roops
 ca lculat
 An y
 Ra t
 Lu c
 rec ru
 T hose
 acknowle dge
 Qu a
 rec ip
 ren e
 piece s
 recru it
 IS I
 luc k
 Age n
 rap i
ha ring
v ilian
 Soc ia
i vilian
 locate d
imula t
i rcle
 conclu s
i ru
 san c
 s is
 Be s
 bring ing
 I N
 advocat e
 lu n
 specif ically
olut ions
 Huma n
 dy n
 g if
 potent ially
 Onc e
 rap e
 se lling
 Pe a
i ry
 govern ments
 sanc t
o vince
r ovince
orma lly
hapt e
 faste r
 mys t
 s ile
 b oost
 gua r
 Fu n
 dist inc
 sile n
 distinc t
 plu s
 Fede ra
 ren t
 cons c
 proposa l
 insp ire
 plent y
, '
 equip ment
o riginally
 vul n
 San t
 exp ose
 p ip
A lt
 young e
 C y
 f ing
romp t
 fing e
 brea t
 vote d
 defen de
 Gua r
 dyn a
 expresse d
 vuln e
l osure
  inse
 vulne ra
rag on
 representat ive
o dge
 elect e
 refuse d
 M it
 pun is
 offens e
 electe d
 fla t
 season s
 conduct e
 even ing
 conducte d
 disa s
ou lde
 We e
 pus he
 challenge s
 sis t
 rema ine
 R on
 L if
 alleg a
 escap e
 N H
 pe e
 allega t
 meth ods
 vis ion
 remaine d
 M O
 Pleas e
 sist e
 w ing
 exclus ive
 Pub l
 infe c
 posit ions
 infec t
 Cat h
F irst
 counte r
  riva
 Spa c
 L it
 were n
 Sc a
 ve g
 cyc le
 compet e
o ile
 rese rve
 significant ly
 3 4
 Ha s
 cultura l
 P rinc
  originally
 s olve
 affect e
 Du ring
 stre t
 fac ing
 affecte d
 greate s
 greates t
 b ough
r olling
o vies
 dec re
 prepare d
 stret c
 yout h
 gif t
v olving
rna ment
S inc
 sign s
 Spac e
l inked
o mised
me rous
 bough t
l ming
 emot iona
 strong e
 An a
 just if
  dut
 seve re
 determine d
 fore s
 Direct o
 gre w
 inte rve
 miss e
Ã ¤
 trans a
 rema ining
 interve n
 pu lle
  ring
ic ine
 L is
 D oc
 inde e
d ramat
Sinc e
 indee d
 T on
 watc he
 sa la
 P rog
 Publ ic
 he rse
 vot ing
 herse lf
 B oa
 c ivilian
 con vince
 reduce d
 D re
ila t
 recorde d
 argue d
 199 0
 tac t
 inve n
d inary
 wea ring
 coa s
 coas t
 lea ds
 inven t
 p oliticians
ou rney
 cont rast
 conce n
 Federa l
 Ha w
 concen t
 L oc
d icine
Ñ 
 appre c
 discuss e
 gla s
 switc h
 experience d
 Bot h
 t rigge
 support ing
r omised
ide ly
lif ie
 surp rising
 ove rt
r dinary
 be long
 consume rs
 cons idering
i rly
 Pen n
 qua n
ranc his
 p lot
 matc he
 a ircraft
 conte s
 pulle d
 en ds
 contes t
 bas ically
 difference s
 glas s
 squa re
 turn ing
 O ly
  lift
  mort
 treat e
rien dly
d mitte
 treate d
 w re
 c oc
 priva c
 existe n
 serious ly
 privac y
 camp u
 campu s
 acade m
 fix e
rac ks
 opportunit ies
 post s
 ene my
 ca rt
 app s
 pip e
 lot s
 Lif e
m inds
 iP h
 complete d
 Da ily
 pass ing
 N S
 hope s
 disas t
 c of
 mot iva
 pe rma
 pla s
 nort he
ranchis e
 conse n
 iPh on
 stan ds
 iPhon e
 Jac ks
 motiva t
 man n
  dramat
 suffe re
 w idely
 emergenc y
 Othe r
 pena lt
 ele ment
 prec is
ritu a
 colla p
 collap s
 I P
 colla b
roc ke
 transa c
 excite d
 Oly mp
 BB C
 plant s
 transac t
 participa n
 defa u
 participan t
 oppose d
 defau lt
 proce e
 200 3
h ouldn
 copy r
 copyr ig
 copyrig h
 copyrigh t
rot a
rac king
 wea t
 Sy s
h igan
 weat he
 dis miss
 Jacks on
 attempt s
o rdinary
 dep re
 exce lle
 Cath o
 conve rt
â 
ou rnament
 collab o
 dan c
ic higan
 Us e
 B on
 f ille
 ga p
 up g
 enc ount
 Catho l
 encount e
m osphe
 fru s
 reporte rs
 C lu
 frus t
 write s
ow ly
 address e
 A B
 R ose
 forge t
 Sea t
 inf la
 typ ically
 equa l
 bac ke
 page s
 Korea n
 secret a
 rele va
 quan t
 releva n
 matte rs
 F ort
 investigat e
  vit
 disapp o
 rep a
 disappo int
 inju re
 circu ms
 p ilot
i lde
 NA S
 Tu rkey
 c oordinat
 ente rt
 entert a
 sat is
 expect a
llian c
 3 7
 3 00
 responde d
 En e
 approve d
 cong re
 satis f
llianc e
 p has
 dese rve
 set s
inp u
 institut ions
 lay e
 appea l
 protest e
ract s
 F C
 ju n
me le
 19 2
 200 1
inpu t
 rene w
 mann e
o lks
 lite ra
 Ken n
 capa ble
 Sys t
 reason a
 H y
  //
 capt ion
 comp re
 W is
 pitc h
 M ille
 techn ica
 S qu
rit icism
 conf idence
 participat e
 p rompt
 c raft
 Jac k
 accu rate
 conf ident
 nu merous
 reporte dly
 V is
 face s
 Afghan is
m ovies
 c oope
 Syst e
o rrespon
 Afghanis t
 Afghanist a
 Afghanista n
 transit ion
 Ye t
 creat ion
rw e
 una ble
 P S
 pane l
 Conf e
 Re n
 suffere d
 picture s
 experience s
 Je n
 c rimes
 An drew
 Cap it
 sa ving
 orde re
 declare d
 ordere d
 cof f
 report ing
 message s
h inks
 circums t
rit ics
 finding s
ilve r
 s houldn
d dy
 on g
 Ove r
 sout he
 decline d
 Que e
 circumst a
 circumsta n
 excelle n
 prof ile
  \
 tast e
 connect e
 P y
 newspape r
 D own
l iday
 ong oing
ract ive
 delive re
  movies
 ass ign
 W A
 a dmitte
 Ra c
 Islan d
 M L
 scen a
 demonst rat
 phas e
 cit e
 delivere d
 emp has
 invit e
 scena r
 p ray
 scenar i
h orse
 e u
 P R
 wa lking
 agent s
 Cre a
 tack le
 thought s
 Sout he
â 
 bu g
 Rive r
 ema ils
 D O
 financ e
 connecte d
 nat ive
 un u
 I D
 Christ ma
 update s
 guar d
 leave s
 technica l
 Musl ims
i w
l inks
 creat ive
 Rep ort
 quarter b
 quarterb a
 quarterba c
  ourse
, ’
 sen a
 Tech n
 Sau d
 Roc k
 nu t
r oving
 I re
 injure d
 De ve
 Powe r
 Christma s
 perma n
 4 2
i rds
 state ments
 sess ion
 leg it
 Ja va
 gues t
 perman e
 S ign
 3 8
 ourse lve
 ourselve s
 permane n
 sena t
 weathe r
 7 5
 bit c
¾ Ð
 19 1
 M ichigan
 eva lu
 reade rs
 evalu a
 P rote
 Fa n
 p rovince
i mination
 evalua t
 lawye r
 fille d
 bann e
 allegat ions
 activist s
 198 0
 4 8
r ops
 Directo r
icien c
 unu s
 building s
 nove l
 circumstan c
 circumstanc e
 laug h
ic ially
 Quee n
 f rau
 the a
 effective ly
 un if
 practice s
 got t
Ã 
 compa rison
 example s
l icated
 Seat t
 c riticism
 Seatt le
 A I
 celeb rate
o dule
 secreta ry
 permanen t
 Roa d
 yes t
 misse d
  king
 yest e
 cause s
 aggress ive
 p he
o ments
 essent ially
 Compa n
 Cap t
Ã ­
â 
 V ict
 collaps e
 inju ries
 whe e
 ba re
o liday
 t hinks
 pu re
v ile
 Con n
 inf a
 Bat t
 drea m
 fact s
 la p
Alt hough
 Saud i
  linked
 inc e
 necessa r
 mater ials
 thea t
 wonde r
 uns u
 Du n
 res c
 init ially
 resist a
 con de
 resista n
 expla n
 necessar ily
 transfe r
ouc he
i rms
olut iona
 approac he
  ing
 schedule d
rag ing
ha ke
v olutiona
 ang e
 Ag a
 accept e
 every body
 explan a
rante d
r iable
 res olution
 Ass a
 class e
 increase s
 G P
 explana t
 accepte d
 myst e
 yeste r
 mount a
 M ount
 G M
 yester day
 announce ment
 competit ive
 react ion
 nat ions
 Wa y
 miss ile
 Sec on
 play of
 playof f
 proce dure
 rec on
 kn oc
 f ranchise
 passe n
 ne it
 L G
 neit he
 neithe r
ins on
 s harp
 Va lle
 conte mp
 respect ive
 near b
 nearb y
irt y
 face d
 passen g
 passeng e
 expans ion
M ost
 consequence s
in qu
 liste d
op ort
dat ing
  icon
 at mosphe
 surprise d
 ove rse
 Mana g
 process e
 CN N
 song s
 sign ing
 spon s
r inking
Ã ¶
 Jew s
 May b
 represent s
 se g
hapte r
â ¬
 Af f
 Deve l
 move s
 init iative
 depre s
 a dds
rw he
 depres s
 en han
 enhan c
 phe n
 improve d
v ily
 NB A
 outp u
 Spa n
 outpu t
Ã ¼
 upg rade
inne s
 dea ling
 hea de
 graduat e
 bring s
 D E
 unc on
 ga n
 pushe d
 guilt y
 ent ry
 exa mine
 U t
 Defen s
 de mocracy
 Sport s
 cu p
 It s
 mea t
 Jes u
 st orage
 Ire la
 Irela n
 few e
 atten de
ran ke
 analys t
 rece iving
 Irelan d
 Mayb e
  rising
r icult
 ente re
 Ave n
 s ough
 tota lly
 On ly
 ze r
 discusse d
 sough t
 than k
o rough
 ISI S
 entere d
 restau rant
ricult u
 Boa r
 aff a
 bre w
 j ourney
ide line
 4 9
 dyna m
 p ose
  rive
 c orrespon
 seque n
o rian
rizon a
 M s
  input
 score d
 disapp e
 disappe a
 200 2
 D C
d ivision
 succe e
 death s
 existen c
 investo rs
inan t
 decre a
 article s
 decrea s
 opposit e
lif y
 funct ions
 agen da
 existenc e
 classe s
 netw orks
 unlike ly
 know ing
 Lon g
 Y u
 b oss
d ication
 e miss
 rough ly
 plat e
 An ot
 Princ e
 bott le
 Boar d
 delive r
 hea vily
 expecta t
 Anot he
 depen de
 Anothe r
 fa irly
m migrants
  vice
 cat a
 Senat o
 target s
 Wat c
 not a
 admitte d
 aw e
 younge r
 colleague s
 rec ording
 test e
h oulde
 spec u
 Ma j
Ã ³
 may o
r oport
 anyw he
 protest s
 anywhe re
 S ma
 sn ow
 L ove
ia ry
 specu la
 Ya n
 mechan is
 brea king
 Re f
ha z
 importan c
 e lite
 store s
men de
 express ion
 disp u
 importanc e
 buy ing
 define d
iag n
 Ea c
 F I
 O a
 A R
 exp ort
 ce re
 adult s
r ols
 F A
 coff e
 w int
 fla s
 Tre a
 illus t
 dispu t
 Eac h
 Clu b
 market ing
rit ory
 affa i
  links
r ritory
olly w
 sens it
 lat t
 His t
 prope r
 indust r
l lite
ollyw o
 specula t
 islan d
Ð ¾Ð
 fac ility
ollywo o
 sla ve
 conf ront
 ma inst
 allege dly
 regulat ions
 M I
 dest ru
ollywoo d
 cu rrency
l owly
 fas h
 replace d
os is
m oments
roa ds
 fle e
 Const it
 Constit u
 asse rt
iru s
 prosecut o
 pre g
 destru c
 emp t
 P lu
 ca ble
 destruc t
 res ign
 somew hat
 Se t
 p rovis
h ops
 F O
i mens
 zer o
  holds
 wint e
 Squ a
 dep t
Ñ 
  moments
 relevan t
 swee t
ra mming
 fun n
 reg iona
 act s
 vit a
 industr ia
 Step he
h oping
 re ly
 suffe ring
 mot ion
mende d
 Stephe n
 creat u
 Valle y
in he
Ã 
 see s
 a e
 excellen t
 creatu re
 exten t
 deep e
 down t
 close ly
 fewe r
 Net w
 f ict
 Ne x
 acqu ire
 harde r
 Wat e
  hoping
 custome r
 4 1
 emotiona l
 funct iona
 cut t
dien t
 wa ke
 Hous t
 Ga mes
rocke t
 Ent e
 Houst on
 cru c
 return s
 volunt e
me dy
 anc ien
 volunte e
 participant s
ha rma
  horse
i mmigrants
 Du t
 a le
r icit
 consume r
 C P
! )
 Da vis
 bas ke
ha le
 Ec on
 fe s
 Cla s
 Ex c
 b ridge
 ancien t
 circumstance s
 p olls
 disput e
 c hip
 Yea r
 dece n
 ren de
k inds
  lies
 Constitu t
 att it
 attit u
 Conse rvative
 baske t
 mix e
l ign
 Watc h
 g rown
me g
 anyw a
 anywa y
 Manag e
  immigrants
 st on
 deta ile
  kinds
v iva
 5 5
 detaile d
 attitu de
 un kn
 fes t
 feature d
 plas t
 East e
 gene t
 4 4
 cons p
 teach ing
 carry ing
 class if
 t ournament
 A L
ricit y
 relationship s
 c ircle
 latt e
 ta u
ou re
 met e
 Econ o
 O F
 Bac k
 fru it
i mits
 CI A
 unc le
  mouth
 refe rre
 Jesu s
 re mot
 Socia l
 3 9
 U F
 act ing
 Nort he
 frequent ly
 up c
L ike
 eff icient
igu e
 Ga t
 push ing
o minated
 remot e
me body
o mebody
 s haring
 Put in
 Sup p
 6 5
 G la
 owne d
ra mew
T han
 tren d
 c hairman
 along s
i racy
 spea ke
 essent ia
 alongs ide
 K on
 A lle
 law ma
 eg g
 controvers ia
  00
 artist s
m iu
 referre d
 mon s
 A rizona
 regiona l
 controversia l
 repeate dly
volutiona ry
 S C
 W ils
 less on
ï ¿
 attempt e
 I c
 O re
 As ian
 attempte d
 boa t
 ben c
 R og
 sequen c
 the rap
 update d
 Cru z
 repu t
 breat h
 s houlde
 preg n
 N on
 impress ive
 disast e
 upc oming
 de dicated
 pregn a
 pregna n
 f ilt
 N Y
 Bas e
 dept h
 va riable
ie lde
 ten de
rna n
 Ta n
  dict
  division
 occas iona
 un w
 Crea t
Ñ 
 struc k
 Ene rgy
 rea lized
 valu a
 interf a
mit a
 t ort
 stu n
 phen o
 T hough
 fu c
 collabo rat
i dan
 essentia l
d rone
 target e
d iagn
 targete d
 coffe e
 asset s
 ta g
 lawma ke
 teen a
 teena g
 teenag e
 manne r
 Des p
 inspire d
ra mp
 Defens e
 ven t
 news le
 newsle t
 Agen c
 up p
 newslet t
 newslett e
 mainst re
 depende n
mise s
 mainstre a
 enhanc e
 M S
 caus ing
h icken
 surve illa
 surveilla n
 watche d
v ine
 ove rwhe
 surveillan c
 bitc o
 surveillanc e
m inant
 usua l
 opponent s
 Ve g
 reduc t
 unus u
 unusu a
 w rap
 F is
 f olks
 Ta ke
 a irport
 siste r
ris ks
 Ta y
 ston e
 Se ve
 fas c
 orde rs
 mus c
i ments
 litera lly
v irus
 6 4
 gan g
o rient
 latte r
 Y oung
 teache rs
 Cas t
 Fa t
 protect e
 loc ke
icienc y
e llite
 excit ing
 congre s
 mainstrea m
 T it
 expens e
 congres s
 protecte d
 visua l
 notice d
 precis e
 Not e
 exten de
 imp ose
 A S
 4 3
d orse
 P it
 Sp ring
 Det r
 Ac a
 t owe
 deep ly
 commun ication
 sen ding
 ge a
 assistan t
 fort h
 batte ry
 Wee k
 c has
 require ments
 virtua l
 a live
 dep u
in volving
 w his
 propert ies
 fixe d
 pun c
icate s
lifie d
 interfa c
ina ble
l imits
 winte r
 eat ing
ron s
 cert if
 Tes t
 197 0
 resc u
 punis h
 consc ious
 In ve
 p romised
 C D
 C S
  minds
 Ma x
 neu t
  risks
 fa u
  involving
 N E
 teste d
 fores t
 northe rn
 select ion
 progress ive
 une mp
 put s
 depu t
 extende d
 pheno men
 te rritory
 unemp l
 Kenn e
 unempl o
 unemplo y
 Detr o
 refugee s
i mmun
 Detro it
 Bu c
d dict
 downloa d
 en ding
 max imu
 H it
h oliday
 Q a
h rase
 Wils on
 tap e
 select e
ï¿ ½
 Te le
 unkn own
 locat ions
 interfac e
 selecte d
  drone
 attacke d
 reput a
m odule
 bun c
  inhe
 5 1
 Mille r
 fash ion
 dis orde
 O S
 request s
 sudden ly
 mons t
 s lowly
 proteste rs
 disa g
 typ ica
 teache r
 Mas t
 Clas s
 typica l
 Secon d
 E p
 maximu m
 Alex a
 Cathol ic
 matche s
 decreas e
 prope rly
ha rass
mele s
 t rap
meles s
 maste r
 Lat in
 pat e
 a llies
Ã Â
l iate
 p ove
 support s
 decen t
  Î
 apprec iate
l iable
innes ot
 K y
 argu ments
innesot a
  holiday
 fac ilities
 H ot
 Bes t
 upp e
ran king
 quarterbac k
 empt y
 ite m
 resistan c
 resistanc e
 disag re
 disagre e
 Ita lian
i vile
ÃÂ ÃÂ
 unf a
 pac e
 equ iva
 collect ive
 pove rt
 We a
 equiva le
 Su c
 equivale n
 povert y
 Je rse
 Jerse y
 Ita ly
 fee s
 an on
 dea ls
 re volution
r ivile
 with draw
o mination
 cont rolled
 danc e
rivile g
 c ritics
 H ollywood
 oc e
 Agenc y
 Soc iety
 instan t
 Att orney
 sta ke
 plu g
  diagn
 rus h
 like s
mble d
 Ja s
 en dorse
 Compan y
ie va
 journalist s
 bunc h
 oce a
 ocea n
 S la
 reg ions
 expose d
 commun ications
  limits
 un n
 kne e
 NAS A
 strong ly
 smart p
 res olve
 draw ing
 esta t
 implement a
 champ ion
rivileg e
 smartp h
 smartph on
 A dministrat
 smartphon e
 S P
 coope rat
 pitc he
 awe s
 Ca rt
 Nat u
 persona lly
 NH L
i rate
 conde m
r imination
 condem n
 vac c
 s mile
 fa lling
 estat e
 somew he
dat ions
rolle r
 somewhe re
 insta lle
 disc ip
  harass
 implementa t
 anon y
 direct e
 fa ke
 rescu e
  inqu
 cutt ing
 Prof e
 sna p
 southe rn
 Span is
 Spanis h
 V iew
 emiss ions
 ve s
 channe l
 Profe s
 w ine
 Profes s
 fle x
 industria l
 definit ion
 cru s
 directe d
 Le n
 awes o
viva l
 meeting s
 w inner
 D y
 gott e
 gotte n
opa g
rac ing
rnes s
 inte lle
 B rian
 elect ricity
 DN A
 Ga z
 chose n
 off icially
 Ja y
 benc h
 reasona ble
 intelle c
 Man c
 intellec t
 Desp it
 Despit e
 An de
ritua l
 Le s
 desp e
 stronge r
 hope f
 hopef u
 c hat
 Ma ke
 dele g
 purpose s
 p raise
 sequenc e
 extens ive
l loc
ou ve
 tree s
 amount s
 an x
 fift h
 Ra y
 Na z
d ous
 stretc h
 leg e
 g oods
 b ias
opag a
 dis ru
 disru p
 disrup t
 Ke e
 atmosphe re
 dange r
 develope r
 art if
l own
 cla iming
 f inds
 ple dge
llu t
 capture d
inn oc
 dog s
â 
 pay ments
 celeb rat
in duc
 t ies
 seat s
 Nat ions
 s omebody
 signa t
 Dat a
 pat c
 Service s
 C ross
 exp osure
r opaga
 cann a
 E va
 st rict
 draw n
o llut
 lege n
 revea l
 rule d
 step p
 Unde r
 Gre g
 t rading
 Than k
mis c
 de mocrat
 Netw o
 reputa t
 canna b
 aspect s
 bru t
 answe rs
 perfect ly
 Aca de
 pa rking
 reject e
 rejecte d
 constant ly
 Ke y
 accept a
h idden
 wea k
 Netwo r
 pay ment
 Networ k
 fly ing
 techn ologies
os y
 A D
 den y
 else w
 component s
 pursu e
 Scot la
 Scotla n
 f ields
 elsew he
 elsewhe re
 Scotlan d
 any more
d rinking
 re vis
 unc e
 estimate s
 Inst a
 s olutions
 result ing
 ene m
v igat
 infla t
 regula rly
 court s
 equivalen t
 enem ies
 5 2
 Dis n
izz a
 Disn e
 dec k
 Disne y
 Da lla
 mixe d
 Indian a
 interven t
 house s
 St on
A ls
mitt ing
 n obody
  immun
 Get t
 cont rols
 lette rs
l igat
 bla s
 defen c
ran ian
 compe n
 defenc e
 base b
 outc o
 E P
 outco me
 gen u
 Play e
 ton e
 mayo r
 adopt e
 ex it
 M innesota
 stu c
 Steve n
 apart ment
 lan e
 aweso me
 D ru
 baseb a
 execut e
 conclude d
 deleg a
 exist s
 witness e
 Ke lly
 Le w
 4 7
lipp e
 situat ions
iat ing
 4 00
 Champ ionship
 Chan g
 4 6
 E ma
  hip
 delega t
 Whe re
 cy b
 ince n
 O rgan
 Southe rn
 Jose p
." [
 employ ment
 Exp e
 Veg a
osc ow
 keep s
 continu ing
 V I
 Re t
Als o
 g rade
 wonde rf
 wonderf u
ila de
 signa l
 riva l
 categ ory
 ale rt
 consu mp
 filt e
 consump t
ila rly
m ilarly
i milarly
  raising
 ang ry
 scan da
 machine s
 registe re
 registere d
 Con ve
 Constitut ion
 deman ds
 visit o
h ilade
 Ga la
 ga ming
 prove d
 reg re
 cruc ia
 L inu
 crucia l
 Dalla s
hilade lp
 Syste m
 stuc k
hiladelp h
r ophe
 new ly
 insp e
 reve rse
 consumpt ion
 man ip
rota t
 tort u
  innoc
 exce s
 Ca re
 inspe c
 b ills
 Josep h
 ship p
ran e
 manip u
 inspec t
 a mp
 L E
 write rs
 Spa in
 exces s
o minant
 Re u
 manipu la
 compen s
 Me s
 reporte r
 represent e
 baseba l
ie ving
 compens a
 return ing
 basebal l
 prog ramming
 Than ks
 a la
 represente d
 conclus ion
inn a
me dicine
 not if
 compensa t
 valua ble
 organize d
 penalt y
 Ass e
  drinking
 manipula t
 Mast e
hiladelph ia
 trans g
 sat ellite
ramew o
ramewo r
ramewor k
 pe rp
 syn t
 prison e
 explanat ion
 Ran g
 p oc
 Wa n
 west e
 AP I
 organis a
dg ing
 uppe r
 count y
 Na s
 organisa t
ran ds
 us a
 awa r
o medy
 awar d
 Alexa n
 assistan c
 assistanc e
 Sw a
ij a
 transp a
i liate
 S han
 pres c
 g ranted
 Coa s
 Mea n
 I C
 Ston e
 comp licated
 transpa re
 transpare n
 chance s
 199 9
 fore c
 Ze a
 E duc
d ominant
 my t
me la
 Bea c
oure d
 Mot o
 share s
 tradit ion
 successfu lly
ranke d
 Mc D
ron a
 Educ a
 Pac if
 H I
d ose
ract ions
 scene s
 a ddict
 myt h
 recove ry
 technique s
 truc k
  rocket
 Coas t
 Cont inu
icat ing
 ( $
 degree s
 musc le
 a ds
 symp t
 Educa t
 lawmake rs
 sympt o
 che s
 sug a
 person n
 flas h
  module
 Ma rket
idenc y
rot oc
 engage d
 bon u
imat ion
 milita n
 dolla r
 academ ic
 bonu s
 bloc ks
 personn e
 passe s
 Aven u
 Avenu e
 bon e
 Tay l
 attende d
rg ot
 ent re
 Fore ign
 ant icipa
  hidden
 comp ile
 cyb e
 LG B
 Tayl o
 anticipa t
 title s
 tau g
 NB C
 Senato r
 accomp a
 taug h
 taugh t
 Linu x
i O
 inde x
i bilities
 accompa n
m mended
 prefe r
 lawye rs
 depen ding
 T ot
o mmended
 champ ionship
 installe d
lc a
 unp re
 unce rt
 downt own
 Aut h
 de va
 visit e
 recip e
 Ka s
 Devel op
iet n
 S hare
 dut y
 dis g
 p rivilege
 Bus ine
 Busine s
 s lu
 Busines s
 Ru n
 uncert a
 wa rming
 reputat ion
 intellect u
 Es t
 suff icient
 visite d
 vulnera ble
 enjoy e
 personne l
 principle s
 enjoye d
 negot iations
 generate d
  medicine
 Taylo r
 P roduc
 intellectu a
 weste rn
 collect e
 compre he
 comprehe n
 regar dle
 regardle s
 regardles s
 p ollut
 collecte d
 monst e
ra ile
 def icit
 Ba lt
ã 
 partners hip
 Sa f
 t racks
ietn a
 pattern s
 plast ic
 Dis c
ig s
 poc ke
 Ton y
 signat u
 Ant h
 Assoc iate
 signatu re
i mita
 N C
ieg o
 frau d
 bus y
 constitut iona
 p ounds
meg a
 15 0
 sta c
 disaste r
 port ion
 Zea la
 Zeala n
 LGB T
 intens e
ha dn
 Se ries
 bitco in
 pres u
 pocke t
 Pacif ic
 Spec ia
  rotat
 funn y
 pret e
 Su s
 surge ry
 M oscow
 possess ion
 cas u
 coac he
hau s
 B A
me y
 out le
  ’
 Mass a
 Ken t
 outle t
 enginee ring
ran ks
 processe s
 Ore g
 rece p
 Ex e
 Che c
 Inve s
 a rray
 Easte rn
 recep t
 consult a
 bea c
 unusua l
 F ly
 describe s
iw a
 twe n
 twen t
 result e
 Mc G
d imens
 pate n
rc y
 resulte d
 emerge d
 tax p
 taxp a
 taxpa y
 Inves t
 pet it
 Oreg on
 casu a
 paten t
 Maj o
 stat ions
 f ough
 fough t
 p ropaga
 cry p
  hadn
 adopte d
o rious
 every w
 f loa
 extens ion
 floa t
 G ive
 elect o
 analy z
 entit le
r ically
 Be f
v on
 everyw he
 cryp t
 everywhe re
me dium
 taxpay e
ig ible
 p hrase
 cont racts
 offs e
 Sea s
 Rang e
 feeling s
ideline s
 f irms
 Auth o
re dient
 bu lle
 Batt le
mit y
  virus
 Wis c
 six t
 enterta in
 exp licit
 Northe rn
 As t
 bulle t
 sanct ions
 vac a
 P hiladelphia
 act iva
 cite d
 Bef ore
 racis t
 short ly
 P olicy
 Ra p
 activa t
 expectat ions
 militan t
 implementat ion
 gat e
  misc
 Ala b
 c loc
 Ot t
 I ranian
 Sant a
 sc ru
 Gree k
 Nat ion
 tun e
 F inanc
minat ing
 Pa y
  roads
 Guar dian
 Na vy
 Rog e
 ine vit
 inevit a
 hac ke
 innoc e
 innoce n
 Wisc on
 veg e
 Wiscon s
 scenari o
 Alab a
 frust rat
l igible
 vis ible
 vege t
 veget a
 ups e
 Sa c
 fest iva
 create s
 despe rate
 cere mon
rsu s
igu rat
 I R
 tortu re
 sta ble
in dicated
 dict a
r icks
 B E
 insist e
roa de
 ga ine
 brut a
 acce le
 Wiscons in
 dozen s
 basket b
 Sa int
 w ides
 basketb a
 loss e
 compute rs
 losse s
 A a
 upse t
 strike s
 Develop ment
rip s
 dicta t
i ology
 mu n
 translat e
 ag ricultu
 Ha ve
 Te mp
r rog
 ign o
 wonderfu l
imita t
 P O
 Cent re
 be half
ologist s
op ics
 Lat e
 establish ment
 Hen ry
 rest ore
rrog a
 basketba l
 basketbal l
 genu ine
 Ju dge
 gaine d
mis ing
ra ke
 ES P
 V ietna
 f ounded
 cannab is
 club s
 ele va
 f oundation
 Alaba ma
o rgot
 shee t
 gen t
 e volve
. -
 manufactu ring
 eleva t
 Lea de
l ining
ha g
 neut ra
 see ming
 Be e
h rown
icu lous
o rous
l oose
 bac ks
 Commun it
 Spe a
 re lief
 L ine
 save d
 sw ing
 legit imate
 sac r
 Zealan d
 - >
 heade d
 fau lt
 perce ive
 ship s
 V R
 banne d
 spons o
 Gu n
 re e
 den s
ra vit
 5 3
 unf ort
 Ga n
 fa iling
 recognize d
 dep ict
 unfort u
 transg e
 196 0
 transge n
 Ha y
 conta ining
 blas t
 unfortu n
 perce p
du n
 unfortun a
 as y
 unfortuna t
 Oa k
 wa lls
iO S
 perp e
 strugg ling
 unfortunat e
 Confe re
 Acade my
 Confere n
 lands c
 Conferen c
 percep t
 landsc a
 landsca p
 edit ion
 au dit
i og
 Conferenc e
 move ments
o mises
 fe n
 concent rat
 pu mp
b ligat
 episode s
 desc e
 desce n
 A z
d inner
miu m
i more
 integ rate
 sca re
________ ________
ran de
 except ion
  ranking
 199 8
 destruct ion
 produce r
 belief s
 Re view
 backe d
riot s
 Ly n
r omises
 re de
o bligat
 Atlant a
 language s
 ente ring
 sa lt
 b roade
 Administrat ion
 Ma la
 circu la
 fla w
T hose
 Manc he
 Y O
 M E
 c og
 reduct ion
 Ant on
 gon n
 Kan s
 G ian
 inc on
 gonn a
 fis c
 Conn e
 p roport
 account a
 Manche s
  medium
 D iego
 Manches t
 Manchest e
 Jas on
 Mancheste r
 out rage
 P s
 bare ly
 team ma
 teamma t
 teammat e
 e volution
â 
 Reu t
 structure s
 regar d
 containe d
 fisc a
 disp a
 W I
 delive ry
 beg u
 rive r
  dinner
 incen t
  obligat
 Bre a
 process ing
 disc rimination
 uncle a
ou ring
 Inde p
 U C
 Indep e
 Indepe n
 Kans a
 creat o
 Massa c
 pray e
 Mex ican
  loose
 Van c
rit s
du mp
 stu p
 clot h
 disc re
 Mu n
 Reut e
ie u
 B ry
 O K
 Mus e
 Pe rhaps
 Indepen de
 Independe n
 interf e
 Educat ion
 challeng ing
 prove n
 Man n
 restrict ions
 Wa lt
 dist u
 Lit t
 fore ve
 foreve r
 wea ke
 distu r
 distur b
 une x
 sacr if
 Christian s
 pre va
 review s
 convict e
 convicte d
 silen c
 recogn it
 V illa
 occup a
 bloc ke
 retire d
  indicated
 Alle n
 produc ing
 A bout
 Ha rry
 rapi dly
r rass
 Ste e
 prese rve
 listen ing
 Pa g
 c hicken
 NA T
 table t
 Reute rs
o mising
 UF C
 Squa re
 transgen de
 Ex t
 dele t
 begu n
 recognit ion
r omising
 Continu e
 se ize
 introduc t
 perpe t
 assoc iation
 5 4
 B ridge
 attac he
 Seas on
 as ks
 Fu rt
 desc ription
 ticket s
 pass a
 Ne ve
 suggest ing
 S O
 landscap e
 fantas t
 reach ing
 sa u
 Kansa s
 Penn s
 de vot
 Cle a
 exce e
 equa lly
 frequen c
 Hea t
 wides p
 Econo m
 widesp re
 widespre a
 AB C
 widesprea d
 campaign s
rc t
 bu rde
 g rass
 burde n
 sensit ive
 prec e
 convent ion
 Ty p
 G le
 Penns y
 S imp
 ang le
 s imulat
 n ormally
 calculat e
 unclea r
 characte rist
 je t
 Pa p
 C ore
 Pennsy l
harma c
 Pennsyl va
 score s
 Pennsylva n
 tan k
os ive
 trans c
 we lf
 welf a
 reduc ing
 f riendly
 Nex t
 carefu lly
 scre a
 H D
 cau t
 cen s
 pipe line
 inc u
ouve r
 respective ly
 exe mp
 ten t
 loc k
v ous
 Furt he
 na vigat
 overwhe lming
 McCa in
 viewe rs
 welfa re
 R oss
 convince d
 Un f
 involve ment
 Free d
 Re e
 t hrown
 connect ions
 inva s
 terrorist s
 Ten n
me rging
 U lt
 Beac h
 Jon a
 ESP N
 On t
 repeate d
 Furthe r
 deva s
 P ot
 9 5
 II I
 independen c
 Na n
 settle ment
 statist ics
 list s
 va ry
 Sa ms
 featu ring
os qu
 e lde
 pac ke
 gathe re
 independenc e
a rrass
 fantas y
 hea ding
 tweet e
 devas t
lif f
 O N
 port ray
 assu mp
ra va
 Ic e
 assump t
 invite d
 complaint s
 devast a
me lt
 devasta t
lis a
o meless
 H E
 unex p
 deepe r
 fisca l
b arrass
 bla n
 Pennsylvan ia
 Eva n
m barrass
 Specia l
 deput y
 clot he
 g rave
m oking
r riva
 ange r
 C H
 X b
 swe a
 T own
 conce rt
 F R
 NS A
 AN D
 gu it
imon y
 any body
 east e
 guit a
 owners hip
  iOS
 implement e
 H ospita
 fort u
 inj e
 Litt le
 f ramework
 unemploy ment
 tas ks
 improve ments
 screen s
 pea k
 inje c
 injec t
 Xb o
 democrat ic
 Xbo x
 ju ry
 Prote c
 Minist ry
 g lu
 comprehen s
 renew a
 B rothe
 O w
du p
 Profess o
 discove ry
 exc u
 Protec t
 Z u
 dep osit
r vival
 bu re
 serve s
 design a
 gathere d
 spect a
 leg s
 Inf ormation
 Le on
 implemente d
 Lis t
 controvers y
 bure a
ha lt
 designa t
 t rained
 fea rs
 dynam ic
 sample s
 Cle ve
 burea u
 suga r
 capt a
 theat e
 Communit y
 B C
 t race
 199 7
 tele p
 refe rring
 199 6
 space s
 fict ion
 transgende r
iversit ies
 Matt he
 Fe s
 Anth on
 conven ien
 Acc e
 sepa rat
 ve rsus
 pen s
 Bre w
 temp orary
 constitutiona l
Ã 
 fun de
 s lot
  raw
 expan de
 visito rs
 civilian s
 wage s
 De e
r iding
 S H
r rican
 5 6
ou rist
 rema rks
 aware n
 Doc t
 Gaz a
 awaren e
 awarene s
 awarenes s
 rec ommended
 Ope rat
 fat a
 bre e
 econo mist
 regulat ion
ha rds
 passa g
 Anthon y
 platf orms
 silenc e
 s oa
 M M
 affai rs
 counte rp
ilat e
 touch down
 passag e
 D ivision
 Act ion
op ies
rrican e
 attac king
 attache d
 Ha t
 present a
 Vega s
 discuss ions
 ea g
 attempt ing
 expande d
 Matthe w
 Pen t
 w w
 race s
 rep roduc
 G olde
 commission e
 sympto ms
 setting s
ripp e
rip le
 prefe re
mela n
 sala ry
 fortu n
 Ma p
 mus e
 tweete d
 spa n
 Sta rt
rre la
 suspect e
 pub lication
 fact ory
 suspecte d
 purchase d
 out f
 5 7
 N int
 c losing
rrela t
 gea r
 Muse u
 Massac h
 bu f
A bout
 Massach u
 Jen n
 Massachu s
 prefere n
  ranked
 easte rn
 suspen de
 inc a
 deta ine
iet a
 bu c
 Massachus e
 Massachuse t
 Golde n
 cog n
 stup i
 E T
 Massachuset t
 fa lle
 Professo r
 prete n
 f orgot
 improve ment
 viewe d
 ww w
 entertain ment
 intervent ion
 ing redient
 Massachusett s
 Swe de
 g rounds
 CB S
 strengt he
dg ment
 D I
 strengthe n
 9 9
 nec k
Ã ¢
 7 2
 Hu g
 involve s
 disp e
 brothe rs
 seeming ly
 s orry
 19 0
 loan s
 laye r
 investigat ing
 falle n
 Kenne dy
 tw is
 coache s
 twis t
 han de
h oods
 Eng ine
 advocate s
  €
 man date
 Mit c
 consp iracy
 F le
 Fes t
 fu lf
 dramat ic
 c hapter
rag g
 monito r
 stay e
 she lt
ina c
 L I
 transport a
 suspende d
 Gree c
 shelt e
 presenta t
 Greec e
 Con c
ras he
 D ragon
 Capit a
 T rade
 Lew is
 staye d
 Sa b
da ms
ic kn
 B loc
  dump
 Bu n
 p rotoc
r iking
 e mbarrass
 sc ope
 office s
 Da ve
 tu b
 Ban g
 carefu l
 G T
 Even t
 W W
 chee s
 Loc a
 Lan d
 aut he
 Hist ory
 Suc h
 authe n
 authen t
 Son y
 Ste a
 cove ring
 transporta t
l osive
 N P
 infa n
. ]
 transportat ion
rau ma
 Chang e
 Ande rson
 consistent ly
 G D
 rea ds
 Freed o
 g y
 clothe s
 mounta in
lit ically
o litically
 Museu m
me dian
 Govern o
 ga rde
 f oss
ias t
  mining
 depen ds
ract ing
 not ing
lloc a
 lea n
 lega c
 lowe s
 comp ose
 petit ion
irma t
 lowes t
 lun c
iga re
 addresse d
 Fa mily
 a de
 Pit t
 Mount a
 Vanc ouver
? )
d iculous
 virtua lly
 Balt imore
 Dre a
 spea ks
 vita l
lloca t
i diculous
 incent ive
 R O
 Bu re
ie rce
 Sta dium
 buf f
 persona lity
 H A
 8 5
llian t
 reade r
 Wate r
 where a
 accomp lis
 9 1
 accomplis h
 sta dium
rot ot
 help f
igare t
 manu a
 helpf u
 profit s
ha f
 Bu f
 dismiss e
 ma rks
igaret t
 repa i
 princip a
 t ries
igarett e
l iona
 garde n
o rrelat
 C R
 fantast ic
k idn
l liona
i lliona
 M iche
 L og
 bac t
 convent iona
i lliant
 hande d
r illiant
 brea c
 Cart e
 Cleve la
 Clevela n
 wre s
 wres t
 clea re
 Unf ort
 Unfort u
d iation
 luck y
 donat e
 life s
 Inte lligence
 genet ic
 shoulde r
illiona ire
 Unfortu n
 depress ion
 Pas s
 encourage d
 judge s
 Unfortun a
 Unfortuna t
 Bre n
 bact e
 incident s
  drew
 scanda l
 int a
 Unfortunat e
 I M
 referen du
rotot y
rototy p
 b rown
 gen re
ij ing
  ranks
 Clevelan d
 Gett y
 bacte r
 Ma rve
 Plu s
 paint ing
 pe s
 magn e
h omeless
 map s
 integ rat
i ritual
 199 5
  inner
 NAT O
**** ****
 Emp ire
 comp osit
 eas e
 Hospita l
 Unfortunate ly
 Kon g
 vote r
 Sams u
 classif ie
 man if
 Inde e
 eff iciency
 Indee d
 p romises
 a rriva
 Samsu n
 Freedo m
 5 8
o mey
 len s
 Gat e
 temperature s
 Samsun g
 ly ing
 Jes s
 locke d
 imp roving
 Des ign
 innocen t
  kidn
iet ies
 mistake s
 Ea g
  induc
 chec ks
r idiculous
 host e
 va g
rita g
 Exe c
 vent u
ritag e
  homeless
 W on
 replace ment
 c omedy
 With out
ha ble
 instru ment
 Conne c
 B ible
 Connec t
 acknowledge d
 f on
 response s
 start u
 key s
 protect ing
 startu p
 propaga n
 brew e
 twent y
 competit o
  dust
 stee l
 usa g
 W H
 brea ks
iog rap
 c opies
 usag e
 mat he
 lite rat
 Buf f
 let s
ha de
 legac y
 cheap e
rva n
 B is
 C ost
 mathe ma
 P D
 excu s
 passenge rs
 mathema t
 natura lly
 bot he
 Sc he
m ilt
 Scien t
 p on
 n omination
 measure d
 Ann a
 Ta s
 inte rce
 literat u
 Gala x
 t ourist
 qua lify
 D rive
 Marve l
 literatu re
 Dea t
 dest inat
 Trea s
 Ne a
 ve rt
 forec a
 foreca s
 forecas t
haus t
 Rec e
 Le f
 t rait
 acquire d
 demonstrate d
 e la
 conc re
 funde d
 concre t
 st riking
 a lign
 cu rve
 count s
р Ð
 NO T
 pu p
 ( “
milt on
 short e
 6 2
ieg e
  ordinary
ra dict
 gathe ring
 199 4
 stage s
 consen s
 helpfu l
  •
 a x
rac le
 Ut a
 analyz e
 fa lls
 close s
 interpret a
ha rity
 interfe re
 ignore d
ins a
 Jan e
 consens u
 Ont a
 f iring
 Cu s
 MO R
 cloc k
v olt
 ine qu
 Exec u
 Atlant ic
 confus e
 discip line
 conservative s
 referendu m
 s hake
 Fe a
d icates
 Ma u
 Execu t
 pass w
 capa bilities
 mainta ine
 Re la
 T R
 festiva l
 Pe rson
 transact ions
 S U
 b is
 hope d
 vacc ine
 F ront
  ramp
 Cre dit
 fat e
 mechanis m
 assess ment
 un iversities
 monito ring
 sacrif ice
 represent ing
 Gian t
 ce a
 T E
 ches t
 V ice
 f lowe
 equa t
 concret e
 Deat h
 S I
 t racking
 tip s
 interpreta t
 lan ding
 request e
 ske p
 C oope
 W y
h orough
m inals
 S ometimes
 re liable
 Treas u
 excus e
 S ix
 Bure a
 Burea u
 E f
 proposa ls
 skep t
 Eag le
 Produc t
 inflat ion
 appearance s
 St ore
 conventiona l
 opp re
 Chec k
 oppre s
 insiste d
roa t
 fasc inat
 oppres s
 introduct ion
 beaut y
 trave le
 R ot
 racis m
 supp lies
 receive r
m ories
 A mon
 lett ing
racke d
 intellectua l
 visit ing
 cea s
 Den ve
 Techn ology
 regulat e
i dation
 L O
mis m
 Sw it
  melt
T hough
 Galax y
 Port la
 congress iona
 preferen c
 Denve r
r mination
 pres idency
 Swede n
 blocke d
 sup re
 6 6
 cogn it
 inse c
 Nint e
 Portla n
 6 1
 Ninte n
 preferenc e
 dismisse d
 disa ble
 t raile
 s ilver
 Uta h
 ven u
  ridiculous
 consen t
 predict e
irt s
 ventu re
 predicte d
 question e
 comprehens ive
 muse u
 Kee p
 Associate d
imu lt
 person s
 review e
 Onta r
 Ontar i
imult a
 date s
 requeste d
 Ontari o
 chees e
rang ing
imulta n
 delegat e
 Alexan de
 test imony
 cente rs
 R is
 Ninten d
 inc omp
ia mon
 congressiona l
imultan e
 entitle d
 Nintend o
 classifie d
o rically
 sc u
 P E
 venu e
 out line
 trigge r
 Doct o
 equa lity
 urge d
 Olymp ic
 vete rans
 patc h
 re u
 interce p
 intercep t
 Portlan d
 Alexande r
 manif e
 manife s
 manifes t
 peace f
 peacef u
  ”
 Tw e
 populat ions
o dds
r olls
 quant it
imultane ous
 c orrelat
 when e
lc on
osit y
 whene ve
 wheneve r
 tact ics
 t ouche
ounc ing
 target ing
 brea s
 breas t
 jump e
 Fu t
 restau rants
 inclu s
 Ben g
 Ra s
 Gle n
 Non e
 employe d
 disc lose
 Aga in
 p olitically
 sp y
 Dut c
 soc c
 aff iliate
 conf igurat
 rapi d
 Be ijing
lipp ine
 retire ment
 ban king
 K it
 b rilliant
 Live rp
 stepp e
rvat ions
 Je t
 channe ls
  orient
 non p
 socc e
i lippine
 entre p
h ilippine
 socce r
 stan c
 prisone rs
 Me g
 C C
 YO U
rippe d
 ceas e
 Bru c
 O x
 Liverp o
 approache d
 month ly
 Liverpo o
 cont radict
 insp i
ra j
 design s
 representative s
 ca ve
 title d
 popula rity
 a bilities
 meaning f
 meaningf u
 accus a
 investigat ions
 focus ing
 infan t
 Mary la
 silen t
 Maryla n
 anony mous
ou raging
 murde re
 va rian
men dous
 accusa t
 su e
 test if
 mort a
 Liverpoo l
 Aff a
 enc ry
 bacter ia
 Fa s
 ente rp
 Trans p
 encry p
 inspi rat
 encryp t
 entrep re
 Saf e
 entrepre n
 G A
 Je a
 registe r
 bit t
 unexp e
 t horough
 Dutc h
lon y
 Supp ort
 entrepren e
 entreprene u
 key b
 rece s
 Stan da
 motivat e
ra int
 delet e
 phenomen on
d ominated
 unexpe c
 unexpec t
 reces s
idan c
 deman ding
 active ly
 overse a
 stun n
idanc e
 unexpect e
 6 3
 Gla s
 ja c
 s moking
 s lowe
 Ha mp
 assu re
 argue s
 Affa i
 oversea s
 flag s
 part icle
 settle d
 rewa r
 stanc e
 exp losive
 generat ions
 week ly
 magne t
 prepa ring
 Pent a
 S ource
osy s
 Awa r
 legislat ive
 produce rs
 rewar d
 Awar d
 C ry
 Oc e
 anx iety
 n ose
 prepa rat
 Sub s
 Ps y
 mort g
 Pla t
 mortg a
 mortga g
  riding
ha rging
 Marylan d
 illust rate
 Ala s
 argu ing
 questione d
 searc he
r lf
m ids
 broade r
 encounte r
 su rvival
i lds
 buy e
 dea dly
 a lliance
 Obama c
 p ries
 Obamac a
 Amon g
 occupa t
  ~
 Obamaca re
 wealth y
 G on
 unif o
 Lan g
 unifo r
 maintaine d
 sure ly
mmu t
 Pag e
 mortgag e
 pries t
 secon dary
 saving s
i rlf
v ident
 ut t
 sc rap
 sta bility
 Lef t
 discove r
 Rese rve
Ä 
 Gu lf
 offen de
 Jona t
 revea ls
 symp a
 ves s
 ton ig
 Mon s
 tonig h
 Le b
 tonigh t
 sympa t
ic opt
 vess e
 sort s
icopt e
 inc he
 stupi d
 Governo r
 release s
 health c
 prosecuto rs
 keyb oa
 suspen s
 Carte r
 5 9
 ex haust
 we dding
 rela x
 utt e
 different ly
 healthc a
 harass ment
 healthca re
 quote d
 A y
 bitt e
  odds
 lunc h
 re inf
 uncon s
 ref orms
 rec re
 store d
l icopte
 propagan da
 intent ion
 recre a
 E qu
 anticipat e
 recrea t
 spot s
 instruct ions
  rounds
ielde r
 199 2
 mut a
 Vietna m
 seven t
 A ddit
 Hu s
 line u
 lineu p
 Va le
 disg u
 beat ing
 Tu rn
 Cont e
 capta in
m osqu
 cooperat ion
d igen
 assa s
 p icks
 post ing
 Hea rt
 set u
 cross e
 pu z
rototyp e
 puz z
 Ha rp
 strea ming
 town s
 Je ru
 inequ a
 awa rde
 Pla c
 wrap p
  dose
 important ly
 struggle d
 execut ion
 Jeru s
 assas s
 regre t
 be lt
 Oce a
 Jerus a
 Leade r
 setu p
 sp u
 unde rmine
 Jerusa le
 p is
 new e
 att ractive
 circula t
 ceremon y
 de rive
 aut on
 dist ing
 Jea n
 difficult y
 disting u
 Ocea n
 Bre x
 age s
 dy ing
ra ordinary
 Net f
 P hilippine
 wis he
 b irds
 clu s
 L t
 steppe d
 borde rs
 fac ilita
 Re ve
 clus t
 trea s
 Brex it
 assume d
 tun n
 butt e
 distingu is
 clust e
 Netf l
 auton o
 Jerusale m
 O rde
 The a
 G ot
 wave s
 bon d
 Netfl ix
in dicates
 precise ly
 great ly
 facilita t
ima n
 tunn e
 p romising
â 
 Bruc e
 newslette r
 Mean w
iograp h
rly ing
 Bry a
 Meanw hile
 pleas u
 Tenn e
 awarde d
 St ory
 tre mendous
  mosqu
 Scott is
 Scottis h
 In dust
 donat ions
 Brya n
 fe minist
 Sy dn
 dese rt
r lds
 listen e
 frequenc y
 want ing
 fe t
 Pu n
 executive s
 playoff s
 Sydn e
 We n
osys t
 Hon g
 sp iritual
 stay ing
osyst e
o rlds
 Sydne y
 Se s
 t is
 t iming
 f oods
 E V
 inche s
 Asse m
 F it
 McD on
 contact e
 lan de
 s imultaneous
 wherea s
 enterp rise
 Pa re
 A A
 Palestinian s
 Jonat han
 Wa le
 D og
 evaluat e
 Assem b
 imp lications
 f ormation
 strateg ies
 assign e
 devot e
 Haw a
 MOR E
 reve la
 down s
 categ ories
 g ravit
 free z
 contacte d
 ju dgment
 e merging
 A rse
 F D
 dis h
 continu ous
 gu t
 defeat e
ilan t
 open s
 access ible
ra inian
lisa t
 M rs
 Ef f
  merge
k rainian
 assigne d
 mat u
 nu rse
me mories
 gu idelines
v orce
 defeate d
  dimens
i vorce
 Ven e
 revela t
 manag ing
 minist ry
 Tenne s
 Rela t
  indicates
 centu ries
 w ounded
 Che ls
 block c
 Conve n
 counterp a
i rming
l imitat
 Affai rs
 counterpa rt
 meaningfu l
 blockc ha
 Insta g
 un ve
 Fest iva
 tis s
 cloth ing
 tiss u
 educat e
 V A
 lap t
 Tennes s
  −
 Arse n
 tissu e
 g ross
 participat ion
G oogle
 Tenness e
 T owe
 12 0
 educat iona
 Chels e
dat ory
 compet ing
  memories
 Ne u
 rea list
 Ha milton
 the ories
 dress e
 S it
 process o
 Ca u
 Da w
 age d
 cre e
 199 3
 Chan n
 King s
 Mc K
 damage d
 Chelse a
 succee d
 ge s
 hoste d
 promot ing
 pass ion
 open ly
 consensu s
  inning
 Sea n
 Je re
ig ma
 disc ount
 195 0
 C hildren
 K han
ron icle
 p icking
 invest ments
 circu it
h ronicle
 M organ
 Instag ra
oug he
 P ict
 e ligible
o osing
 Instagra m
  limitat
 life t
 Hawa i
 cust ody
 Rep re
 battle s
 Fut u
 lega lly
 miss ions
 pe p
  dominant
 table s
 study ing
 Repre s
 c harity
 addresse s
 educationa l
 swee p
 unde rt
rip e
Ã ¨
 25 0
 > >
 Assemb ly
 Cas e
 foss i
 disc on
men dations
 supp re
 suppre s
 suspect s
 Manage ment
 suppres s
  dating
 Sec t
 spect ru
 defen dan
 defendan t
m mendations
 lu x
o mmendations
 Su re
 presentat ion
 Addit iona
 Execut ive
 negot iate
 bac king
 Psy c
 Es p
 Thea t
 insta lla
 a llocat
 supp le
 therap y
 Wale s
 M ove
 perceive d
 Egypt ian
digen ous
 Bat ma
e rhaps
 Penta g
 T hrough
 unde rlying
 defen ding
  racing
 6 8
 Ha rt
 discuss ing
 st ops
 expan ding
 6 7
 Batma n
 Festiva l
 being s
 Mes s
rct ic
 flee t
 Stat ion
lligen t
 transact ion
 Ga ry
â 
 spectru m
i mmy
 Le ve
 f iling
 manage rs
Ã ±
 ble n
 renewa ble
 D V
 hopefu lly
 res ort
 Plac e
 emphas is
 installa t
 Repres e
 Represe n
 Mon e
r vous
 le c
i ods
 Represen t
op his
 scru t
 ste re
r iods
 procedure s
 egg s
 ML S
 creature s
 compa t
 P T
 7 7
o melan
 arriva l
 reta ile
 fen c
 Met a
 eag e
 H ope
 pollut ion
h oosing
 Pentag on
 insu lt
 ess a
 shipp ing
 tee t
 require ment
 Oak la
ina u
 S D
 beac h
 Cus t
â 
 Mu rray
 ga la
 Kent u
 bu bble
 ( )
 Kentu c
 Oakla n
 Kentuc k
 disease s
 Assa d
 suit e
 indust ries
 = =
 tren ds
 sing e
 Are a
 he licopte
 18 9
 t rauma
 punish ment
 hospita ls
 ton s
 ca c
 iP a
 T s
 justif y
 s ove
 C omey
 answe re
m met
 Oaklan d
 tu t
 Ba g
 enginee rs
 6 00
 S M
 coach ing
 lux u
 answere d
 graph ics
 regulat ory
 A e
 sove re
 sovere ign
 Ba ke
 essa y
 Tru s
 f olde
r hoods
 expla ining
 Ala n
  ling
 Sn a
 Yea h
  halt
 Ob s
 Cons u
 recogn is
d ivorce
 Ema i
 constitut e
 Conven t
 Emai l
 nota ble
 pu lling
 unn e
 regist rat
 pleasu re
 Pict u
 institut ion
 loa de
 p harmac
 un loc
 In n
 ( "
 fa re
 prece de
 search ing
  dies
ript s
 Tennesse e
 prefe rre
rroga t
 Pictu re
 g ru
 sixt h
 advise r
 c rashe
 preferre d
 Majo r
ou rite
 inte raction
 pe riods
 court e
ophis t
 telep h
r icket
 7 6
 Chann e
 Us ing
 Ha ma
 cont ine
 ble s
 econom ics
 chec ke
 Pa la
 outlet s
v ourite
 tea s
 signa ls
 199 1
 Kentuck y
 Maste r
 b illions
 contine n
in dict
 Harp e
 bles s
h irty
 specta c
F inally
 Man u
 principa l
 seg ment
 inse rt
 emphas ize
i minals
 ba dly
 tweet s
 Pan t
irlf rien
 sentence d
irlfrien d
 every day
 coa t
 gene s
 E C
 Rat he
r iminals
 exemp t
 art s
 continen t
 requ iring
 invas ion
 c rite
 I a
 part ly
 spot t
 esca la
 crite r
 Re volution
r ozen
b inson
 up loa
 pa u
 Represent a
 t opics
 Fac t
 wea kn
orwa y
 inqu iry
 weakn e
 weakne s
 weaknes s
 uncerta int
 concept s
 Representa t
 ges t
 Up date
 Rathe r
 escala t
o binson
 fossi l
 disorde r
 lec t
 sect ions
 urge n
 Rea g
  migrants
 impress ion
olog ize
 compensat ion
 P L
 enginee r
l idate
  insa
 F inally
  divorce
 Whe t
  owe
 cit ing
 bu mp
 the ore
 vis a
 There f
 ut ility
  inac
 ne rvous
 U krainian
 W int
v ian
 tub e
 hist orian
 blockcha in
 maint e
Ø §
 mainte n
 talent e
 Are n
 talente d
 unpre c
 Theref ore
 cu rious
  rolling
 dep ort
 I de
 unprec e
 approache s
omelan d
 sit s
 mainten a
 analyst s
 maintena n
r iation
r mitte
 Give n
 drea ms
 Mont re
 Pitt s
 unprece de
 instance s
 Bet t
 unprecede n
 unpreceden t
 Guar d
 C ove
 unprecedent e
 bu rst
 atten dan
  haz
 teleph on
 Pare n
 N R
 collaborat ion
 lifes t
 pa inf
 N D
 inequa lity
 painf u
 Independen t
r igue
 ent rance
 Pea c
 V la
 dramat ically
 recon s
 as c
 Paren t
 ext raordinary
 wis e
 percept ion
 boa s
 Reag a
 Psyc h
 Whet he
 Whethe r
 Capt a
 Reaga n
 maintenan c
 maintenanc e
 fit t
 Harpe r
 Ga rde
 T A
haw ks
 cheape r
 O rt
 ca f
 speake r
 consulta n
 Tit a
 unde rwa
 lea ke
 cognit ive
 enc ouraging
h ike
 seize d
 boas t
lisat ion
 camp s
 rus he
 t opp
 finge r
 t rage
 Colle c
 Sa le
 employe rs
Ã §
 a ims
 unprecedente d
 coc k
 display e
 reserve d
 Anton i
 lifest y
 deman de
 myste ry
 lifesty le
 displaye d
 puzz le
 Collec t
 constitu e
 prompt e
roc la
 Econom ic
 pre de
 occasiona lly
 S hort
 Spe e
 8 00
 Tita n
 sta mp
 constitue n
 reinf orce
 Acce s
 correct ly
 Ste w
 F ive
 prompte d
 Sta f
 Futu re
 depart u
 departu re
 hang ing
 Tot a
 mun icipa
 Acces s
 contemp orary
 prospect s
 rec ommendations
 scrut in
 disappoint e
 regulat o
 manufacture rs
 ade qu
 p y
 adequ a
 Du c
 Montre a
 Staf f
 A rge
 disappointe d
 back u
 S of
 backu p
 ec osyste
 demande d
 GD P
 dea le
ina bility
 exclu de
 EP A
 Che n
 V ot
i mming
 Trus t
lishe r
 please d
rot t
 Ta x
 lifet i
 lifeti me
 wa lle
  mous
 pan t
 tende n
 C L
 outs t
 stress e
 sess ions
 artif ic
 R S
 lande d
 Autho rity
 Ne va
ranc he
 artific ia
 la ke
 representat ion
 fa vourite
  mega
 own s
 ann o
 Antoni o
 unifor m
hau n
 Cre e
 dependen c
 Arge n
  lone
 designe r
Than ks
 conscious n
 consciousn e
 consciousne s
 consciousnes s
 7 8
 Typ e
 provis ion
 lesson s
 occup ie
 relat ion
 7 4
 defende r
 guest s
 impose d
 Alas k
 Cust o
 Mala y
in dle
 Capit o
 Montrea l
 Alask a
 concern ing
 pregnan t
 Du ke
 rec u
 lect u
 mainta ining
 7 3
lon s
 knoc k
 paint e
 ingredient s
 D igital
 kn if
 extre mist
 overse e
 A lp
 punc h
 correspon de
 emot ions
 Argen t
 cart o
 couple s
 7 1
o oming
 Representat ive
 afte rwa
 performance s
 voluntee rs
 port a
 conse c
 artificia l
Ñ 
 fine s
à ¤
 a lu
 p rototype
 A va
 electo ra
 S N
 coordinat e
 Protect ion
 V it
 Pe rf
 Capta in
o range
 tenden c
  dua
 Bea t
 anno y
 jumpe d
 knif e
 ap ologize
 C oc
 P on
 Fan t
 militant s
 Art icle
 teet h
 we t
 carto on
lize s
 professiona ls
 Channe l
 defe c
ide ology
 Java S
odge rs
 accu mu
 trave ling
 refe rs
 telephon e
 jun i
l dly
â 
 mass a
 fu s
 p ile
 inhe re
 pregnan c
 accumu la
ila bility
 accumula t
 reca lle
 switc he
 existe d
 opp osing
 recalle d
 au s
 JavaS c
 juni o
 museu m
 integrat ion
 A lliance
 Pitts b
 R s
 describ ing
 A de
 K re
 Orde r
 JavaSc ript
 Pittsb u
 Pittsbu rg
ra diation
 inhere n
 peacefu l
 sn e
 Port u
 R T
 9 7
 Ex a
 C ircu
 inheren t
 Ses s
 Arsen a
 Ta ble
 Commun is
 cross ing
ó n
 lea p
 Transp ort
 adequa t
 confuse d
 ban ds
 198 9
 adequat e
 acqu is
 bureau c
 integ rity
 R P
 L inc
 Oc c
 designat e
 configurat ion
 inspirat ion
ð 
 Playe r
ra dle
 Neva da
 O R
 Hit le
 credit s
  ideology
o mmut
 Stu de
 trust e
 T I
 Vene z
 Ben n
 Leb a
 clu e
 c hoosing
 electora l
 synt he
 Stew a
 s ophist
 teammate s
 at he
 runn e
 Capito l
 stac k
 accepta ble
 St oc
 anc e
 continu a
 mone t
 Portu g
 18 6
 acquis it
 registrat ion
 C F
 On line
 Garde n
 ance s
 ances t
dif y
 mut u
  indict
 struggle s
 In don
 Leba n
 vaca t
 A dams
 Fore s
 promot ion
 Arsena l
 cap s
 ge og
 e vident
ica re
 una n
 dropp ing
 mutu a
 wonde ring
 App e
 concent rate
 keyboa r
 unit e
 Indon e
 closes t
 Indone s
 text u
 U I
 insa n
 dependen t
 bank ru
 Fe e
 bankru p
 asy lu
irmat ion
 organisat ion
 bankrup t
 reference s
 functiona l
 expense s
inna t
 occasiona l
 Venez u
irate s
 chas e
 monste r
 gua rds
icis t
 Me e
lon a
m ille
 en dle
 interpretat ion
 decla rat
 Venezu e
 endle s
p ropriate
 endles s
 yea h
 Venezue la
voca l
ï ¼
 dete n
 Sy n
 aw f
 sp it
 re moving
 Re ddit
 Tes la
 awf u
 myste rious
 Res t
 Hitle r
 c ine
p propriate
 geog rap
 disc losure
 Pittsburg h
 complex it
 district s
ima c
 guita r
 exclusive ly
h iring
 Sa y
 equ it
 stat ing
 engag ing
 Ana ly
 Stude n
 characterist ics
 Plan n
 gathe r
 Ra j
 confe s
  dominated
 brief ly
 Mounta in
 syn c
 Studen t
iamon d
r inks
  inau
 ven d
 confes s
 reas s
 ministe rs
 E R
 Ente rt
 Aa ron
 Entert a
 analys e
iwa n
 ine x
 Sing a
 activat e
 Py t
 cont rary
 6 9
 Treasu ry
 susta inable
 ana log
 loade d
r icing
ras p
 Engine e
 H O
 ala r
 deten t
 Spe n
 Wint e
 execute d
 stea dy
 Every on
 Everyon e
ha y
 asylu m
 sexua lly
 An dy
 que e
 confus ion
 re volutionary
 Leg e
 s lice
 Cu lt
 Convent ion
 he e
 Tu n
 Mag a
 Gu e
Than k
 vend o
 atten ding
 back w
 Docto r
 L ot
 product ive
 speake rs
 R obinson
 impe r
 P riva
 blog g
 b rands
 w ip
 temp la
 press e
 New t
 H B
 c harging
 engine s
 Mu lt
 Ha ving
 outc omes
 Man hat
 Office r
 squ e
 Manhat t
 8 2
iz u
 convert e
 Han n
 fa ils
 lectu re
 Singa p
 Fores t
 vegeta ble
 Capita l
mis le
 Manhatt a
 Manhatta n
 bit s
d rops
 W E
  hiring
 pau s
Ã  
 dis re
 Att a
 Net he
 P ope
 passenge r
 c riminals
 Cu rrent
 iPa d
 sau c
 protoc o
 Que s
 imag inat
 W ing
 Â ±
d irty
 CO N
 Christ ophe
 Matt e
 Ne e
 ena c
 speculat ion
 enac t
 uns e
 protoco l
 P H
 dee me
 au c
 deeme d
 keyboar d
 Singap ore
 courte s
 conc u
 Giant s
 fenc e
 In it
 integrate d
 Pe rry
  oa
 depen d
 V inc
 fe rt
 present s
v iation
 Op t
 guarantee d
 leake d
 prosecuto r
 package s
 Enterta in
 suspens ion
l icking
ra dy
 challenge d
 chec king
 packe d
à ¸
 US B
 administrat o
 engage ment
  radiation
 Can n
ÃÂÃÂ ÃÂÃÂ
ron y
 Fant a
opa t
 swea t
 geograp h
 on s
 Sun n
 produce s
 witnesse s
Ä 
 he n
 E ls
 R B
 Linc o
 Op p
 corresponde n
 Linco l
 defende d
 Lincol n
 recove re
ica ble
 recovere d
 Leg a
 awa it
 templa t
v ore
 bloc king
 bus t
v iable
rophe t
 Exc e
 simultaneous ly
 N I
 treas u
 att racte
 Fla s
 attracte d
 backw a
 na s
 Os c
 recognis e
 figure d
 ca ke
 researche r
 u g
 Entertain ment
 taxpaye rs
me line
 Nethe r
 varian t
 Jere my
 host s
 Is a
 trap p
 Russian s
 cine ma
 inte lligent
 variable s
 Un t
 dis ma
 C hairman
 CP U
 walle t
 B R
 junio r
 Dea n
Ã ¥
 st imulat
 Da k
mis u
 Rea c
 consec u
 wrapp e
 Ru t
 gla n
? ’
 Stu dies
 unexpecte d
 athe is
 na n
 a rise
 diagn ose
 R I
 accu racy
 Late r
 D R
 impact s
 a lly
 unne c
 sauc e
 surprising ly
 the f
 impress e
 raise s
 organis e
с Ð
 aren a
 Exp re
ran don
 eva c
 A lla
 Stewa rt
 qua lified
 consecu t
 Expre s
 unnec e
 unnece s
 c igarette
 evolve d
 unneces s
 unnecess a
 tut o
 defec t
 Expres s
 imp rison
 Res p
 courtes y
 Natu ra
 MP s
 finge rs
  ough
 Queen s
 base s
 consecut ive
 HI V
 transfe rre
 expect ing
 ident ica
 transferre d
 Range rs
 visit s
 expect s
 enable d
 18 8
 ough t
 Hamp s
 assass inat
 identica l
 Ta t
 Isla mist
 line a
lca n
 C T
 capita list
 evac u
 Miss is
i meline
 attac h
 G E
 mous e
 Ott a
 s hops
 unre s
 Missis s
 motivate d
 forgot t
 kille r
 agree ments
 conflict s
 forgott e
 forgotte n
m inary
 repea l
  hike
 commun is
 Da ma
 criter ia
 Towe r
 nation w
 nationw ide
 Ron a
 Edit ion
 influence d
o rhoods
 occas ion
b orhoods
 occupie d
 E y
 procee ding
 an imation
 Coope r
h borhoods
 traile r
  `
ig hborhoods
  misle
ript ions
 scare d
 functiona lity
 checke d
 concentrat ion
 recove r
 Han s
 house holds
 bruta l
 Re ds
 I B
 c ourage
 sa ke
 bet a
 promote d
 I g
 trans miss
 explicit ly
 undert a
 tan ks
 templat e
ris dict
 ba lls
 releas ing
 Fanta s
 Lege n
 stat s
 sc out
 statu t
  orange
rke le
 bru s
 fle d
 Nether la
 Netherla n
 Je rry
 More ove
 Moreove r
 Ne ls
 con j
 influen t
 mete rs
 pep p
 Louis ian
 Comp u
 ma rt
 statu e
 investigate d
 P I
 Ga s
 towe r
 transparen c
 mon a
ilate ra
 Tota l
 Roc ke
 kee n
 Canadian s
 G ray
 Play S
 app lies
 cost u
 intent iona
 Otta w
 Ottaw a
 e ru
 Standa r
 inevita ble
 PlayS t
 chip s
 uncertaint y
 invest e
 Lu n
 pre mium
 Ra ms
 Vla d
 destinat ion
 imp u
 8 8
 Louisian a
 Re y
 ref ine
 PlaySt a
l iot
 beat e
 g irlfriend
 PlaySta t
rkele y
 Ques t
 Se x
 influent ia
 influentia l
 infect ion
 ca le
 Sa s
 ret re
 Standar d
 dy s
 inau g
 scre w
 FO R
r iations
inis m
 inaug u
 cu b
 thef t
 U P
 Christophe r
 chea t
 immun e
 Be ing
 transparenc y
 PlayStat ion
 investe d
 Es s
 provis ions
 singe r
 re ign
 Every t
 Pu e
in dication
 nonp rof
 handle d
 Dru g
 long t
 Olymp ics
 accident a
 impresse d
l oving
 consultan t
 Netherlan ds
 rega rde
ilat ion
 Stan le
 boa rds
 Stanle y
d icating
 B le
 cale n
 s imilarly
 spott e
 misc on
e rvations
l ory
 re lu
 Se le
 pepp e
 Tre k
 nonprof it
 Stan f
 L oa
 spee ds
 disable d
 launch ing
 satisf y
 Mot he
 orient a
 una c
 sp ray
 operate d
 regarde d
 relu c
 G R
voca c
 reluc t
 reluct a
 relucta n
 comp lian
 compla ine
 pot a
 S ilver
 U R
 kidn a
 s mu
 kidna p
 18 0
 detent ion
q a
 Bec k
d vocac
 Un like
 Ru le
 spa re
 volunt a
 Fat he
 O P
dvocac y
 outf it
 whis t
 prosecut ion
 Pat t
 Edit o
 temp le
 convict ion
 w inds
 ce iling
 earth qu
 earthqu a
 earthqua ke
  rolled
 Hamps h
 male s
  misu
 Capt ion
ou ls
 Hampsh ire
 gu idance
 Gu y
 filte r
 Seve ra
 trage dy
 tea rs
 8 1
h ils
rc hae
 Ass is
 emp owe
 Pyt h
 Ha rve
 F igure
 Philippine s
 g rate
 Ba rt
 bag s
 ela b
 Commission e
 Severa l
 accept ing
 examine d
 lea k
 elab o
 breac h
 Nels on
 missile s
 calen da
 B O
 bene a
 benea t
 beneat h
ron ments
rvan t
 inte rse
i ronments
 participat ing
v ironments
 swa p
 equip p
 100 0
 A irport
 Way n
ron ounce
 ne ighborhoods
 F ile
 conten de
 legislat u
 McDon a
 compe lling
 outst a
 reflect s
 complaine d
 Stanf o
 Stanfo r
 luxu ry
─ ─
 Stanfor d
A mon
 legislatu re
 less e
 bit e
 Plan e
 cont roller
 init iate
 except iona
 repai r
 shelte r
 mass e
 pa le
 Invest igat
 significan c
 significanc e
 Wayn e
ilde r
 fit s
 fac u
 Tru e
 Pyth on
 < /
 consist s
 ju risdict
 p olling
 evacu a
 f ost
h iding
 res idence
 stopp ing
 occas ions
 gent le
 log g
 Stoc k
 evacua t
 Bru s
 realist ic
Amon g
 cru e
du la
 Flas h
 paus e
 accompan ie
 Dat e
 non s
 tens ion
 accompanie d
 see ks
ig inat
 susta ine
r iginat
r dict
 facilitat e
 theore t
 c ommut
 assist s
 poss ibilities
 theate r
 facu lt
 gest u
rre a
 outsta n
 Bea u
 ac re
 outstan ding
 accusat ions
 c ooking
 Eff e
 retre a
 Champ ions
 editor ia
 suppose dly
 b rave
 pla g
 Sof t
P erhaps
 Malay s
 sustaine d
 beate n
 SE C
 staff e
 las e
 awa rds
 dresse d
 an imate
 Compu t
 b iza
 Everyt h
 Everyth ing
 ten u
 Mu rp
ha rve
 I V
 construct e
 affect s
 Nat ive
 Be y
 longt i
 prevent ing
 illust rat
lippe d
 longti me
 constructe d
 offen c
 offenc e
 Natu re
 fuc king
racke t
 cru is
 36 0
 Ha p
hau l
ron ics
 Hama s
 L owe
 E D
 Sect ion
 c ops
 Organ ization
 Assis t
 Murp h
 cybe r
h ms
 entit y
 passw o
 passwo r
 wis d
 7 00
 unc ove
 wisd o
 mix t
 J immy
 gree t
 Osc a
 trade d
 Maga z
 K icks
 necess it
 passwor d
 Financ ia
 olde s
 oldes t
 Stea m
 praise d
 dua l
 frust rate
 spotte d
 Seve n
 Loca l
 dictat o
 Financia l
 Spea ke
  drops
mit ing
 occupat ion
 revenue s
 L L
 sponso rs
 laye rs
harve s
 wa lks
 b icy
 wisdo m
 inte ractions
 Pat riots
 Drea m
 textu re
m mens
 bicy c
 eru p
 mon u
 awfu l
ron c
 pane ls
 gala x
 view ing
 erup t
 he s
 Communis t
 Othe rs
 Ox f
iet ly
 B P
 Magaz ine
 sca t
  dirty
 t riple
 M U
 M ine
 calculate d
 b ore
 Cat a
 Cu t
 dea lt
 orienta t
 weake n
 painfu l
 lun g
 recess ion
 reviewe d
 wait e
 Part n
 Murph y
 Sp u
 Chan c
 conce a
 t rips
 Cit ize
 Citize n
o riginat
 dens it
 prede c
 retrea t
 la dy
 cleare d
 secu la
harves t
mist ry
 asc e
 F ix
 administrat ive
 Mu c
â 
 crosse d
 convenien t
 Partn e
 Ve t
 graph ic
 Comp le
 Aren a
  ranging
 NC A
 9 2
 predec e
 biza rre
 Jeff e
 Dee p
s ervations
  dun
 198 8
rca s
 display s
 icon ic
 en vironments
 Nas h
 host ing
 C limate
 Chanc e
 editoria l
 son s
 draft e
 Den n
mids t
 anc h
 suit a
 Vinc e
 cry s
 Na p
 unac c
 converte d
 predece s
 b ip
 predeces s
da ries
oz a
 neutra l
 crys t
 predecess o
 Fede rat
 La rry
 cryst a
 Sma rt
me dit
 Hot e
 Vlad i
ig orous
 creato r
oile d
i orities
r iorities
ic hards
 address ing
 Atta c
rande d
 c losure
  hiding
 M D
 O live
 safe ly
 attorney s
 responde n
 devastat ing
 scan n
hils t
 sleep ing
 responden t
 restrict e
 w ore
i minated
 arrest s
 restricte d
 scrutin y
 unfortunate ly
rren de
 whist le
 ru g
 short a
 Effe c
 Mississ ip
 depart ments
 shorta g
 shortag e
 Effec t
 murdere d
 H P
ris he
 competito rs
á n
 bu ilds
 compa s
 Mississip p
b servations
 ava ilability
 cree p
 newslette rs
  originat
 B I
 adopt ion
rce lona
medit a
 pens ion
 newspape rs
ieta ry
 t oss
 ne s
 product ivity
 stea l
 compas s
 Mann ing
 B orde
i lming
 -- -
rg ive
  vocal
 Lu ke
 coordinat o
 containe r
 pregnanc y
medita t
 D S
 appea ring
  indication
 act e
 pub lisher
 unfa i
 9 8
 Ban n
 dut ies
 P roce
l ieving
 leve rage
 fish ing
 reflect e
 reflecte d
 T S
da rity
 excess ive
 Bu ilding
i darity
o rgive
l idarity
 Further more
 emp ire
o lidarity
 Kicks t
 Kickst a
 Meg a
 screen ing
 We is
 an e
ract u
 list ing
 separate d
 p ricing
 nationa list
 riva ls
  viable
 rewa rds
 deserve s
 w hale
 sophist icated
 18 5
 acte d
 offse a
 offsea s
 offseas on
 Kicksta rt
 relative s
 conf ine
 proport ion
 198 4
 preparat ion
 equipp e
 equippe d
 limitat ions
 ac u
 a lp
  mp
 among s
 con qu
 amongs t
 complexit y
 mechanis ms
 class r
 classr o
 buff e
 classro o
F igure
 tuto r
oile t
 8 4
 Federat ion
 18 7
 displa c
ow ds
 McC on
 delay e
 pass iona
rmitte d
 b illionaire
 vag u
 passiona t
 passionat e
â ³
 suggest ions
 198 6
 8 3
 Que b
r owds
 delaye d
 meet s
 F if
 t oughe
 Ta iwan
 M T
 argu a
 w orlds
v owe
 inf init
 g host
 stere ot
 ant e
 Mississipp i
 celebrate d
 Ya h
 eage r
 ensu ring
 qu ietly
 D w
 Rona l
 Za c
 prevent e
 Queb e
 V iking
 Lu t
me rly
iograph y
 Quebe c
 Bla ke
 DV D
 recip ien
 collect ing
 fost e
 meta p
 Peac e
 hes it
 recipien t
 detaine d
 hesit a
 Sing h
 auc t
 translat ion
 bee f
 employe r
 Ronal d
 pre a
r ooks
 Coa lit
 g olde
 Mitc he
 golde n
rne a
 At he
 installat ion
d iary
r merly
 poste r
o rmerly
 delive ring
 designate d
h irts
 play b
 ) ;
 Be rkeley
 ant h
 interse c
mble s
o bservations
 nota b
 cata s
 catas t
 intersec t
 g rants
 stereot y
ige s
 stereoty p
 pursu it
ou le
 bug s
 7 9
 Kickstart e
 not orious
 notab ly
 heart s
 the mes
 count le
 countle s
 countles s
 Reg is
 delegate s
 Eagle s
 Ia n
 hea ve
 Hu f
 sla t
 course s
 Neve r
 fortun e
 gradua lly
 witnesse d
 Res ource
 Prog re
 question ing
 Coalit ion
oug la
 incon s
 wip e
 Me dicine
 aw k
 veg a
 mean w
 ten ds
 La dy
 Progre s
 gestu re
 meanw hile
 psych iat
 Cult u
 demonstrat ion
 M V
ougla s
 Swe dis
 Swedis h
 annua lly
 pen ding
 8 6
  observations
 Fe rgu
 Sa la
 Fergu s
 gene rous
 vagu e
 interpret e
 ga lle
d rinks
 Fly n
 G it
olog ically
rrenc ies
M ichael
 comp ly
 lapt op
  harvest
opat h
 see ds
 B J
 pee r
 9 6
 T P
 replac ing
 temp t
 content s
 pre view
 Dak ot
 Dakot a
 Progres s
 Art s
 frustrat ion
 Winte r
 O range
roc ks
 cle ve
 supple ment
o dify
 vega n
 Su rve
 Mitche l
 smu g
 happ ine
 Net a
 happine s
 act re
 actre s
 actres s
 happines s
 Vladi m
 L ions
ina ppropriate
 cu re
 ma rry
 nes t
 prevente d
 NCA A
 starte r
 de duc
 bon ds
 Ben j
 Temp le
 conqu e
 alt og
 Luc a
 Vladim i
 catc he
 instant ly
 pe rmitted
 altog e
 Huf f
 altoge t
 altoget he
 altogethe r
 Camp b
 Roge r
 Campb e
 disappea re
 plane s
 Vladimi r
 constitut ion
 Wat s
 disappeare d
 McCa rt
 cult iva
 suggest ion
 agricultu re
 Ge a
 press ing
 part ially
d ragg
ivis m
 Christian it
 F E
 Mit t
  drinks
 Camp a
 size s
 log ica
 nut rit
 inc orrect
 protect ions
 s hade
 Sw is
 fascinat ing
 Congress iona
 intens it
oun daries
 In g
 fun e
 Christianit y
? '
 pe rse
 Hawai i
 Additiona lly
 Conc e
 P int
 pa rks
 a like
 reta in
 Cent u
 style s
 logica l
rc on
 hac k
 supporte r
 sne a
 lay out
 Pant he
 fle w
 sing ing
 structu ra
 Kickstarte r
 ep ide
 La c
 Force s
 Congressiona l
 stunn ing
idn ig
ou ds
 Ta mp
idnig h
idnigh t
 fuc k
 capa bility
 Mitchel l
 L S
 stretc he
 transmiss ion
  mille
 His p
 c ous
 powe re
 advise d
  duc
 powere d
 elabo rate
 Campbe l
 Hisp a
 Speake r
 react o
 react ions
 metap h
 Manage r
i vine
 transparen t
 stresse d
 Lea rn
 g roce
ilan d
 Fa lcon
 facult y
 ske t
 McDona l
rrenc e
 make rs
 Edito r
 Hispa n
 McDonal d
 clean e
 host ile
 derive d
 sevent h
 celebrat ion
 sket c
 friends hip
 c rown
 distan t
 M C
 argua b
 arguab ly
 drafte d
 Wats on
 Ha g
rienc ing
 Bru n
 Muc h
 sma s
 praye r
 G I
 In va
o ils
 Law re
 Se rve
 ine f
 exp ire
 f illing
 p p
 revea ling
 travele d
 drone s
 Flyn n
 freez e
 Sess ions
 unre a
 inef f
 Lawre n
 rep ly
 C opy
 Hap p
 Commissione r
 awk w
 awkw a
 awkwa r
 apply ing
 accomp lished
 offse t
 citizens hip
 st if
 mechan ics
 cat s
i log
 sp ike
 tan g
 pe de
 assumpt ion
 unfai r
 T ry
 a dvocacy
 Ult imate
 Dan n
 Evan s
 plac ing
 expert is
 Sa lt
 expertis e
 su rrende
 Campbel l
 ta t
 Ga lle
 Indian s
ha la
 circle s
 stronge s
 stronges t
i dies
 Coa c
 calenda r
 focuse s
 operat iona
 Mat e
 truc ks
 R C
 8 7
 audience s
 g race
 Lawren c
ran n
 buye rs
 Lawrenc e
 conf irmation
rona u
 line b
 particle s
 acquisit ion
 conclus ions
 Bloc k
 comput ing
 cens o
 p ronounce
op la
 devote d
 Neta n
 D raft
 H oc
 Rose n
 legen d
 p rocla
dminist e
 Bake r
 Regis t
 disturb ing
 unnecessa ry
 blogg e
 T D
 twe a
 lineb a
 lineba c
 monet a
 chart e
 Yan g
 penalt ies
 kidnap p
 longe s
 longes t
 Netan y
 Safe t
 respon ding
 Netany a
 syste ma
ronau t
lit z
 systema t
 Ey e
 ba ke
 Leg is
 p ix
 lift e
 dist ort
 up w
 fune ra
 Son g
 hist orically
 entit ies
o rrent
 hac king
 addict ion
 Fergus on
 be have
 b oundaries
i dding
 Person a
 understan ds
 reproduc t
 M ilita
 quant u
 conve y
 quantu m
 Hote l
 Ba rcelona
â ¢
Ù 
 Legis la
 Netanya h
 coordinato r
 operate s
 re lieve
 Legisla t
 detect ive
 Safet y
 orientat ion
 frustrate d
 Netanyah u
 Ap a
 198 7
 Benj a
 Rec ords
 ref re
rcy c
 Sen s
 pede s
 9 3
 Che s
 cru de
 Ra ve
 faste s
 Ce rt
 E M
 fastes t
 Sus a
o lished
 painte d
 displac e
 composit ion
 treasu re
 pedes t
 p opp
 motivat ion
 De la
i minary
 agricultu ra
l iminary
 FC C
 Occ u
 linebac ke
 M B
 densit y
 expe riencing
 cont rolling
 count ies
 R ichards
 mosqu e
 safe r
 mixt u
 Swis s
 out e
 197 9
 mixtu re
 comp rise
 F riends
 manua l
l ouds
 grate f
 gratef u
 accele rate
 Benja m
 green house
 R ing
 direct ions
 offs h
 transf ormation
 receive s
 imper ia
 sentence s
 aut is
 break f
 ug ly
 fulf i
 fulfi l
 Mont a
 illega lly
 breakf a
 Hu rricane
ron ically
 breakfa s
 epide m
 breakfas t
 intensit y
 enjoy ing
 insu re
 Dep u
 compose d
 accepta n
 manipulat e
 alternat e
 Sa mu
s idies
 acceptan c
 heave n
 acceptanc e
  rocks
 elevat e
 C halleng
 Walt e
b sidies
 man datory
lis on
 En c
 conse rvation
  rage
 ga ining
 slat e
 p izza
 insan e
 Mothe r
icu t
 R ice
 refre s
 revis e
 198 5
 condemn e
 Aga inst
 Et he
 R if
 rese t
 balance d
 bas s
 condemne d
 fata l
 Dis p
 attendan c
 distinct ion
 attendanc e
 fea s
 space c
ra mes
 B log
 ten a
minat ions
 wing s
 Depu t
 respect e
 spacec raft
 Lan c
 den t
 invest ing
 ne rve
 Cas s
 Swit z
  dragg
 pay s
 Pac k
in orities
 touche d
 Ha c
 Tamp a
 pes t
 Tex t
 Circu it
 app le
 initiative s
 D J
 Mag n
 Switz e
 exchange s
 sca ry
 Ky le
 t oilet
 N ix
 Switze r
 Post s
 cultiva t
 muta t
 tele c
 Benjam in
 leas e
 susp icious
 trapp e
 scenari os
 ecosyste m
 map p
 manufacture r
 Susa n
 stea d
 fan c
lishe rs
 agricultura l
 c ricket
 Elect ion
 inf ring
 s log
 Oxf o
 Oxfo r
 respecte d
 b ounce
 Bu y
 presse d
 pee rs
 cla u
 rotat ion
 Oxfor d
 repu b
 c rops
 lane s
rag rap
 misle a
 Ke it
 t imeline
 K le
 Lau re
h roat
 Assist a
 Assista n
 C hronicle
 cac he
 complet ion
 f ierce
 treat ing
ragrap h
rre ls
 p riorities
 But t
 resign e
 su bsidies
 Bey on
 Is s
 Buff a
 Pe p
 V u
 difficult ies
 slave ry
 A rctic
 g rasp
 sens a
l lips
 chan t
 islan ds
 Â ©
 clau s
 cruis e
radle y
 free ly
 Ma ine
 resigne d
 McCon n
 by t
 insec t
 f ormally
 shorte r
 Fort u
 reserve s
 B randon
 C harge
ranche s
 desire d
█ █
 quote s
 la g
 part is
 sp he
 Wa lla
 c rowds
 respondent s
 participate d
 bone s
 Ben e
 US D
 brief ing
i mmens
 butte r
 tenu re
 Brus s
 un ma
 pa la
 mot ive
 he ritage
 sensa t
  meditat
 Awa rds
 193 0
in osa
 rap p
 worth y
 Buffa l
 mechan ica
 partis a
 partisa n
 animate d
 Trea t
 hen c
in dicating
 Ta c
 afte rma
 stee p
  ×
 compre s
 secure d
 Ann e
 Luc k
 mas k
  dup
 upw a
 McConn e
 Saint s
 Mc L
 Centu ry
 moneta ry
Ñ 
 Vot e
 plu n
 Buffal o
rita n
 Imp e
 compres s
 culture s
i mous
 Challeng e
 Lyn c
 flex ible
 anticipate d
 byt e
r mits
 econom ies
 knoc ke
 McConne l
 Pue rt
 atheis t
 supre ma
 Bea s
 Ep is
 Sele c
 en dan
d rough
 endan g
 endang e
drough t
i minating
 gratefu l
 suprema c
 elde rly
 Bruss e
  inappropriate
 bu z
 McConnel l
imac y
 sprea ding
 Resp on
 teenage r
f ielder
 Dy n
 mechanica l
mit igat
 na ke
 flex ibility
 affai r
 alternative s
ie ls
 accele rat
 zone s
ic iary
rit ories
 operationa l
r ritories
 St rate
 Rac e
 Bla n
 Ke rry
 induc e
 inte rrogat
 Te rry
 trigge re
 triggere d
 Pac ke
 buz z
 massa c
 techn ically
 Switzer la
 Switzerla n
 ju ice
 reache s
ie lding
 Switzerlan d
 tens ions
 unp a
 detect e
 detecte d
 App a
 en dure
 inst inc
 instinc t
 knocke d
 pix e
 designe rs
 pose d
 B T
 Ea rly
h irds
 pledge d
 conj u
 Selec t
 voluntee r
 Brusse ls
 satisf ie
 preva le
 precede n
 instru ments
 neg le
 sen ds
o iding
 profit a
 satisfie d
 negle c
 neglec t
 Fis he
 prevale n
 processo r
 cast ing
 perpet u
  immens
 wrappe d
 B ooks
 C lose
 Sc re
v oiding
rac u
 Jet s
 met re
 Puert o
 re dis
 excite ment
 C has
 casua lt
 crypt oc
 J oa
 fit n
 equit y
 man g
m inorities
 float ing
 Pas t
 Cla u
 edito rs
 mag ica
 glan c
 Confe de
 Lync h
 Partne rs
inc innat
 trappe d
 matu re
 P P
 appea ls
 Campa ign
 D ian
 max i
 Strate g
 suita ble
 f orgive
 legen dary
 resolve d
 port f
vinc ing
 Ja g
 refus ing
 withdraw a
 fitn e
 fitne s
 fitnes s
 Tru de
 portf o
 Fathe r
 portfo l
 plag u
 portfol i
 ext inc
 Fortu n
 identify ing
 magica l
 U A
 B L
 Da s
 rec y
 declarat ion
 extinc t
 ann ouncing
 Un c
 dist re
 bun dle
 inning s
 wa rf
 distre s
 recy c
 distres s
 f rozen
 essen c
 O ma
 B U
 rushe d
  drought
 W orks
. :
 correspon ding
 ga u
 dispa t
k icks
 dispat c
 hat re
 essenc e
 Ba rry
 H olla
 pen e
 presu ma
 D ouglas
 assu ming
ha dis
 caut ion
 satisf a
 Creat e
 pa rade
  minorities
 fle s
 Plane t
  indicating
 massac re
incinnat i
 conduct ing
 Ve ry
 satisfa c
 spa t
 J S
 presuma b
 presumab ly
 prosecut e
 truste d
 imaginat ion
 edit ing
m odify
 G ru
i hadis
 A G
 Can t
 prea c
 bu lly
 Christ ie
 satisfac t
 GP U
 stoc ks
 Trude a
 Trudea u
 Subs c
 immens e
 tendenc y
 pene t
 D M
d fielder
i dfielder
 Prote s
 virtu e
 Roge rs
 Bea rs
 tunne l
 ae s
op osit
 pass p
d mits
 tourist s
rnan c
 dec iding
 infect e
 ren a
T hrough
 Alt e
 Jeffe rson
 spa rke
rnanc e
rit ique
 infecte d
 Ty le
 Can c
 San c
 commut e
 sparke d
 An c
 button s
 spectac u
 waite d
 damag ing
 Occu p
 B rady
 pota t
 bla de
 defende rs
 spectacu la
 Protes t
 tw it
 se w
 cryptoc u
 coc a
 Appe a
 college s
icis e
 complian c
 A rms
 Pen c
 t s
 unit y
r oposit
iges t
 W O
 je a
 planet s
 complianc e
 potat o
 Osca r
 Spen c
 f t
 Spenc e
 tat t
ris p
 soc ieties
i racle
 Ess e
 E N
 Beng a
 urgen t
 W R
 W rite
 c licking
opa r
 a dministe
 auct ion
 hatre d
 Na va
 res on
 traditiona lly
 attitude s
  vowe
 disgu s
 disgus t
 Me rce
 approach ing
 Leve l
 mas c
ickn a
 export s
 I va
 Islan ds
 confront a
 legislat o
o lcan
 Prof ile
 Harve y
 reson a
d ications
 Keit h
 T rave
os ophe
 dec ides
 champ ions
vore d
 purchase s
lwa u
 overt u
 confronta t
 bet ray
 haz a
 Du e
l osophe
 Unt i
 S F
 aus t
i lwau
 mille n
 9 4
i losophe
os n
h ilosophe
 Cont a
 s kille
 pure ly
ilatera l
 bea n
 lifte d
 fon t
 secret s
 sn ip
 text s
 nake d
 he c
 Yah o
 pursu ing
 Unti l
 there b
 Mon a
 Holla n
 WW E
d rast
 thereb y
 fee ding
 8 9
 rec ount
 wishe s
 C rown
ris s
 draw s
 aggre g
 regulato rs
 conce de
 dispe n
 Yaho o
 aggreg a
 meta b
 meant i
 sque e
 meanti me
 dispen s
 aggrega t
 Ne p
 Stee le
 Pap e
i vot
 donate d
 Tre n
 pis t
 sympat h
 ton g
 structura l
 Swa n
 economist s
 treat y
ilwau ke
 aes t
 bottle s
ilwauke e
 succee de
 lase r
 succeede d
 re loc
 N orway
b ilita
 alte r
 M ile
 hacke rs
 failure s
 Ma dis
 Mone y
 Web s
ripp ing
 E X
 magn it
 inex p
 magnit u
l oods
 Fantas y
 un int
 FD A
 ende a
 break down
 reloc a
 Rave n
 aest he
 financ ing
 magnitu de
 Ja ke
 analy t
 Madis on
 blac ks
 success o
 identif ication
 bicyc le
 DN C
 RE U
icke rs
 a dmits
 Fea t
 H R
 warf a
 pe rmits
 Vit a
 decrease d
 institut iona
 belong ing
ã ®
i dle
 aesthe t
 afterma t
 sla s
 aftermat h
 mutua l
 : )
 Det e
 C z
 last e
 Reg u
 reloca t
 compa ring
 K oc
 metab o
 b inding
 disorde rs
 proble ma
bilita t
 va riation
 pen n
 Milita ry
 app la
 port rait
 enhance d
 c ot
 appla u
 ve c
 S L
 ' '
 resign a
 Natura l
 pla int
iza ble
 cre de
 female s
  drast
 G host
 Vis it
 ve rdict
 R N
 accounta ble
 REU T
 helicopte r
 REUT E
 REUTE R
 Vale n
 Theat re
 emot ion
 Ken y
ou de
 Deput y
 squee z
  loving
 resigna t
 REUTER S
 fa rms
o dium
 UR L
 treat ments
 batte ries
 recons t
 Pint e
 Connect icut
 K rist
 claus e
 Cy c
 PA C
 H ills
 s illy
 V P
 contact s
 Be g
 disp osa
  median
 int u
 laste d
 se rvant
 masse s
 Commun ications
 retaile rs
 Qa t
. “
l iminated
d iot
 lac king
 WA T
 wonde re
 Mont e
 crede n
 IR S
 wondere d
 oute r
 encounte re
 Tyle r
 encountere d
 reu n
 warfa re
 Ja z
l inary
 eva n
Ñ 
 vert ica
  modify
dg a
 license d
 nee dle
 Yan ke
 bat c
 smug g
 f ounding
 Moto r
 Luca s
 Let t
 infa mous
 statist ica
 Art h
 ag ing
o dula
 clean ing
 reluctan t
 phenomen a
 gift s
 statistica l
 198 3
  mitigat
 Y out
ract ically
 G B
 slowe r
 Pakistan i
 gravit y
 Conservative s
 caree rs
 18 4
ieva l
rg on
 Ce lt
 Se g
 village s
 ite rat
 g ray
 intent ions
 fre a
 king d
 kingd o
 organisat ions
in direct
 Down loa
 separat ion
 b out
 inc h
 scat t
men c
 count ing
iqu it
 198 2
 pedest rian
d raising
 govern ing
 fa de
  Ï
 Playe rs
inosa u
 Lan e
 insu rge
 insurge n
 unint e
 diagnose d
 wre c
 edit e
 ele p
 taxpaye r
 n it
 edite d
 perpetu a
 interfere n
 Ra f
 he t
Ã £
 commissione r
 interferen c
 strea k
 Pe re
 interferenc e
 Re le
 procee d
 Ze r
 secula r
o rcyc
 elep han
 Dyn a
 elephan t
 Ret u
rn og
 Sa g
 ca rp
minu s
 Inte re
 Science s
 millen n
 seque l
 deduc t
 en vis
 A lf
 wan de
 scatt e
 damage s
 Ju a
 clas he
 passp ort
 Bre t
 fea re
 Intere s
 specif y
 funera l
 t out
 uns a
 Yanke e
 discre t
 va p
 u rging
 justif ie
 tong u
 traff icking
 feare d
 Pinte re
 Pintere s
 bankrupt c
 B ronc
 donat ion
 Pinteres t
 ga rage
 Supe rma
i miting
 jac ke
 autono mous
 Dann y
 Des t
 teen s
 tongu e
 monste rs
 f raction
o rnog
 collapse d
 Benn e
 N ine
 S is
 justifie d
 henc e
 crus h
 spa w
 fis he
 rent a
 const raint
 organ izing
 Bu lls
 : :
 spaw n
 c ort
 ble e
 incons is
 inconsis t
 With in
m inism
 Regu la
 specif ie
 magnet ic
 Qat a
 circu m
 nove ls
 wrest ling
in digenous
l liot
 inconsist e
 Comput e
 inconsiste n
 ups t
k inson
 t hirty
 disappoint ing
mis p
 Glas s
 recruit e
 evan g
 inva de
 Mas on
 slog a
 sloga n
i llips
ornog rap
 be lieving
 evang e
 Interes t
 Iva n
 invent e
 b ranches
 dec ks
 cry ing
 compile d
 plea de
 recruit ing
h illips
m idfielder
 uns t
 enable s
 cau c
 educate d
 rush ing
 Canc e
 invente d
 trave lle
 Man s
 sue d
 e liminated
 spons ore
 An s
 Mons t
 sponsore d
op on
 B radley
 unve ile
men dation
 Sma l
 heat e
 trait s
 assure d
 unveile d
 C incinnati
 pleade d
é mon
ivis ions
 Lea f
 predict a
 D L
 inta ke
 breath ing
 agree s
 s olidarity
ig rate
 Lt d
 infinit e
m mendation
o mmendation
 D P
 North w
 Spee d
l inking
 Ca rson
 fasc is
 Ag re
rishe d
 awa ke
 app lican
 direct ory
 applican t
 entrepreneu rs
 anch o
 Subsc r
 Subscr i
 Subscri b
 plagu e
 inclus ion
 jump ing
 casua l
 princ e
 inte ractive
izu re
 smartphone s
 cluste r
 glanc e
 int imate
 intu it
 whee ls
 Financ e
 Indones ia
 screa ming
 pilot s
 Exc han
 appea ling
 Exchan g
ig ot
 incentive s
 market p
 marketp la
  midfielder
 marketpla c
 marketplac e
 except ions
 specifie d
 coca ine
 Penc e
 snap s
 T C
 L C
 Subscrib e
h ieving
 psych ology
 people s
rnes t
 Ve rizon
 Ta p
 cent s
 pre liminary
 Arth u
 LE D
 problema t
 Ins p
  indirect
irp la
 Weis s
 Sna p
 BJ P
 translate d
 cauc u
 caucu s
 Exchang e
 land ma
 Cap e
  kicks
v iving
 Gon z
 introduc ing
 rega rds
 connect ing
 acre s
 counterpart s
 R it
lwa re
 Villa g
igg ing
  kills
 Won de
 mea ls
llu la
 pup p
 unres t
 scu lp
 Count ry
 tap p
 prec ious
 Fe n
 ban ke
 w hip
k émon
 c ritique
o kémon
 bu rge
 sla p
 tradit ions
 creato rs
 que ry
 match ing
 vacat ion
 dete rmination
 Keny a
 cut e
olu mes
 pa ragraph
ieva ble
 counte d
  ð
 Tit le
 Gate s
 con vincing
 sculp t
 Q B
 Nix on
 Blue s
 Leban on
 sa g
 campaign e
 league s
 H S
ou dly
 bias e
 AM D
 bitte r
 endorse d
 investo r
 accurate ly
 licens ing
rit hms
rna ments
 Villag e
 Retu rn
 supe rst
 mot orcyc
 F L
 Ga u
 Agre e
 Argent ina
 B Y
 ve rse
 horse s
 wa re
 shee r
 Se rge
 folde r
 a voiding
 wa ive
 Glen n
 account ing
 Z on
 je w
 vertica l
 192 0
 y og
 generat o
 Mu e
 K is
 Ne g
 Olive r
 Rea ding
 Reg a
rs ive
 blu n
 Ne b
 Plann e
 proceeding s
 fles h
  indigenous
 S W
 mine ra
 interven e
 length y
 dens e
 slave s
iat u
 Fas t
 G oa
 Wa g
 M ort
l mes
 Mus t
 fun draising
 198 1
 shape d
 celeb rity
 touchdown s
l icing
du de
ran a
 invit a
 sex is
 willing n
 willingn e
 willingne s
 Bu dge
 que u
 willingnes s
 Qa e
 cleve r
 alar m
 renew e
 severe ly
 establish ing
 generat ing
â 
 Va lu
 shoulde rs
 implement ing
ornograp h
 renewe d
 presc r
 Ente rp
 Swe e
 N G
 n ickna
 prescr i
 consume d
 prescri b
l imiting
 Qae da
 sw imming
inne d
 eat e
 creat ivity
 se lle
 relat ing
 Inc re
 PR O
 C olt
 Hus s
 certif icate
o rithms
 sw if
Å 
 Ba u
 assumpt ions
 sna ke
g orithms
l gorithms
 Han d
 swif t
i osity
 invita t
 accompan y
 trade ma
 Miss ion
 average d
i ldly
  von
 reflect ion
 mount e
 speculat e
 L T
 affect ing
 pu ls
 M R
 compla in
Ñ 
 recept o
 hea ling
 f ilming
 Benne t
 hopefu l
 Enterp rise
 compat ible
 et e
o vs
 bea ring
 Analy s
haun t
 mounte d
 compete n
 detect ion
ina le
 Qata r
 expe dit
 statut e
 by p
 la z
 M ilwaukee
 reca lls
 13 0
 fue ls
ha ma
 196 7
 lea t
 escape d
 predict ions
 jacke t
 Arthu r
 K la
 lesse r
 St ring
 fa rming
 lite rary
 Beas t
 sla u
 slau g
 Northw e
 Pat e
 j ihadis
 problemat ic
rag u
 slaug h
 slaugh t
 aggress ion
 laugh ing
 leat he
ickn e
 Denn is
 lawsuit s
 slaught e
 a mu
ormat ive
 nea t
 bothe r
 bea s
 F ourt
 Budge t
 gen iu
 German s
 11 0
 rende ring
 nons e
 recon c
 beas t
 He lp
 Northwe s
 Walla c
 Rocke t
llula r
 B S
 where ve
 Northwes t
 whereve r
 G C
d ivisions
l icable
 geniu s
 mus icians
 Cree k
 Ze n
 Ga y
 C hart
o mmy
 Bu z
 Ð ¿
 pass ive
 underwa y
 Steven s
ia ries
 morta lity
 Na g
 out la
 w rist
 evaluat ion
 communis t
 pant s
 lea f
 ban g
 Galle ry
 bus e
 vulnera bility
 bankruptc y
 delay s
 inac c
 shipp e
 O z
 lea ks
 Ra ma
 independent ly
 reconst ru
 W u
 skille d
 Parent h
 plaint if
 Parenth o
 Parentho o
 Parenthoo d
 Impe r
rnea t
 plaintif f
 reconstru c
 Coac h
 underta ke
 support ive
me dication
 navigat e
 reconstruc t
 Brew e
 offsh ore
 resignat ion
 cyc ling
 Bett e
 suit s
 Superma n
rneat h
 mislea ding
 Bronc os
 screens h
rre le
 g ods
 Wan t
 screensh ot
 Cast le
 ca g
 pres t
 awkwar d
 Pala c
 afterwa rds
 man e
 Res u
l idation
 testif ie
 Hoc ke
 196 8
 stereotyp e
hag e
 194 0
ha iland
 vaca n
 asce n
 MM A
  ost
 testifie d
 reason ing
rita t
 p ractically
 bench ma
 A qu
 se izure
 Les s
 Leon a
 perse c
 W oods
 thorough ly
 crashe d
 pe rt
 insist s
 je rse
 jerse y
 S B
 Sa ve
 out w
 persec u
 distinguis h
 Surve y
h ija
 encrypt ion
 Pres e
 cla n
 Viking s
 T B
 loca lly
 infring e
 TH I
 s ounded
 ap ology
 persecu t
 dis he
 vec t
 C hip
 sphe re
 Simp s
Å ¡
 gang s
 cost ly
l ories
 analyse s
r opon
 H og
 killing s
 dictat e
 L iving
 Simps on
 demonstrat ions
 class ica
o vocat
rita ble
 Ke a
r ovocat
 chart s
 Bet w
 Monst e
 S ke
 edge s
 Palest ine
 Nat han
 Stat is
 gre y
 classica l
 loca ls
 vegetable s
 Spence r
 unacc e
 attacke r
 purchas ing
rca de
d inals
 Den ma
 matche d
 emp a
 Syste ms
r dinals
 Soft w
 institut e
 unle a
ieu t
 crysta l
 switche d
imu lu
 ac e
 Vet e
 obligat ion
 advis o
 Walte r
 cu rt
 unw a
 buse s
 inten d
 197 6
 Va t
irpla n
ickne s
 Est a
ã o
é e
ha a
 flowe rs
 art w
 portfoli o
 te rritories
 Betw e
irplan e
 Betwe e
 Betwee n
 p hilosophe
 B rooks
 Base d
 Statis t
 originat e
icknes s
 Miche lle
 preceden t
rizon t
 match u
o rizont
 nut s
 matchu p
 ent a
 TO D
 Lis a
 Gene rat
 unacce p
 unaccep t
v olumes
  haunt
 Bre it
 spot l
 spotl ig
 spotlig h
 Sun s
 spotligh t
 Mee t
 197 5
 Emp l
osc ien
 Empl o
 T ory
moc k
 private ly
m inanc
d rigue
 Emplo y
 siste rs
o drigue
 het e
minanc e
 bes ides
 deale rs
  ^
imulu s
 H omeland
 frustrat ing
ha rks
 jew e
 unde rp
  medication
 pa ve
o median
ä ¸
m idnight
 Denma r
 14 0
 cyc list
 Denmar k
 Fif t
 vect o
 Whe e
 cag e
 tatt o
 unaccept a
 ranking s
 a mmun
o lmes
  midst
 nonse n
  limiting
 sun s
 searche s
 Jua n
 strike r
 ammun it
 consc ien
 imagine d
 N y
 ps e
 effective n
 withdrawa l
 effectiven e
 effectivene s
 nonsen s
 effectivenes s
 St range
 D ot
 197 3
 date d
 exa g
 stay s
 disc harge
 Clea n
 vet o
 WAT C
ron z
 WATC H
ieut e
 Reac t
 Equ a
ieute n
 w hilst
 pub lishers
 measure ments
 Move ment
ieuten a
ieutena n
 n ominated
 16 0
 Great e
 Koc h
 GP S
 string s
ieutenan t
 Rele a
 Pan a
 Buz z
 D ouble
 c rap
 ( Â
 nas t
 qua lities
 locke r
 port s
 diagn osis
 short c
 respons ibilities
 dange rs
 exa mination
 inevita b
v ils
 Pot t
 Relea s
 refres h
 a rchae
 exag g
 exagg e
 AC L
 D if
 Softw a
 re lies
 revise d
ic ot
 Softwa re
 inevitab ly
 f ractu
 My s
 Tru t
rna lly
  volumes
 197 2
 int ru
 igno ring
 Ob vious
 pu c
 va riations
rag ment
 mainta ins
 ent ries
L ooking
 ammunit ion
 repres s
 alte re
 ves t
 Fis h
 A my
 altere d
 classroo m
â 
 occu rring
irt e
 t hroat
  rope
 Cz e
loc it
 Ree d
it rary
b itrary
 Me c
 a lgorithms
 care s
orizont a
 f ormerly
 reduce s
r bitrary
 pse u
 GM T
 host a
m odula
 Planne d
rwe ig
 Transport a
 fulfil l
 Tele g
 inte rva
 A dvis
 Trans f
 Wallac e
rweig h
 Rece n
 celebrat ing
 rape d
d iciary
 Ne s
 vesse l
raine r
 desperate ly
 maxi m
 galle ry
rweigh t
 197 8
 C hile
 metre s
 Smal l
 Transporta t
 Downloa d
 Transportat ion
 sac re
 Recen t
 Zer o
 ove rp
 bike s
 corresponden t
 RE A
 Hocke y
 fa rt
 delete d
 imp la
 Respon s
 tena n
d igest
 Hy p
 empa t
 bip a
 uncerta in
 newe s
 Sunn i
 leathe r
 newes t
 dec lining
 Reg iona
 belong s
 Ant a
 Ort h
 un limited
 Set t
 rele n
 exercise s
 express ing
 presc ription
 module s
 J P
 spectacula r
 accounta bility
 playb a
 Gua n
 sche mes
 W re
 breat he
 P ip
 T og
 playba c
 gove rnance
 bipa rt
 E dge
 relen t
rnan de
 P okémon
 president s
 I E
 Brown s
 queu e
 Jenn if
 se lls
 linebacke r
 shape s
 hosta g
 hostag e
iga de
 Mue lle
 rende r
 uncons c
 solve d
 Stu dy
 Sea hawks
  dude
 confus ing
 Muelle r
r igade
 recept ion
 playbac k
 Jennif e
 accidenta lly
v olcan
 C hapter
 ancest o
 pre j
v re
 Jennife r
 Sa ma
 lose s
 permanent ly
 S hake
 pre y
 Palac e
 prej u
 Green s
 HE R
 Malays ia
 glu t
 L ost
 last ing
 Ja ma
 battle f
 miscon duc
 misconduc t
 instruct ion
 bipart is
 bipartis a
 bipartisa n
rane a
 boat s
 w ounds
 p ornograph
 H of
 unan imous
 fresh ma
 freshma n
 cot t
rit icise
 demonstrate s
 occup y
 manage s
 shippe d
 strict ly
 Leona r
 Serve r
 che mistry
 f inals
 possess e
 NP R
ronz e
 foreign e
 Dif f
  hija
 spit e
 E lliot
 Nan c
 Bennet t
 W iza
 skept ica
 fanc y
 strea ms
 Trut h
 sta re
 skeptica l
ina lized
 D H
 Els a
 Bang la
 Ob j
F ix
 cance lle
 prec a
 Leonar d
 understan da
 Bis h
b orough
 reasona b
 Gu t
 reasonab ly
 Ta rge
 de lu
 snap p
 tackle s
 cancelle d
 deny ing
  midnight
í a
 cata log
ielde d
 acce n
 pitche r
 Targe t
 AL L
 ba y
 18 3
 processe d
llowe e
 Sp ot
 allocat e
 He y
t hirds
 accen t
 reass u
 Resource s
 brus h
 spen ds
 consisten c
 Operat ion
 Z ion
 consulta t
 restore d
 organize rs
 monu ment
ran iu
 McCart h
 unaccepta ble
 Yea rs
 man s
 McCarth y
 Se lf
 tune d
 genuine ly
 teenage rs
llowee n
 Ow e
 kingdo m
 Bon d
 Nu t
 sacre d
 e re
 Epis o
 e mu
 Sc out
 B illy
 creden t
 danc ing
k icking
 Representative s
 c riticise
 MV P
d inanc
 peppe r
dinanc e
 Ha lf
 outline d
 Me dit
r dinance
 S hip
 obligat ions
 sexua lity
 pleas a
 Conte n
 exten ds
  divisions
 survey s
 pleasa n
 pleasan t
 Ju lian
 Soc c
 T hailand
 successo r
 ND P
roc c
 che f
ou rge
 ML B
volt a
 M H
 Releas e
 Agen t
 Â 
r ranea
 reg e
r ims
 O C
 anony mity
 def ining
 ama t
e rranea
 A U
  inability
 Ma rcu
 t ricks
 Tre e
 pe c
 unde rneath
 rec ommendation
 Spu rs
d ieval
me own
 Ce le
o lony
m igrate
o meown
 Cze c
 incu m
ica c
 incum b
 Breit b
 Ven t
 rec t
 Rot h
 hearing s
ou rnaments
 blan ke
 Che e
 HB O
omeown e
 Episo de
 disappea r
 conce s
roa dly
 speec he
 Czec h
 disc ourse
 incumb e
 speeche s
 a qu
 Breitb a
 incumbe n
 consistenc y
erranea n
 G rap
 Obvious ly
 vict ories
 inc oming
 Spring s
roposit ion
 short s
raniu m
 Ta le
ieve ments
 rise n
 sovereign t
h ievements
 Gonz a
 back la
 Tu c
 Socc e
 Breitba rt
 Bangla de
 Banglade s
 clas h
 curt a
 sala ries
 conces s
 LL C
 trave lling
 backla s
 stepp ing
o minance
 Fit z
 squeez e
 na mely
 vacc inat
 import e
 punc he
 p ivot
 inspect o
 Acc ount
 protect ive
 confident ia
 confront e
 imp ly
 plate s
 unlea s
 preju d
 196 9
 Consu me
 Sen t
 acu t
 confronte d
 Bette r
 tact ica
 b inary
  ì
 analyze d
 amat e
 function ing
ã 
 tactica l
 Bryan t
 p rovocat
 Packe rs
  lips
 bureauc rat
 amate u
 ma rking
 Socce r
 motorcyc le
s icist
 vac u
 patc he
lit igat
 trouble s
 fitt ing
 Beyon d
 arrive s
 license s
 ring s
 quee n
 91 1
 c louds
 backlas h
 une a
 vendo rs
 stea ling
 signature s
 La rge
 refus a
 St rike
 fe lony
 N is
y sicist
 A x
 Su g
 unite d
 regre s
 Bag h
 groce ry
h ysicist
 coast a
 amu s
 linea r
 pub lications
 what s
ha ms
 casualt ies
m mitting
 ske le
 Owe n
 autis m
 clu t
o mmitting
 negot iating
 coasta l
 Lett e
 b rake
 hesita t
 acut e
 Esp e
 Samu e
dg u
 Run n
 Defen c
 oa t
 Defenc e
 g lory
rrele va
rreleva n
 R out
 elect ronics
 sovereignt y
 defendant s
 Ice la
 skele t
rg la
 C ot
 Ka re
 Regiona l
 Icela n
 inde f
 prese a
 Valu e
 sport ing
 I O
 presea s
 preseas on
 tenan t
roc u
 Loc k
odrigue z
 Gea r
 Cat he
 G y
iet s
 vesse ls
 Su t
 Te e
 disclose d
 lac ks
 regres s
 Marcu s
 nickna me
 rende re
 Brothe rs
 San dy
  volcan
 necessit y
 comple ment
 wrest le
 fortun a
 L P
 Naz is
 Ka p
 { \
 197 7
 use le
 usele s
 Ref o
 useles s
 Event u
 pla u
 cla rity
 glass e
 Eventu a
 legislato rs
 Qua rt
 twe lve
 catch ing
 P hillips
 H olde
inke r
 plun g
 st imulus
 b lown
 But le
 P B
 Gre y
 spe lls
inn ip
 Sw if
 We lls
rit ically
 Orth o
 La de
 fortuna t
 Feat u
 N obody
 punis he
 theoret ica
 blanke t
 supe rma
 theoretica l
 fortunat e
 element a
 Fishe r
 den ounce
 incumben t
 faith f
 unn a
 S imilarly
 faithf u
 ele g
 Obj e
 aust e
 un he
 Hu t
 sp ous
 Eventua lly
 Kat e
 V irtu
 Wa it
 preten d
 Swif t
 prevent ion
r iosity
 CO M
 switch ing
 e volutionary
 forest s
 ena b
 Aff o
 Cla y
 Banglades h
 Affo r
 MI T
 laug he
 t ile
inne a
 enab ling
 muscle s
 opt iona
d ivine
 glasse s
i ón
 197 4
 complet ing
Ä 
os he
 inf u
 contemp la
 ma lware
 censo rs
 Butle r
 quarte rs
 sensit ivity
Ã º
 Su rf
 Athe n
 cas in
minate s
Ä 
 constituen t
 Chas e
 ba rrels
 ac hieving
 mistake n
 a irplane
 E it
 tablet s
 contempla t
 murde rs
v n
 Refo r
  dit
 Lau n
 S le
 wit c
ina de
 ast ronaut
 Obje c
 equat ion
 listene d
 Objec t
 Neve rt
 Es c
 decis ive
i rrelevan
 costu me
 Newt on
 Nevert he
 Panthe rs
 jurisdict ion
 conf igure
 p ian
 uncons t
 Neverthe le
d rown
 Neverthele s
 Nevertheles s
 sweep ing
 Pete rs
 f rames
 Assistan t
 infla m
 Ow n
 b ols
 Imper ia
ovs k
 laughe d
 Bish op
 sponso r
 Jon g
 exten ding
 Monta n
 municipa l
 12 5
 inflam ma
 redis t
 197 1
 expen dit
 expendit u
 expenditu re
 Des c
  litigat
 operat ive
 predecesso r
 Rac he
 Twe e
o long
  rolls
 licen c
 refusa l
 ast e
 ups ide
 cous in
 ere c
 financ ially
 recreat iona
d ominance
 accumulat e
 art icula
 erec t
 Laure n
 pose s
 Affor da
 worry ing
 Sca n
ra vis
 Zon e
 Cau c
 business ma
i diot
 Ortho d
l iminating
 businessma n
 Orthod o
 surp a
 Orthodo x
 surpa s
 portray e
 surpas s
 sp la
 ast on
 a rbitrary
 purp ort
rolle rs
 attacke rs
 Cost a
 35 0
 Daw n
 harde s
 Inde x
 hardes t
 multip la
 susta in
 aston is
 st rap
 Tea c
 expectat ion
lipp ing
 assoc iations
 IB M
 neu rons
 Su dan
 re it
 TH A
 review ing
rota g
 ramp a
  modula
roc it
 V M
 a rse
 buc ke
 vita m
 She e
 newe r
 TOD A
 un happ
 US S
 nea re
 portraye d
 R F
 Pre ve
 late ly
 TODA Y
r viving
 charte r
 he dge
ropon e
 separate ly
 CS S
 reit e
 mon ke
 embarrass ing
lif ication
roa s
 endorse ment
 ling e
 vowe d
 monke y
 trouble d
 caf e
 una w
Ä ±
 revelat ion
 disa bility
 Lit e
 unaw a
 a ides
 convenien c
r oope
 Buc k
 artif a
 artifa c
 Ma de
 ing e
 Conten t
 man t
 Ne it
 nationa lly
 artifac t
 Va u
 b iology
 Ge e
 convenienc e
 c raw
 unawa re
 pocket s
 settle ments
ropone n
 Ð ²
 Ren a
 post u
 Rep la
 Attac k
 c ommitting
 disc ourage
roponen t
 batc h
 Bagh da
 M ix
 Da le
 st raw
 t ournaments
 p roving
 Mu t
 Ext e
 C hat
 elevate d
 Continue d
h orizonta
 decla ring
 identit ies
 transport e
 boost e
 Baghda d
 ga z
b ounds
 artw o
 Wa de
raj e
 What e
 artwo r
 Borde r
 bols t
 licenc e
 bolst e
 prescrib e
 Nex u
rnande z
 Lade n
 chat t
 neu ra
 Bay e
 Du s
 Comp e
 inflamma t
 galax y
 St y
 Ka z
 log is
 Texa n
 graduate d
 exclude d
 artwor k
 definit ive
oose ve
m oa
ooseve lt
  drown
 Nexu s
d inosau
 Kre m
  kicking
 Brea k
 Ma z
 Icelan d
 Nanc y
 quot a
 Hon e
 Preve n
locit y
 pronounce d
 accus ing
igu ring
 asse mbled
 blen d
 loa ding
 institutiona l
 logis t
 P is
 influence s
 runne r
 Lea ve
 Alte rnat
v iate
 Ca rdinals
 b racket
 unsu c
 preference s
 Dis a
lis ion
 vary ing
 revelat ions
rotag on
 Live s
 bullet s
 trans mitte
 unsuc c
 lay ing
 unsucc e
 unsucce s
 Lut he
 instrument a
 prejud ice
 cu e
 Ha it
ia met
rotagon is
 Preven t
 villa in
 break t
 Neit he
 Class ic
 Bann on
 unsucces s
 han dy
 f inale
 unsuccess f
 unsuccessf u
 imp lies
 eleg a
 Afforda ble
 gen oc
 scann e
 Re qu
 renta l
 Whate ve
 elega n
 Neithe r
  irrelevan
 comput a
 rely ing
 breakt hrough
 Off e
 De u
 Whateve r
rotagonis t
 base line
 neura l
 teas e
 credit e
 recipe s
 articula t
 Cy b
roas t
 banne r
 Rache l
 a iming
 patien c
 assess e
 She p
 credite d
 patienc e
du g
 heart b
 assassinat ion
 famous ly
 Vat ican
 unconsc ious
 backe rs
met own
 profita ble
rga re
 synthe s
 volunta ry
h omeowne
 fact ories
 measu ring
 >> >
 O U
 stun t
o metown
 Count e
 Krem l
 blog s
ra dis
 praye rs
 express ions
 recreationa l
 theat re
i mism
 } )
 CB C
 magazine s
 cycle s
 Ins u
 Yankee s
 MS N
 Out s
 twit t
 soc ially
 downloa de
 Eit he
 Dis e
 sta rring
 Hispan ic
rgare t
rita rian
  homeowne
 Kreml in
diu s
 W orking
lc he
 cu rse
  divine
 Eithe r
 Fourt h
 twitt e
 Socia list
 metaph o
 Mitc h
 crew s
 Be lt
l ords
 st icks
 receive rs
 ba dge
 Prince s
 province s
 b igot
 mane u
 endea v
 exceptiona l
  dinosau
 intentiona lly
 Ag ricultu
 G ing
 carp e
l lision
 Const a
 T ip
 dies e
 compensat e
 Ha lloween
 caut ious
 surp lu
 surplu s
 Don n
 P olitics
 vacu u
 Spec if
 b roadly
o llision
 evange l
 satisfact ion
 foste r
 multipla y
o rdinance
 dynam ics
 K ru
 fict iona
 puc k
 northe a
 northea s
 northeas t
 tutor ia
 multiplay e
 see ke
 buffe r
 maneu ve
 plau s
 pen c
 A lice
 NE W
 A long
 Meta l
 tutoria l
 Agree ment
 value d
 multiplaye r
 cart e
  digest
 initiate d
 c opp
 alu m
 notice a
 stag g
 strange r
 att raction
 U g
 S Q
 unconst it
 prove s
 unconstit u
 mart ia
 unconstitu t
 disappoint ment
 st icking
 stagg e
 unconstitut iona
 Ð ½
 F ost
  ordinance
 sea le
 Day s
l lison
с т
 B irming
 searche d
 Brew ing
 swe p
 Birming ha
 swep t
 Birmingha m
 inc omes
 G irls
 sketc h
 reta ine
 misu n
 misun de
mit ments
m mitments
o mmitments
 Nash ville
 C of
 epidem ic
 La ma
 R osa
 K I
 Ea t
 dimens ions
 disp roport
 emu la
 enterta ining
 Scre e
 FI F
 emula t
 P opula
 jihadis t
 Enginee ring
 misunde rst
 tru mp
 heate d
 unloc k
 cong e
 Ra w
 Trans it
oz y
 Fost e
 interprete d
o licing
 theate rs
 perpet rat
 tip p
 assault e
é t
 Cu rt
 martia l
 ac hievements
Ñ 
 c ope
 bann ing
 cat t
  dominance
 na va
 Base b
 entrepreneu r
 flaw s
 younge s
 younges t
 b olt
 X e
 inta c
 9 00
 Pott e
 Sa va
 Sing le
 profess ion
 blan k
 intac t
rga t
 Montan a
 reven g
 north w
 Baseb a
 Spec t
 N oa
 define s
 intens if
 Mc N
inf ormation
 reveng e
 c rate
 predict ion
ha bilitat
 compa c
v icious
 c omedian
 compac t
 dece p
 tact ic
 Ra g
 Gan d
 discon t
igu ing
 touch ing
 Dun c
 decep t
 A lmost
 cy n
 quest iona
 Cry s
 inf lict
 prison s
 Baseba l
 Jess e
 coope rate
 L D
 NH S
 whats o
 ge e
 computa t
 whatso e
 Basebal l
 whatsoe ve
 ER A
 disproport iona
 whatsoeve r
 Inte g
 n ost
 she lve
 Imperia l
 battlef ie
 nava l
dgu n
 battlefie l
 battlefiel d
 correlat ion
 IS P
 H U
 R oosevelt
 netw orking
m iracle
 igno rance
 sheet s
l ievable
 Ka y
 Portug a
 n oble
 neutra lity
 p rotagonist
 gap s
 save s
 Ange la
 organise d
 c liff
 magn if
 Hug he
 Portuga l
 consult ing
 regulate d
 En f
 concentrate d
 assaulte d
 oppress ion
 Occup y
 An drea
ig ions
l igions
 synt a
 bucke t
 annoy ing
 rise s
 D iamond
 invent ory
******** ********
 conce ive
oile r
  horizonta
 Picture s
 design ing
 confrontat ion
 H olmes
 turn ove
inis c
 nast y
 be he
 import s
 spous e
 Bla s
 s hat
  mock
 Comple t
 tu it
innea p
 Moto rs
 PD F
 ware house
inneap o
 quantit y
 Act u
 bless ing
 copp e
 detaine e
 administrato rs
 sc ripts
 was he
 esc ort
 P ix
ou lt
ha rming
 invitat ion
inneapo lis
  idiot
 Sit e
 fis t
r iguing
 offende rs
 hate d
 twitte r
 empat h
 196 5
 seale d
 Hughe s
 c ommitments
 L ore
oz on
 RP G
 Chance l
 GO O
 fixe s
 unde re
 196 4
 impu ls
me rma
 inca rce
 stif f
 c lone
r olong
 Ka b
 Scree n
 R odriguez
 pharmac e
 Ele ment
 navigat ion
 pharmace u
 Dunc a
 pharmaceu t
m mine
 P G
ris b
 mathemat ica
igg s
 Actu a
 comp romised
 Sca r
 pa rse
 Dunca n
 Ale p
 cens u
 starte rs
 refere e
ra ids
 I G
d iamet
 La g
 destruct ive
 precis ion
 testif y
icu lu
 fe ve
 reject ion
 chee r
b olla
 cu rrencies
 flaw e
 flawe d
________________ ________________
 since re
 relent le
 relentle s
 relentles s
 12 8
 Mont h
 mathematica l
 Kas h
 pre dominant
 ble a
 pitch ing
 Matte r
 Foste r
 holiday s
 Indiana p
 Indianap o
 Appa re
inade qu
 opt e
 questiona ble
inadequ a
 appe t
 attende e
 ble w
 F P
 make u
 Queens la
 Post e
 Queensla n
 present ing
 ap t
 Chancel l
 upgrade s
 Assa n
 Chancell o
 F on
 makeu p
 constraint s
oun dations
bolla h
 Indianapo lis
 infect ions
 rendere d
 Ja re
 stead ily
 re minds
 b og
 uncove re
 pharmaceut ica
 ban a
 Port e
 bat s
 base ment
 uncovere d
 Det a
 deport a
 cont ing
racke r
 Ref e
 Mart ine
 R odgers
 Dise a
 Town s
 Disea s
 Diseas e
 Fre s
 conting e
 continge n
 minds e
 mindse t
 van is
 Cultu re
 opte d
 Disc ove
da iry
 bu lls
 pac ks
 seg re
 Rac ing
 manufacture d
 shat t
 anx ious
 K ille
 shatt e
b ining
 Shan g
 purp le
 Scient is
 backwa rds
 correlat e
rna ls
 Mat c
 tuit ion
 auste rity
 nonsens e
 evangel ica
ha king
 safe g
 suite d
m bining
o mbining
 be ve
 safeg u
 Pan e
 safegu a
 san it
mmine n
  linking
 containe rs
 downloade d
 prisone r
 Esse n
 P ru
 inju s
 injus t
ract icing
 G ore
 sharp ly
 credent ials
 soft e
ila rious
 secret ly
 Assan g
 Scientis t
 Assang e
 t racked
 pressure s
 segre g
 satellite s
 au g
in dn
 lac ke
i mity
 budget s
 hacke d
 New c
 qualify ing
 segreg a
 Dan c
 optiona l
 rive rs
dif ication
 comp ounds
b lowe
 back p
 mona rc
ã 
 Wonde r
lon ies
 segrega t
 tele s
 emotiona lly
 punishe d
 strateg is
 Southe a
 Southea s
 s oup
 su rviving
 Southeas t
 cup s
 inject ion
d ough
 s olving
 injust ice
 D D
 Mon g
 catt le
 rec la
 Lu is
 e liminating
 puls e
 Art is
 aggressive ly
 Chancello r
 ove n
 lift ing
m inisc
 Alep p
 deporta t
 launche s
 manipulat ion
 B olt
 pub licit
 rapp e
 Ha z
 EV E
 Pete rson
 rese n
  vicious
roc a
 t rian
 miles t
 milest on
 Iss u
 mileston e
 F lu
.’ ”
 ave n
  ritual
 Ha u
indn e
 t oa
 Alepp o
 Student s
 disproportiona t
 trian g
 plant e
 Fa u
 Compute r
 nice ly
 C U
 disproportionat e
i ries
 extremist s
 Dre w
 conclude s
 brewe ry
o ritarian
 nut rient
 н Ð
 messag ing
 FIF A
 up he
 ex ile
 authent ic
 Citizen s
 Ta g
 publicit y
 President ia
 unw illing
 Neb ras
 Presidentia l
ozon e
 Stee l
 Ha le
 Nebras k
 compla ining
 ja w
 trade s
 Nebrask a
 prevent s
z bollah
opu list
 disma n
 disman t
 f ragment
 Men t
 boss e
 Jeff re
 un la
 haza r
 advise rs
dde s
 blun t
 va lle
men e
 story line
 justif ication
 strategis t
i ks
 St rong
 post p
 whis p
 Bee r
i mminen
 Imp a
 SH A
 Vince n
 He ritage
 J O
h illing
 jun g
 refu n
 teles c
 conscien c
 none t
 picture d
 transfe rs
 whisp e
op ian
 F oc
 S R
 cance l
 accident s
 Imag ine
 byp a
 conscienc e
 recording s
 valle y
  ounce
 Jess ica
haf t
 nonet he
 nonethe le
 nonethele s
 nonetheles s
 heads e
ripp le
 194 5
 unconstitutiona l
 Has s
 plug in
 bypa s
 bypas s
 evacuat e
 MSN B
h oritarian
 disast rous
 headse t
 Wea t
 resen t
 commissione d
 imp licit
 MSNB C
 T N
 committee s
 pre ma
 P rope
 teache s
 disc a
 Sta g
 populat e
 Rea lly
 den ies
 e B
 psyc he
 --- -
 arse n
 Weat he
v ory
 fla n
 showe r
 dis like
 aggregat e
 censors hip
 inacc u
 reca p
 n int
 Mys t
 demonstrat o
 L inds
 exa mining
 meditat ion
 Ang u
 Relat ions
 Plan t
 Rive rs
 eye b
 inexp e
 FO X
 Crys t
 legal ization
 re ope
  inadequa
 delive rs
 reope n
 tax a
 De lt
 ca rve
 unemploy e
 Ku s
 vacuu m
 compan ion
 ancho r
 bosse s
 Queenslan d
 internationa lly
 laz y
 Wat t
 foreigne rs
 turn out
 han dgun
 unemploye d
lishe s
 gau g
 graduate s
 Mat he
 na u
 mapp ing
inc idence
 18 1
 irrelevan t
 IN T
 south w
 Autho r
 catche s
 Â °
 clashe s
 notif ie
 ban s
 beg g
 Teleg rap
 dispute s
 Princes s
imminen t
 perpetrat o
 Proce s
 NY C
 eventua l
 MU S
 intersect ion
 repe t
 Telegrap h
 Zion is
 Cryst a
 defense s
 retaine d
 cigarette s
 An on
 reproduc e
rwe g
 re lian
igu ous
  miracle
 Ethe re
 nint h
 McK e
  ort
 encourage s
 La y
 insec u
 Potte r
 loa ds
 Issu e
 en ve
 hat c
 Current ly
 direct ive
  â
 access e
 st ripped
 discon n
 disconn e
 inten ds
 Tog e
 left is
 X a
 disconne c
 disconnec t
 logg e
 Ca va
 calculat ions
 campaign ing
 enact e
 enacte d
 shee p
ras it
 Ba p
 monarc h
 toughe r
 W olve
 ca lories
 int riguing
 Regula t
 fictiona l
 knee s
  diamet
 G N
 fractu re
 investigat ive
 recruite d
 T raining
 conference s
 Proces s
 WI T
 rege n
 smart e
 distinct ive
 p rolong
 Cast r
 Laun c
 econom ically
 reu s
 rug b
 centre s
 distinguis he
 sanct ion
 simulat e
h ometown
o incidence
 rugb y
 profile s
 Mus k
 Week ly
  ous
 Gand h
 na ming
 UC L
 Sta c
 N g
 C V
 crus he
 preserve d
 stone s
 live r
 Featu re
 southe a
 southea s
 southeas t
 Va s
 place ment
 Fix e
 he y
 assesse d
 n orms
 beve rage
 prospe rity
 procee ds
 couple d
 Beau t
 A V
 notifie d
rga s
 Kan e
 Senato rs
 posts e
 re ligions
 image ry
 landma r
 landmar k
 flags hip
 coppe r
 repet it
 Au b
 e lu
 feat he
 sequence s
 fift y
 simple r
 Toge t
 c ritically
orman t
 Key s
 fa vored
 reite rate
 dragg e
 P U
 Samue l
 Me y
 Use r
 c ollision
 pornograph y
m mort
 Toget he
 Alla h
 He le
 Medit erranean
 Any on
inke rs
 dragge d
 cryptocu rrency
 story t
 Stre a
 K O
indne s
indnes s
 offering s
 refuse s
 len ding
 encounte rs
  hometown
 packag ing
 fart he
 Anyon e
 E is
haw n
h ilarious
 ous t
 reverse d
r iculu
 past e
 Reve n
 emphasize d
 enve l
 Ru g
 Init iative
 z u
 jung le
 Togethe r
mmort a
 has t
 lun a
 sprea ds
 De re
l ooming
Ù 
 storyt e
r riculu
 Nu c
o rweg
 trave ls
 talent s
oun dary
 Devel ope
 w oods
d ining
 P rison
 Mac k
 Step han
 Fre de
 topp e
rip he
 Priva t
 Jeffre y
 indef init
 Ma le
 cance le
 a irst
 indefinit e
 Ide a
 continua lly
 Nap o
  dairy
 cock t
 M inneapolis
 Pe s
 Dama s
 anyt i
 cancele d
 Bu rge
 dress ing
 indict ment
 anyti me
 strength s
 cockt a
 mine rs
 Ku n
 orde ring
 G U
 manu s
 Ban ks
 select ive
 descen t
 Cert a
m menc
Ã ®
o minations
 Sac h
Ù 
 fathe rs
orweg ian
o mmenc
 dimens ion
 D U
d raise
 up rising
 Pre vious
 Sat a
 packe t
 ja ile
 z a
osu l
 Hay e
 deca y
 contemp t
 Castr o
 desire s
 resta rt
 Emp e
 plung e
rava t
 Free ma
 GOO D
 finge rp
 professo rs
 cooperat ive
 account e
 Pe e
 de riva
 Le B
 accounte d
 aste r
 Hu ds
 flee ing
 decent ra
 Priva c
 F U
 g le
 app licable
 European s
 Privac y
 towe rs
 Tele vis
 whe a
 Resu lt
 inc line
 manus c
 re bounds
 Hele n
 down w
 crue l
m mes
 Gonza le
 un dis
hapte rs
 lacke d
 p racticing
 whea t
 unsu p
 notif ication
 T ouch
 fact ions
 importe d
 elite s
 overwhelming ly
  à
 dictato rs
 L ooking
 X I
icke y
 heade r
 B rave
 Lang u
 bean s
 criticise d
 depict e
 thank f
raje c
 depicte d
 fift e
 fifte e
 wa rp
 Ma rgaret
 Pen g
 thankf u
 Ethere u
 fiftee n
 Ma king
rajec t
 inspect ion
 Lega l
 Martine z
 Ethereu m
 aster o
 fruit s
 uns p
 prec ip
 collabo rate
ra llies
 Raven s
 predicta ble
 concea le
 measure ment
 convict ions
 certa int
 transp la
 collect ions
M icrosoft
 nine t
 Swit c
 n iche
rac ies
 transpla n
  raids
 Delt a
 transplan t
 Regist e
 activate d
 jet s
lidate d
 insu f
 Cof f
 fingerp r
 superma rket
 fe minism
Ù 
 organ s
 Unit y
 waste d
  hilarious
 T M
 fingerpr int
i rony
 Incre a
 excee d
 Increa s
 Creat ive
 issu ing
 deposit s
 congre g
 deriva t
 forth c
men ds
ÃÂÃÂÃÂÃÂ ÃÂÃÂÃÂÃÂ
 Yout h
 congreg a
 insu la
 Merce de
 forthc oming
 ten n
 activat ion
 fix ing
 Lake rs
 Patt e
 unla w
lit u
 appreciate d
 unlaw f
 unlawf u
 immun it
 sta p
 pursue d
 Bes ides
 insuf f
 tradema r
 trademar k
  rallies
 z ip
 st ing
 Latin o
 progress ion
 Gu s
 weake r
 constituen c
 upst a
ilde rs
 Huss e
 litigat ion
 finance s
 Confede rate
 Lanc e
 De mocracy
 bla z
 compile r
 Texan s
 lap s
innip e
  imminent
 Mercede s
 g orge
 rema inde
 sna c
 Jare d
 poste rs
 Ren e
 efficient ly
in dy
 cong rat
 Certa in
 impla n
 implan t
 ca ring
d igging
rriculu m
 faithfu l
 cast le
r ills
 Refor m
 Joa n
 Empe r
 guarantee s
 T raff
 A dded
 Hu a
 postse a
 postsea s
 postseas on
 Ca f
 startup s
 Quart e
 act ivism
ã 
 St ru
 Huds on
 Wan g
 ( -
 leftis t
 nu a
 nee ding
 conf irms
iast ic
 Legislat u
 eg o
 g ly
 scatte re
 ja z
 Emper o
l iding
 Ide n
 concentrat ions
orwa rds
 electo rate
 Legislatu re
rvat ory
 N V
 according ly
 scattere d
 insta lling
 tru n
 rocket s
ris ma
 Twee t
 intens ive
 bore d
 Ke lle
.' "
 nua n
 p rone
 Cyb e
 secu ring
 Webs it
 Gandh i
 instruct e
 Websit e
 gott a
 instructe d
 dishe s
 nuan c
 telesc ope
  irony
 inf ilt
 S K
 G H
 Hon da
 assert ion
 transporte d
 unhapp y
 watche s
 Princ ip
 custo ms
 18 2
  dining
 fitt e
 Green w
 manua lly
 nuanc e
 cont race
 contrace p
. (
 contracep t
 Statist ics
 s iege
 DE A
 patent s
 Ta k
l imination
 196 6
 assign ment
rroga n
 jaz z
b ious
â 
roac t
innipe g
 Nat a
 Langu a
 mine s
 can va
 remainde r
 Bap t
 M osul
 He zbollah
 canva s
 heat ing
 Langua g
 p roponent
 Cance r
 Languag e
 acc la
 jun k
 Cen s
 Crysta l
 celeb rities
 survey e
 data s
 List e
 gaug e
 t raject
 escalat e
 surveye d
 Enf orce
 grass r
 grassr o
 grassro ot
 S harp
 induc t
 lu re
  minus
 envis ion
 amateu r
  dug
 be ds
 flat t
 reacto r
 Damas c
 mix ing
o iling
 Ya le
 disgu is
 Un le
 Report e
 We re
 bully ing
 slate d
 beat s
 Bot t
 tenn is
 eas ies
ra inf
 Alternat ive
 vaccine s
 backg rounds
 easies t
rag ile
 gas o
 conceale d
 Iden t
 academ ics
 apart ments
 E L
 Virtu a
 Hope f
s iastic
 p rophet
rot on
 batt ling
 tog g
 Hopef u
me dieval
 Ama n
 touche s
 Zu c
 Ben t
 inclus ive
 grassroot s
 mult it
 C ine
 Ga ming
 astonis h
 ton n
 clea ring
 instruct o
 dispute d
 promot iona
 E lle
ris a
 Bapt is
 E merge
 A K
 Ku rt
 hee ls
 mount ing
 systemat ic
 Complet e
 fun draise
 (Â £
 ant a
 promotiona l
 f lies
h ields
 L ice
rc la
 Independen c
 Sp ice
 Perf ormance
 blee ding
 cable s
 R ove
 redist r
 redistr i
 redistri b
 redistrib u
inishe s
 unpre dict
 Bret t
 Arms t
 Fa lls
 apprec iation
 fu rious
 prompt ing
 continuous ly
 gaso line
 handle s
 bla t
 WIT H
 northw e
 Appare n
 northwe s
 northwes t
 Mey e
 cit a
r haul
 Portug u
 Apparen t
 redistribu t
 Operat ions
 catast r
 nutrit ion
 Ke s
 displace d
du lla
 deput ies
 ost e
 surge on
 remote ly
 Televis ion
 mathemat ics
 Â »
 spla s
 genoc ide
 scale s
 Rey n
 mang a
 hip p
 c olony
u siastic
 t ilt
h usiastic
 dispatc he
i dating
 Fla g
 text b
 Independenc e
  digging
 F ine
ran ding
 Foc u
 Focu s
 Law s
 What s
 reproduct ive
 strange rs
 swa t
 Web b
 G L
 Vincen t
 seg ments
 Beng haz
 Collect ion
 Dan is
 pun t
 staffe rs
inn y
 Damasc u
 Damascu s
 fla mes
 outrage ous
 buc k
 p olicing
  dough
 Sata n
 icon s
 up t
 Privat e
 immunit y
 F inals
oscien c
 Benghaz i
oscienc e
 17 0
 en list
 c oincidence
mit ive
ract it
 disre g
 D j
 pu lls
 thought f
 B ody
 S omeone
merma n
rava g
roact ive
ractit ion
ractition e
 196 3
 competito r
 disreg a
 unpredict a
 W S
i mitive
r imitive
 inherent ly
 port ions
 accla i
 bridge s
 H orse
 comparison s
 connect ivity
 Portugu e
 Wea p
 re volve
mis de
 Pip e
 characterist ic
 Portugue s
 Of t
 affiliate d
 flatt e
 Dep re
 Weap on
 Ac e
 thoughtf u
 Grap h
ra iling
 s haking
mis a
 Don e
 toppe d
 ove rhaul
,' '
 Newc a
 Cas h
 g it
 cente re
 smalle s
 certaint y
 gla c
 smalles t
b idden
 gaz e
 Newca s
 Newcas t
 T ommy
 Newcast le
 snea k
 catastr op
 centere d
 Vent u
 aut horitarian
 Majo rity
 catastrop h
 Monste r
 diamet e
 pen is
 synta x
 Hopefu lly
 disposa l
 applicant s
ou x
 P rophet
 pitche d
 wishe d
 HER E
 Kare n
 Up on
 Protest a
 Cy p
 impact e
 Reds k
 w ildly
 key w
 sync h
 st igma
 impacte d
 market e
 st orms
 THI S
 Lice n
 Wing s
 Aven g
 uninte n
 we ighe
 disrupt ion
 Protesta n
 pitche s
 re habilitat
 Protestan t
 fix t
 smas h
 T L
  misde
 C ope
 bee s
 certif ie
 weighe d
 viewe r
 Dete c
 caus a
 Portugues e
 ant he
oule va
 Detec t
 Copy r
in ics
 Copyr ig
 Copyrig h
 Copyrigh t
 u ranium
 fixt u
 free la
 freela n
ormat s
 Oft e
 downw a
 | |
 Apparent ly
 freelan c
 Tas k
 tens e
 B ills
 Gan g
 synthe t
 illus ion
l inics
 AC C
 fixtu re
 lot t
 syn a
 ave raging
 Artis t
 eate n
 st int
 Qua n
 Ofte n
 as le
 R ip
 Sanc he
 y u
 asle e
 stake s
 aslee p
 emp i
 Empero r
 Stat u
 individua lly
 spon t
 p opulist
 pea s
 surrende r
 Diff e
 patche s
 compass ion
 Cru s
 conju n
  ripped
 Oc u
 advis ory
 attendee s
 B og
 relax e
 M oss
 ju ve
v g
 Indust ry
 sta ring
 len de
 Othe rwise
 alt it
 maxim ize
 can dy
 f oundations
 impe a
 rena me
 Danis h
 range s
 SQ L
 demonstrato rs
 aesthet ic
 altit u
r igorous
 Aveng e
 congrat u
 impea c
 juve n
 unhe a
 N orwegian
 insp iring
ila rities
 Valen t
 spont a
 Is t
 sponta n
 slee ve
m ilarities
i milarities
 recove ring
 Cre w
 congratu la
 wing e
 congratula t
 southw e
 pun dit
 southwe s
 southwes t
 G race
 season a
 Shang ha
 bonus e
 masc u
 sufficient ly
men ian
Å 
  medieval
 w iden
rag ma
 legit imacy
 South w
 Espe c
 ---- -
%) ,
 vecto r
 ju g
 bonuse s
 jaile d
 T icket
r bidden
o rbidden
 Pe ru
 altitu de
 byte s
 certifie d
 Redsk ins
 spontan e
 e j
 undere s
 underes t
 historian s
 Os a
 gravit a
 alert s
 inconsisten t
 ( +
 stap le
 plaus ible
r menian
  roast
mit is
 p illa
 Ra z
 cu lp
rca n
 fe u
 Tot t
 crashe s
 Emerge n
 half w
 Hen c
 supremac is
 Be rt
 hija c
 Generat ion
 A j
igg le
life rat
o liferat
r oliferat
 togg le
 unp opula
rg ies
 Hollan d
 Vis u
 transc e
 Swan s
 explanat ions
 porta ble
 af ore
 position e
 E la
 breac he
 contende r
 she lf
 X L
 ut ilities
 Hyp e
 conjun c
 imprison ment
rc ove
 conjunc t
 Le x
 rent e
 Nuc le
 wrec k
iet h
 C raw
 offense s
 rescue d
 positione d
 align e
 mess e
hap ing
 consultat ion
 juven ile
 ve locity
 airst rike
 direct ing
r mediate
 Shangha i
 Sta y
 delegat ion
 anta g
 giant s
 progress e
 answe ring
 UCL A
 p hysicist
 skelet on
 antag on
 Champ ion
 Sa mp
 Wa ve
 M ills
 luc rat
rga ining
 e rase
 halfw a
 Ocu lu
 The ory
 c ommenc
 promot ions
 Sanche z
 Anon y
 Colt s
 S ile
 aligne d
 lu s
 halfwa y
 L imited
 M inu
 runne rs
 V E
 rus t
rca t
 can a
 off line
 Armst rong
 rela y
 rotat e
 re minisc
 stimulat e
 collective ly
 ret e
 E de
 simulat ion
 chas ing
 lucrat ive
 gas e
 respons ive
 Switc h
 Pu s
 fre n
 log s
 worse n
 Rout e
 I Q
 generate s
 recognise d
 We ls
 prema t
 consist ing
 W C
 pist o
Ã ¸
 la mp
 M ous
 accesse d
 autono my
 elementa ry
 plante d
 Visu a
 US C
 repla y
 FR E
 Espec ially
 Sn y
 Baptis t
 out g
 s lipped
 tonn e
 associate s
rcove r
ÑÐ °
 pian o
 Oculu s
radis e
 congrega t
 depress e
 cu rriculum
 enc a
 Analys is
 Steele rs
 the rma
ñ a
 lowe re
 X P
 elegan t
 st rive
 lowere d
 Mont g
 CH A
 diese l
 marriage s
 premat u
 occu rrence
 Ku b
rna c
 11 5
 mete r
 Pre t
 ancesto rs
 re direct
 negotiate d
 sing u
 opene r
 sp ice
 sanct u
 clea rance
 ec lips
� �
 T ravis
 pis s
 repub l
 witc h
 appea le
 appeale d
 Surf a
 exe rt
 metapho r
 disguis e
 incomp le
 incomple t
 uploa de
 recruit ment
 As k
 Husse in
 Montg o
 trauma t
  rigorous
 Wa ls
 quantit ies
misp he
Ù 
 slowe d
 ling u
 satisfy ing
 Surfa c
 pisto l
 imp osing
 quarterbac ks
 Â ­
 Hous ing
 VI I
 Shake s
 “ [
 Ref u
 protect s
 AI D
 Emergen c
 Bet a
 pe riphe
 Depre s
 alu minu
 tale s
 fat igue
 aluminu m
 MA R
 prospect ive
 classif ication
 consiste d
  vine
 17 8
 ches s
 fact ion
 c risp
 Depres s
 treat s
rant ing
 Sny de
lc oming
 Jun g
 blat a
 blata n
 f ring
 yog a
r ilog
 superst a
 art ille
i bble
 inadequa t
 inadequat e
 prematu re
 Ste f
 envel ope
 fert i
 uploa d
  rainf
 Enforce ment
ourge o
 Greate r
 travelle d
 crushe d
 goa t
m merman
  ms
 17 9
 Diffe re
 consu ming
 pest ic
 gate s
 Surfac e
 Differe n
 protest ing
mitis m
у Ð
 Wit c
 blogge r
 diamete r
 slas h
 blatan t
x imity
 Porte r
o ximity
 happ ily
 sentenc ing
 NG O
 Weathe r
 plot t
ourgeo is
 administrato r
 Montgo me
ris c
 cann on
 fascis t
 invent ion
 sca rce
 cast e
 acade my
 ele ve
 inca p
r oximity
 Dela w
 tende d
 N T
 artille ry
 V O
 Delaw a
 O E
 supremacis t
 p rocu
 PR E
ranke n
 cott on
 unsup p
 eleve n
 CD C
rot s
 Case y
l orious
 incap a
 Ris e
 ort h
 Set h
 s imilarities
 Ba la
 Sc ore
 C orrect
 Delawa re
 resona t
v oking
 c linics
 hea p
 Cathol ics
 Dere k
 Matc h
 Nu n
 procla i
 Compe t
h ille
 Richards on
o rona
e rvatory
 Des e
 jump s
 Sa k
 O g
 censu s
 Ba ile
e mitism
 ke t
 Dy la
 lives t
 dys f
 insurgen t
 Henc e
 appet it
 constituent s
 unsupp ort
 Ku ma
 Dyla n
 ala rming
 O ls
 dysf u
moc ke
 dysfu n
 y ields
 dysfun c
 dysfunc t
 upgrade d
  ray
 CA N
 IS B
 circulat e
 singu la
 jac k
 Hen de
 S g
 incline d
 Î ¼
 Snyde r
 la dies
 venue s
 Louis ville
 Up p
 Gene va
 Exce p
 spy ing
 seeke rs
 Swee t
rgat e
ha ritable
 unre la
 196 2
 Excep t
 ent husiastic
 b race
 de vis
o dification
 unrela t
 farthe r
 f ragile
 Matthew s
 Wels h
ormat ions
 craft e
in ine
 Ca lle
 Montgome ry
 e e
 ineff e
 biase d
 Noa h
 ineffe c
 Pa rks
 ineffec t
 ign it
 dit c
 va u
 W ort
 W innipeg
 backp a
 McL a
 Consume r
 Loa ding
 a rrogan
â 
 nost a
 Wre s
 ben t
 adviso r
 exce rp
 excerp t
 Huff ing
 Ju p
 variant s
 Luthe r
 gre n
 Dus t
 K ids
 fore n
 recipient s
 synthet ic
 L ope
 shelve s
 depresse d
 unrelat e
 WA R
 c lips
 P ine
 endange re
ouleva r
 weakness e
 weaknesse s
 Wres t
 Py on
 confidentia l
oulevar d
 nosta l
 Element a
 endangere d
 sp ine
 Thanks g
Ã ª
 PL A
 catastroph ic
 nostal g
 Huffing t
 Huffingt on
 unrelate d
 judge d
 Anony mous
v int
 Mis t
ou rnals
 precip it
miu ms
 met han
 goal ke
 discre dit
 goalke e
o dded
 Leaf s
 Pyon g
 goalkee p
 oat h
 Ca le
 T riple
 e volving
 Isa a
 allege s
 stagge ring
 Happ y
 Thanksg iving
 airport s
h illy
llu p
 A E
 N U
 upwa r
 nurse s
 p oured
 brew ing
 practice d
 fort y
 Stag e
 secu rities
 P oc
 postp on
 C roat
 monito rs
.' '
 Vete rans
  riots
i mmerman
 Pe w
 Tott e
 encrypt e
 exp on
 monit ore
 spea r
 Consta n
 campus e
 inac t
 campuse s
 encrypte d
 expon e
 tas ke
 extensive ly
 Mun ic
 dun g
 carpe t
ou e
 c hapters
 St ories
 lott e
 C ircle
 relocat e
 deta c
 Me mp
 Tun is
 transce n
 gren a
 monitore d
 art e
 elevat o
 opt imism
 Ga g
 ma rat
 assist e
 predominant ly
 pseu d
 swa y
 Inf init
 p roposition
 Munic h
 smugg le
 angle s
 dispens a
 Jay s
 Shakes p
 appetit e
 w ive
 expone n
 sympath y
 Conta c
 articulat e
 bree d
 we lls
oun dly
 ISB N
 taske d
 Shakesp e
 assu rance
 17 5
 ru t
 Contac t
 inaugu rat
 Rat ing
 soa p
 deficit s
 insect s
 genet ically
ig ilant
 desp a
 marat h
 exponen t
 rele g
 wea rs
rocc o
 There s
 marath on
 ren own
o lonies
 b oundary
 Att e
 enforce d
 A rma
 ACL U
 fore most
 Shakespe a
 wive s
 stee ring
 Twe n
 neare s
 neares t
Ø ±
 inhe rite
 p ractitione
 bana n
 PH P
 pa rasit
 backpa c
 filte rs
 check p
 Lan k
 Totte n
 pharmaceutica l
ä n
 Hann a
r ieties
 fring e
 coordinat ion
iet e
 Hende rson
 releg a
 bree ding
 extinct ion
 Exa mp
 inherite d
 Sle e
e illy
 freelanc e
W rite
 Licen s
o hort
 positive ly
 emergenc e
 Ku rds
 c ombining
 dish on
 ma la
 relega t
volta g
voltag e
 Examp le
 f orwards
 Sa a
 rewa rde
  rans
 Actua lly
 fee ds
 Peng u
 intuit ive
 sn u
 sac ks
 can on
 Const ru
 deserve d
 Inn o
 banan a
 Gett ing
 n g
 sens ible
d mitting
 view p
 L inked
 priest s
 rewarde d
 assiste d
 dose s
 Expe rience
 desc riptions
 han ding
 input s
 Kenn y
 disre s
r ietary
op rietary
r oprietary
 Sc hools
 disres p
 afore ment
 disresp e
 disrespe c
Fix e
 disrespec t
 aforement ion
 Ra lp
 Cot t
 aforemention e
 Insp e
 Mate r
 Memp his
 aforementione d
 checkp o
 checkpo int
 T X
 belong e
 relaxe d
 fun g
 Nucle a
 foren s
â 
 s ore
 g rief
 Constru c
 inc it
 Hof f
 Baile y
 Ralp h
  mocke
 boast s
 insuff icient
 derivat ive
 Deu t
 imp rope
 Cu rry
 rede s
 respect s
 convent ions
 kidnapp e
 Prese n
 illustrate d
 Mille n
ilde rness
 Bre e
b iquit
 SN P
 persona lities
ima ries
ins c
r imaries
 fa int
 incomplet e
 Inspe c
 rea lities
 Ka u
 Progress ive
ã ¼
 Construc t
 belonge d
 supe rf
 Rus t
 therma l
 Su z
 uploade d
 sla n
 Inspec t
 Sla t
 dise n
 T ille
 exp osing
 cyclist s
lize r
 Fixe d
 Pyong y
 Inc lu
 17 7
 perf orms
 Pyongy a
 Pyongya n
 unc han
 Pyongyan g
 addit ions
 slu g
 unsupport e
 unsupporte d
 enjoy s
 reminisc e
 circulat ion
 Sach s
 Roc he
 unchan g
 Fortun a
 A rmenian
 assert e
 tag s
 Indust r
 bas ics
 196 1
 Fa it
 Nuclea r
 gorge ous
 forgive n
 Shakespea re
R eilly
 Frede r
 originate d
 P han
icac y
 agg ravat
 painting s
 tende r
 samp ling
 Bren n
 asserte d
 Prevent ion
 Stu a
 mitigat e
 It e
 s ouls
l oude
 je opar
 gu ides
 D rake
 casin o
 flu c
 wonde rs
 D B
 coordinate d
 FR O
 fet c
 Unle s
 C ort
 grade s
 repeat ing
 Bla de
 Unles s
 H ost
 Custo me
 Mult ip
 grena de
 reduct ions
 await ing
 Kas ic
 sympat he
 Kasic h
 whale s
 evaluate d
 f lown
 Titan s
b iguous
dulla h
 Must a
 sanctu a
m biguous
 imag ing
m orous
 La z
 Falcon s
 Na u
 clue s
 deale r
 Holde r
 set b
 cru n
 neve rt
 K ot
 backs t
 ove rst
 st ripe
 c ouch
 kidn e
 reflect ing
rilog y
 Isaa c
 sympathe t
 trade rs
 kidne y
m idate
 Ran dy
 taste s
 F M
 Emergenc y
 Pre p
 gravita t
 nevert he
 detainee s
 D odgers
 Stua rt
 neverthe le
 neverthele s
 nevertheles s
 science s
 ante n
 buye r
 separat is
 cata ly
h irte
 sculpt u
 bothe re
 T ories
 Os b
 E mily
 Fait h
 Twen t
 care d
 Rule s
 feve r
 bothere d
 opt ica
 f ormats
 Athen s
 instrumenta l
 fluc t
 watch dog
 Agricultu re
 Lowe r
r dose
 rece ip
lit s
 C G
 ann e
 setb a
 setba c
i midate
 ove rf
 f loc
 Sett ing
 fore f
 J U
 Sty le
 distance s
 fluct u
 sun l
 R idge
 fluctu a
o minating
 MUS T
 eclips e
 tent a
 astonish ing
 receip t
 Totten ha
 fluctua t
 Fu s
 sus c
 gen it
 demonstrat ing
 g rams
 optica l
rg radua
 underwa t
rgradua t
rgraduat e
 An k
 sunl ig
 sunlig h
 sunligh t
 Dan a
 redes ign
 Pere z
 insist ing
 underwat e
 crun c
 exhaust e
 Tottenha m
 writing s
 TI M
 Hea ve
 empath y
 aug ment
 sa va
 Impa c
 Kus h
 underwate r
 fines t
 Registe r
 W inst
 upwar d
 Bu rt
 incre ment
mis re
 sat u
 stag n
 spontane ous
 organis ms
 Ca ve
 exhauste d
 Eu g
Ù 
 Impac t
 vast ly
 servant s
 lens e
 Australian s
 Re x
 conge s
 anthe m
 conges t
 S V
 amaz e
 protoc ols
 stagn a
 Depress ion
 enc omp
 encomp a
 encompa s
 smile d
 I llus
 TP P
 exac e
 exace r
 exacer b
 proport iona
 Northe a
 assault s
 pre miums
 Northea s
 exacerb a
 Northeas t
 Sg t
 Res ident
 Wa ke
 deportat ion
H ope
 new c
 pushe s
 flu s
 exacerba t
 encompas s
 supre me
 p roximity
 procee de
me dications
 understanda ble
 Fu k
 conjunct ion
 AID S
 Leade rs
 respect f
 respectf u
 sp inning
 crafte d
 lean ing
 pay loa
 Hea vy
 penet rat
 can dle
 repa y
 unst a
 Maste rs
 banke rs
r ritat
 ba rgaining
 proceede d
 greet e
 captu ring
 pun k
r opy
os met
 stunn e
 young s
 gase s
 p rimaries
 194 8
r igat
 inaugurat ion
 horizonta l
 Rea s
 loc ks
mis og
 Kash m
  medications
 P roble
 ax is
 apologize d
v c
 stage d
rrest r
 secre c
 Kle in
 youngs t
 surface s
 C haracte
 Kashm i
 G rove
 accompany ing
 inaccu rate
 youngst e
 M t
v vy
 secrec y
 Y E
 imprison e
 Elliot t
 He c
 Note s
 re inst
 susc e
 Easte r
 unif ie
 imprisone d
 M ose
 susce p
 datas e
 Vietna mes
 clut c
 promote s
 ) )
 slaughte r
 suscep t
 Vietnames e
misphe re
 snapp e
 new b
ragma t
 anten n
 CA R
 concu s
 p ools
 Ging r
 blast e
 concus s
 unna me
 Raf a
ig re
 datase t
 Exte n
 unname d
e lievable
 toa s
icu s
 empowe r
 Su f
imat ions
 Sile n
 As p
 part it
 Industr ia
 antenn a
b elievable
 Gingr ic
 state w
 Gingric h
 Heave n
 Refe re
misog y
 benchma r
 benchmar k
 Loca t
 statew ide
misogy n
 O L
 toas t
 RE S
rann y
 Be ve
 administe re
 endeav o
 le mon
 administere d
ha ot
 wan n
 generato r
  rog
 Suc c
ra dius
 In dy
 THA T
 drast ically
 newc o
 retaile r
 Econom ics
 SC P
 commenc e
 Fe w
 assu mes
 devastat e
 ba king
 pa ire
 Prope rt
 en rolled
ina list
 contest e
 impe rat
 slot s
 N L
 bea m
ha rities
 Na k
 content ion
 p ru
 populate d
 W ine
 pet s
 Sis t
 Me la
 Minu t
 fitte d
 paire d
 litt e
 goalkeep e
 batt ing
 glu e
 11 1
 cultivat e
 Au c
m rade
 Du f
 non c
 pala c
 vitam in
 P rospe
 newco me
 AC T
o dation
 Su e
m odation
 grap p
 lotte ry
 cinema t
 a mended
 lense s
osc ope
 Oma r
 B D
v igorous
 UN I
 plaintiff s
 Aust rian
 Gue s
 block a
 conteste d
 presu me
 rest ru
 De mon
 Sc e
 suc k
 backwa r
 ane c
o mrade
 wann a
 extens ions
 s ip
 Ca rp
 ske w
 compu ls
 Log a
 maste rs
 cite s
 We inst
 palac e
 restru c
in iatu
! '
 ax e
h omeland
m mends
 p ine
 restruc t
ra mount
 G if
o mmends
 une qu
 Minut e
 ste w
v ids
 dictato r
 st it
ü r
 Theat e
 consequen t
 ex ot
 respon ds
 compa rat
 late n
 restruct u
 Inst ru
 qua s
 torture d
 passw ords
 In qu
 lingu is
 self is
  lining
 intervent ions
ã 
 helicopte rs
 imperat ive
  misre
 ----- -
 gent ly
 analyt ics
 su ms
 a dmitting
 linguis t
voca ls
 selfis h
 Sas k
 na p
 p ills
 cont rollers
 Appea ls
 sp raw
 Mile s
ieta l
 conf is
 stit c
me day
 def u
 Profess iona
v t
 Ca ble
 out re
 ove rdose
 Not ice
 like n
 twist e
ha rness
 explosive s
 confis c
 export e
 p rimitive
ha risma
 confisc a
op osing
 synch ron
r oposing
 unifie d
 UF O
 confisca t
 GT X
Y oung
os la
 f iguring
 Fortuna t
 Ca e
 Van de
 cita t
i rritat
 Ann u
 NR A
o ddes
 tu rt
 In digenous
 Gene s
roliferat ion
 logge d
 Doc u
 ensure s
! ’
d iamond
Ð¾Ð ²
 thoughtfu l
Fixe d
 logg ing
 coc on
 sympathet ic
rne re
 Coff e
 Nava l
 Pana ma
 back y
 tatto o
 squa t
 privilege d
 erupt e
lon de
 owe d
ra ving
olog u
 backy a
 erupte d
 Ma e
 G oing
 jewe l
 wrong doing
 P rosecut
 Southw e
 psychiat r
 Ka la
 Rea de
 WH O
â ²
 Treat y
 genit a
 idea ls
 unpopula r
 we lcoming
 anec d
i ligen
 prosecute d
 Nep a
 plot s
 sa dly
 anecd ot
 revis it
 Eug e
 impuls e
 psychiatr ic
 surface d
 reinst a
osp a
r rants
rnere d
  ​
 Visua l
 Reg ion
 appa rat
m modation
o mmodation
 Produc e
 weeken ds
 Jag u
 Wals h
 E lde
 Ave rage
 stretche d
 bru is
 correct e
  ×
 Alf re
 calculat ion
ra mmes
ã «
 distinguishe d
 cocon u
 coconu t
 Industria l
 incomp e
 revis ion
 Bu g
o ddle
 Weinst e
 che w
rg oing
 mosqu it
 constitute s
 incompe t
 resu rrect
 confine d
 toss e
 select ing
me ma
 inte rnally
d dly
 van da
 Jagu a
 Simp ly
 O racle
 incompet e
 Cens u
 correcte d
 Lope z
 sensat ion
 greete d
 suc ke
 una u
vint a
 Vict orian
 exagge rate
 incompete n
 Employ e
 partnership s
 Wort h
 hacke r
 definit ions
 react e
 triang le
 Mon it
 unde rcover
 processo rs
 reacte d
i rrespon
in dly
 ag it
 traject ory
 W his
irrespon s
 fores e
 homeowne rs
 excee ding
 G w
 int imidate
 At a
 forese e
rit ize
 Bon n
 ta lle
 He s
 ru p
 igno rant
 rog u
 comp lications
 Partners hip
 vendo r
 L ip
 contest s
 preac he
 cu riosity
 compe lle
 disappea rance
 Res is
icis ms
b dullah
 turt le
 cap p
 law n
 sculptu re
 fine d
vinta g
 arsen a
vintag e
  homeland
 ocean s
 unlawfu l
 Inno va
 NS W
 compelle d
 Dama g
 Rif t
 Be lla
 e vict
 Resis t
 concede d
 oc t
 Lank a
 p roposing
 whistle blowe
 Southwe s
 Southwes t
 machine ry
 concept u
 p roprietary
 close t
 pe rve
 Dep e
 Lun a
 Censu s
 allocate d
 s hirts
 Guan t
haot ic
 Miche l
 Aqu a
 Turn b
 back f
  harness
 19 00
 antagon is
 sharp e
 success e
 underest imate
 plas ma
 Jup it
 embarrass e
 comprise d
l lons
 prescribe d
 quant if
 sex y
 Dut e
 successe s
 conceptu a
 dep rive
A dded
 P rade
 G ross
 P K
 outre a
 outrea c
 purport e
 Da rt
 Nea rly
ologu e
 aven u
 Court e
 Jupit e
 Kashmi r
 va ries
 stereotype s
 washe d
 fla re
 se ma
ã §
 at rocit
 avenu e
 Theres a
ç a
 Weinste in
 Loga n
 ce llular
 cove rt
 intru s
 Danc e
 Virtua l
 notif ications
 suffe rs
igit s
 Fortunat e
 c ohort
 storyte lling
 Six t
 prompt ly
! =
 que ries
  irritat
 feminist s
 Greg ory
 V ien
 de re
 regen e
 int rigue
  imitat
 Upp e
 SE A
 tape s
 en la
 Cine ma
 connect s
 c rise
 potato e
 postpon e
op hile
 afterwa r
 recruit s
ч Ð
 afterwar d
 deepe n
 Nes t
 tenant s
 Dute rt
 take ove
 Me rcu
 litera l
 enjoy a
 competit ions
iast s
 disc e
 va rieties
 bis e
 t ops
 Imp rove
 unau t
 vis ibility
 Winst on
 potatoe s
 prest igious
 Dutert e
 outreac h
 transmitte d
 eB a
 law f
 bac on
 stunne d
 aqu a
 Monit o
 NF C
 method ology
 N W
 Cry p
  vocals
 empi r
 ne p
 Euge n
 Fis c
 clean s
 N J
 there a
â 
ij e
s iasts
 P V
 Pape r
me rits
rang le
u siasts
h usiasts
 prevalen c
 bu rgla
 misde mea
 misdemea n
 prevalenc e
 structure d
 La p
 rogu e
  vigorous
 Ig n
 pitche rs
 c olonies
 unpredicta ble
 Championship s
rc ot
 [ ]
 system ic
 gun ma
 CON T
 Reas on
v igilant
A long
 Eis e
 exc a
 Legen d
 RB I
 laun de
 Ya ma
 Outs ide
 Dec la
 Mong o
 Blue t
 ye lling
 u biquit
 hec k
 renown e
rit icisms
 Sug a
 insure rs
 tan t
 Poste d
 renowne d
 Chart e
 awake n
hirte e
hirtee n
 Bas s
 flas he
 stake h
 stakeh olde
 Lyn n
 Damag e
 Fortunate ly
 eBa y
 Map le
 incon ve
é n
 Learn ing
 improve s
 outs p
 teaching s
os ions
 B oulevard
 E E
 relate s
 Be lf
 unsuccessfu l
 bruta lity
 cort e
 en z
 destinat ions
 Va lve
 pre mises
 Bren t
 Fuk u
 f inishes
 bless e
 Charge rs
 Cryp t
 Re ma
 anne x
 typ ing
 inconve n
 Nee d
 vacan t
 vulnera bilities
 D ix
 crise s
 note b
 inconven ien
 kidnapp ing
 Len n
 dep le
ounc ils
 can t
 frau dule
 Ec h
 discove ring
 Blac ks
 11 2
 deple t
 fraudule n
 cub e
 def ian
 san g
 Glas g
 comparat ive
 outla w
 Lu x
 stea lt
 unif orms
 Ec u
 B rist
 De le
 Ve s
 excee de
 pe rva
 backwar d
 flowe r
 LGBT Q
 IC E
 exceede d
 PA R
 merge r
 frea k
 vegeta rian
 downwa r
 Fun c
 Innova t
 Gonzale z
 Gen t
 discusse s
 privilege s
 exca va
 excava t
 Glasg ow
 scrap p
 Slee p
 phrase s
 hesitat e
 Bluet o
 e limination
 lawf u
 " [
 Ts a
 unwa n
da vit
 Blueto ot
 unwan t
 G rass
icat ive
 Butt e
 Bluetoot h
 unwant e
d iligen
 Jupite r
 Reyn olds
 a viation
 embarrasse d
 b ronze
 court r
 graduat ion
 courtr o
 courtro o
du bious
 impe n
l osions
 unwante d
 agit a
 ana t
 hip s
 separatis t
 enjoya ble
 cleare r
 Avenge rs
 championship s
 enz y
 decre e
 accept s
 pre e
 unchang e
  misogyn
 resistan t
 bulls h
 Rat e
 recogn izing
 gunma n
 persecut ion
 f oa
 bla ming
 E lite
 specif ics
 twiste d
minat o
mis ma
 appropriate ly
 yea s
ñ o
 AR E
 un j
 conceive d
 GOOD M
 GOODM A
 GOODMA N
 N ice
 unde rgraduate
 Liste n
 Freema n
 resonat e
 Theate r
b racing
 Imp ort
 collaborat ive
 Eve rt
 presu mp
 presump t
 Day t
 Man g
 PO L
 disa bilities
 May a
 R ous
 fraudulen t
 rest raint
 E z
 pipe s
 Pap a
 ineffect ive
d don
 Ches t
 Be rge
  voltage
 Ist a
 catast rophe
 Insu rance
 Us u
 ag on
 extre mism
 Met s
 unaut h
 fue le
 Uppe r
 va mp
 crus t
 methan e
 Map s
 noticea ble
 reve re
 guess e
 de dication
 unauth o
i davit
ä º
 conve rge
 condition ing
risb a
 agita t
 Turnb u
 fat t
 devis e
m bracing
 advocat ing
oddes s
 len d
 downwar d
  diamond
 M G
 G olds
 tunne ls
 Blan c
 na ive
 fuele d
 Dan g
 My e
 glu c
 thes is
 stealt h
 f racking
 sense s
 snip e
 unj u
 Â «
 Ja b
 Turnbu l
 appre he
 apprehe n
 Slat e
 Any t
 deta iling
 pec u
 tapp e
 Turnbul l
 single s
 display ing
 Apa rt
 SH O
 artifact s
 F ranken
 Succ e
iona g
o ritize
 A ms
 Report s
 Ven u
 knoc king
 different iate
 Ð ¸
 Scient ology
 ma rve
 unju s
 unjus t
 ap oc
 apparat u
ig ibility
 AR M
 apparatu s
 recognize s
 ------ -
 Zuc ke
 soc ke
 yeas t
ionag e
i oritize
r ioritize
 Bas ically
me rate
 Hog a
 Legen ds
 disaste rs
 infu s
 meta data
 dictators hip
 influ x
 Ra re
 jea n
 P oss
risba n
d ietary
 prevalen t
 recyc le
 adopt ing
  merits
 inaugu ra
 pixe ls
 Pre c
 insula t
 acknowledge s
l igibility
m odification
d igits
ã 
risban e
 He rma
 PC s
 Zionis t
 trace s
 viewp o
 viewpo int
 corte x
 Beat le
  diligen
 wa ry
 24 0
 sw ip
F riday
rose x
 L B
 Zac h
 Eise n
 descen dan
 mu g
 Depe n
 mosquit o
 punc t
 Ya s
 prolong e
 wipe d
 Cava l
 Hy de
 Interest ing
 procu re
 illustrat ion
 offence s
 Start ing
  vintage
k irts
 descendan t
 Cla re
 appe n
r osis
 b ourgeois
 shorte n
 Vien n
ã ¦
 TIM E
  ë
 prolonge d
 wa is
 NY P
 Kn icks
 FRO M
 bas t
 exempt ion
 inaugura l
 PR I
 Prade s
 settle rs
 competen t
 Millen n
 SU V
 policy ma
 Fift h
 seasona l
r oudly
 unsta ble
 Down t
 smarte r
 wais t
 H ip
 Prades h
 wa rrants
 induce d
mis g
lit c
 Z immerman
 motive s
A lmost
dun dan
 Ista n
 M int
  migrate
ha ile
 prog rammes
 acc ommodation
 ga g
 acqu a
 long s
 bump e
 Simp le
 Sant o
 Un a
 She rma
 Spea king
 drea d
 ste ms
rwe n
 listene rs
 T radit
 194 4
 simp licit
 Pep p
 exot ic
 tappe d
 dyna s
 misdemean o
 defeat ing
 bag g
 benefit e
  dietary
 Aub u
 dee r
 Annu a
 Sc u
 dynas t
 benefite d
 ta mp
 ent husiasts
 est e
 pa w
 Hait i
 Can u
 Don o
 Sherma n
 As he
 ru ine
 she lls
 unfa m
 Clau s
 rec ommends
 unsa f
 Wiza rds
 unsaf e
 Se rious
 bureauc racy
 c riticisms
 sanctua ry
 acqua int
 f og
 Raj a
 bullsh it
 p inc
 unfam i
 unfami l
 Sale s
 Ema n
 concess ions
o meday
 unfamil ia
 up dating
 disg race
 Alfre d
 Va c
 statist ically
 R olling
 length s
 B rock
 therap is
 therapis t
 det on
 Bla z
 C raft
 impeac h
 ruine d
 deton a
 c haritable
hams t
 H ighe
 Ka e
 Ug a
 Fle e
dif ications
 Istan b
 misu s
 Istanb u
 host ility
o difications
 position ing
haw a
 dung e
oug a
 Rest a
 Ange ls
 s mea
 philosophe r
 Bet h
 detona t
 enla rge
 ON E
 st ip
 needle s
rag ments
 Presen t
 Evert on
lifie r
 denounce d
 Git H
 Ta u
 Istanbu l
  î
 dunge on
 acqu iring
 Sma s
 ES T
 play a
 GitH u
 Duf f
 popp e
 amus e
 GitHu b
 simplicit y
 therea f
 thereaf t
 thereaft e
 porta l
 thereafte r
m irates
 c racked
 f orbidden
 splas h
 Any w
 jea lous
 G rave
 Sab a
 Compet it
 illustrate s
 j ournals
 Pis t
 Cele b
 Herma n
 reference d
oug e
Ã 
 E inst
 p ope
 alle y
 fus ion
ã ¨
 T ournament
 infringe ment
  vigilant
rrestr ia
 12 3
 Kuma r
 Prince t
 analyz ing
 introduce s
 t raction
 offende d
 request ing
 Den is
 Not re
rrestria l
 perpetua t
 ema ile
da mp
 identif ies
 Courte s
 Cong o
é c
 Aubu rn
 K D
 reminisce n
o llus
 O B
 g lorious
voca b
 LeB ron
 Space X
 preca u
 Refere n
 Princet on
 duc k
  irrespons
 She n
 Sa w
 certif ication
 Jac qu
 aff idavit
 sponsors hip
 sema n
 intentiona l
 inte rcon
 Rut h
 unchange d
 skept icism
 tout e
 Sist e
 Scientist s
 A lways
 tonne s
 precau t
 bett ing
 detective s
 ste lla
 Osb o
 P osit
 blesse d
 endure d
 Cathe r
 Though t
 not c
 w iza
ilu t
 Einst e
ا ل
 As a
  dubious
 Da e
 visa s
── ──
 health ie
 Eg g
 detect o
 healthie r
 Ras p
 discret ion
in diff
 virus e
 p ragmat
 Az u
ivis ive
 R U
 viruse s
rosex u
 Courtes y
 Cit ies
 pupp e
 restrict ion
 O va
 oste n
 cleane r
 O H
 lowe ring
m inished
 Pen insu
rosexu a
 F ru
i minished
 Peninsu la
 gift e
 cheat ing
 194 1
 interrogat ion
 ISI L
 Un s
indiff e
 s haping
 B ing
 pa iring
indiffe re
indiffere n
 Be lle
 puppe t
 A bdullah
ra rian
 BT C
 spectac le
 dump e
 notif y
 pecu l
raff it
 backya r
 access ories
 backyar d
 misunderst a
 pecul ia
h ilant
 class ma
 misundersta n
 prince s
 nationa ls
 unusua lly
 phase s
ou a
 Disp la
 freez ing
 Sask a
 tack ling
 unde rgoing
 IS O
 emaile d
 classma t
 classmat e
 rans o
 Mu g
 slu mp
o mema
 takeove r
rcis s
 Dayt on
 Lega c
 Saska t
 en during
 unsu s
hilant h
 P rovince
 devastate d
 smas he
 Researc he
 Usu a
 Spa rt
 goalkeepe r
 republ ic
 Rug b
 specta t
 Ade la
 b randed
 insu l
 advocate d
 delu s
ã 
 P he
 beautifu lly
 commun icating
 na vy
 gu s
 Brenn a
 Pet t
 invit ing
 Rugb y
 Ag u
 V C
 p roudly
 Gun n
 p osing
 cy l
 t ouring
 ga dge
 Celt ics
 impa rt
 parent a
 refine d
 gadge t
 dece a
 Core y
 reun it
i diary
 sca ling
 decea s
 Anc ien
 allegat ion
 enterprise s
 happ ie
 te t
 meta ls
 switche s
 happie r
 deceas e
 Expe r
 NYP D
 Inf a
 courtroo m
 O le
 dependenc e
 Doc ke
 sa p
ст Ð
 determine s
 wate rf
 core s
 Essen t
 insul in
 interface s
 Every body
 Mela n
 announce ments
 snappe d
 punct u
 Con w
 stretch ing
d ivisive
 Rega r
 Repla y
 balanc ing
  misg
 conta mination
ie de
 relevan c
 P N
 }) ;
 py ra
m iniatu
 N it
 cont racte
 reiterate d
 the orist
 Haw ks
  insc
 rival ry
d iminished
 undertake n
 a rose
 devel ops
 Mana f
 194 7
 Craw f
 recepto r
 R ile
 Pe rce
 despa i
 aut u
 DO J
 ej e
 precipit a
 Cather ine
 Increas e
 San g
 c haotic
 arsena l
 dis qu
llu c
 C W
 Su it
 cost ing
 Da u
 Dun n
 Ste rn
 G iu
 Meye r
 autu m
 socke t
 Shan e
 authent ication
 autum n
 enginee re
 infant s
 travele rs
 Chen e
 engineere d
 ep it
 glut e
 att racting
 dismant le
 existen t
 13 5
 def le
 ga llons
 re inve
 Jaz z
 conf irming
 decease d
 jean s
 laugh t
 agree ing
 uns c
h irst
 Licens e
q qa
 predict ing
 volunta r
 ree f
 urgen c
 Wa lking
 Y on
 Hoga n
 laught e
 visua lly
 possesse d
 Curt is
 Einste in
 Pla z
 educat o
 W P
 Ancien t
 ------- -
 Ecu a
 laughte r
 Tille rson
oz illa
 unfamilia r
 inju n
ha lls
 Annua l
 ce met
s idiary
b sidiary
 place b
 rest ing
 C liff
 Freder ic
 Ultimate ly
 injun c
 B owe
 injunc t
 circula r
 Kit c
 Ecua d
 dist raction
 precipita t
dde rs
 kn ot
 sag a
 YOU R
 defle c
 deflec t
 imp rovis
 deport e
 Use rs
 Canu c
 Manaf ort
 kidnappe d
 Rap t
 preac h
h rinking
 Az e
 offs p
 s idelines
 FRE E
 Pepp e
 peas a
 reg imes
 van illa
 pet t
rre y
 Constan t
 dumpe d
 urgenc y
 pan c
 peasa n
 peasan t
 Ca rds
 supe rnat
ã ª
 Quan t
du rance
 Ams t
 Cente rs
 Gu ine
 front ie
 concept ion
 despai r
 visito r
  indifferen
 negative ly
 vap o
 Bren dan
 content ious
 contracte d
 Mercu ry
 F oods
 Man de
 Haye s
 JS O
 Product ion
 Plaz a
 capture s
 Rile y
icot ine
imat ing
 reacto rs
 cemet e
 evangelica l
 n odded
 Teac he
 repai rs
 Kush n
 un believable
 Port a
 dependenc y
 Kenne t
 insta bility
 Sce n
 exp losions
 lu mp
 b ilateral
 seve rity
 voluntar ily
 pea n
 Brist o
 astronaut s
 integ e
 shelte rs
 Legac y
 re va
ovsk y
 Conw a
 stella r
. ;
 Deta ils
 U B
 conta minated
 C rist
i mmorta
 pean u
 peanu t
 swa mp
Ñ 
 Ge of
 Conwa y
 TR A
C raft
 lone ly
 Wit n
 D ip
 Kis s
 insiste n
 25 6
 expedit ion
 Mess a
 C risis
 Witn e
 E mirates
 assess ments
 down p
 crunc h
izz le
 bise x
 su bsidiary
 beac he
 â 
Ä «
 bisex u
 therap e
 bisexu a
roc he
 Pe g
 stretche s
 Test a
  damp
 therape u
 therapeu t
 swa l
r owly
raffit i
 confess e
 p ouring
 He rnandez
 Bu e
 Uga n
 cla w
m odifications
 re he
 swal l
icienc ies
 corresponden c
 ree le
 swall ow
 Chene y
More ove
Moreove r
lif a
 sexis t
 Hass a
 Spice r
 rema ke
 Spart a
 correspondenc e
 eyeb r
 B oss
 seman t
 eyebr ow
 insert e
 propaga t
 Vienn a
 Bristo l
 p igs
 Nepa l
 empir ica
  miniatu
 Fly e
 quee r
 translate s
 re dundan
 meaning le
 meaningle s
 meaningles s
 Act ive
 empirica l
 ru ins
 gru e
 Compa re
 rehe a
 Succe s
rwe l
 Int roduc
 blaz e
 with drew
  â
 selle r
 surprise s
 Brenna n
 Crawf o
 Crawfo r
 dict iona
 rename d
Ä 
 Crawfor d
 Succes s
 Eve re
 Tan g
 pixe l
 Ma lt
lit ias
 c harities
i litias
 Du a
 whis ke
 range d
 Fea r
  radius
 P has
 inserte d
 N ike
 alleg ian
  digits
 Invest ment
 correct ion
 trace d
 Cla n
 Kushn e
 reminiscen t
 Expe c
 API s
 snaps h
 Expec t
 Ra u
 allegian c
 allegianc e
 disce rn
rwel l
 Adela ide
 Ca g
 Investigat ion
 lea king
 snapsh ot
 un of
 K E
 Techn ica
 own ing
 unof f
 poppe d
 18 00
 Be la
 Regar dle
 Regardle s
 Regardles s
 WA S
 downs t
 prese rvation
 accelerate d
 caps u
r rowly
 Cru is
  modifications
 allocat ion
 downloa ds
,’ ”
 softe n
 rewa rding
 Manu e
 Sa p
 disgust ing
 Tee n
 aggravat e
i dian
ã ¯
 L iu
 pens ions
 S ize
 dependenc ies
 notice s
  misma
 feas ible
 accelerat ion
 Phan t
 dea f
 dismiss a
 g ospe
 out date
 W B
 Smas h
 reinsta t
 a is
 harass e
 fus e
 Ta king
 mas ks
 Tren t
 Rec on
 utte r
lit is
 Witne s
 heavy w
 heavyw e
 Witnes s
 attach ment
ina g
 heavywe ig
 heavyweig h
 heavyweigh t
 laugh s
 he f
 dest a
 PT S
 195 9
 descen de
 discont inu
 outdate d
ologis e
haile d
 Front ie
 p rioritize
 Sign a
 crue lt
 uphe l
 uphel d
 Coffe e
 possess ions
 Obs ervatory
 rappe r
 00 0
 una r
 Bon e
 exclus ion
d ilut
 guar dian
 Ran k
 ec c
 nu rt
 station e
 Twent y
 ret rospe
 Pu rp
 nurt u
 retrospe c
,’ ’
 B osn
 X M
 Ju diciary
 grap e
 upwa rds
 vau lt
 Kaz a
 retrospec t
 P irates
 unp le
 In dividua
 inte rmediate
 Ce s
 negot iation
 Kushne r
 e mbracing
 inte rst
r ozone
 Elementa ry
 contingen t
 Beatle s
 rej o
 t rainer
 festiva ls
 Stef a
 res olutions
 fert ility
 tosse d
inn is
 congress ma
  hailed
 congressma n
 & &
 Can on
hage n
 un qu
 WI L
  loude
 K indle
 capsu le
 teas p
 Na re
 Stefa n
 Sag a
 capt ive
rit z
 Nationa ls
 Exp a
 teasp o
 costu mes
 Specif ically
 pert a
 De vils
 forecast s
 Func t
 Ne c
  modification
 Ru p
 withdraw n
 Zucke r
 Counte r
 Dese rt
 iterat ion
 myth s
 ap ost
 Discove ry
 teaspo on
 ema n
 san ds
 exacerbat e
 stamp s
m illionaire
 e S
 mechan ic
haf f
 hope le
 hopele s
 Conse rvation
 hopeles s
 sac k
m ilitias
Ø ¨
  diminished
 discove ries
 C omedy
dga r
 offsp ring
 Met e
 X X
 stuff e
 double s
 ts u
 ta lly
 p olle
 dishon e
m idation
 dishone s
 dishones t
ie lle
 access ing
 anticipat ion
 inspecto r
  divisive
 unsu re
 re vival
 interva l
 week day
V ict
rwen t
 WO R
 Loc ke
i midation
 Rocket s
 outsp o
 outspo ke
 rut h
 pen t
 pe g
 outspoke n
odge d
 overtu rn
 pac t
 sala d
lippe rs
i of
 New ma
 can s
 drea me
o oping
 spectat o
 eje c
d omination
 Whats A
 atheist s
 foref ront
 Cu n
 Mons a
 WhatsA p
 WhatsAp p
 alleg ing
 Kitc he
 chance l
 airstrike s
 Scient if
 sect a
 Geof f
 ext racte
 extracte d
 Me mory
  militias
 forens ic
 continua t
 Reg e
  hards
 adequate ly
 ruth le
 B ring
 ruthle s
 ruthles s
 Guine a
 toute d
 Usua lly
 apoc a
 judge ment
 cease f
 Sy mp
 ceasef ire
 Le ice
 Ga lla
 # #
 Dut y
 Fu e
 Leice s
 Leices t
 Leicest e
 R M
ran z
 Tea ms
 compat ibility
 trigge rs
 Dian e
izat iona
 H olt
 celebrat ions
 test a
 chatt e
 Qua lity
 -------- -
 resist e
 ju dging
ieva n
 mist re
 percept ions
 stimulat ion
 ranso m
 vamp ire
 Benga ls
 hef t
m inine
 sle p
lif ies
 apoca ly
 Hans e
 Ve hicle
 creep y
rott e
  immorta
 Kan t
 DL C
 b rass
 Recent ly
 preten ding
 apocaly p
 Ha a
 Persona l
 W riting
 secta rian
 una f
 Cre s
 placeb o
 slep t
 elevato r
 astero i
 Amst e
 Clea rly
 exchange d
 chee k
 f rog
 unple a
 unplea s
 na rrowly
 rampa n
 Black B
icu le
 unrea s
 Cruis e
 tu c
 sca la
 success ion
 unreas on
S emitism
 G han
 Stan d
 G ille
 with s
rrea l
 strengthen ing
 Dun g
 justice s
 O D
 Professiona l
 cleane d
 C oming
 acknowle dging
 Act o
 Elect o
du ling
 bolste r
 supplement a
 rampan t
 unar me
 unarme d
dg ments
 fan a
 cance lla
diu ms
 blocka de
 A bsolute
 Leban e
 Reven u
  á
 Lebane s
 Lebanes e
 Buzz F
 Myst e
 F X
 Kennet h
 employ s
 out ing
 Bu lle
 run w
 Re w
 gifte d
 oust e
 asteroi d
 susta inability
 193 9
 minera l
 R D
 H olding
 runw a
 runwa y
 perfect ion
 supernat u
 chancel l
 ejec t
ragu a
 Deut s
 chancell o
idan t
 b idding
 s ounding
 Revenu e
 supernatu ra
 w olve
 Stephen s
  domination
 Deuts c
 compare s
 depth s
 ais le
 refresh ing
 Messa g
 nutrient s
 spec ially
 withs t
Through out
 Design e
 relian c
 relianc e
 K C
 evacuate d
 Can y
 22 0
 luna r
 A dult
 st ray
 ap ologise
 manusc ript
 span n
  halls
 Stan ding
 predict s
 dispe rse
 televis e
 45 0
 Ly on
 unpleas a
 decentra lized
 respect a
 unpleasa n
 Cany on
 e ine
 unpleasan t
 tang ible
 ext radit
 run t
 blaste d
 Detect ive
 cancella t
 defeat s
 Bas t
l ough
 Mart y
 scanda ls
. .)
 Atla s
 BlackB e
riot ic
 Fres h
 Monsa n
 perpetrato rs
 research ing
 Monsan t
 postu re
 Tu t
 Y og
 beache s
minato r
 Perf e
 Nis s
 regulato r
 A O
 Ran c
 B rigade
 Respons e
 frequenc ies
 Bea n
 K w
 g ranting
.” )
 Monsant o
 expire d
 C oup
 Gu j
 BuzzF e
 BuzzFe e
 Jackson ville
 deporte d
 future s
 Organ is
 on w
 Vis ion
ris y
 BuzzFee d
 Fortun e
 Kitche n
 Â ·
 JSO N
 Qu ot
 F orge
 ons e
 Techn ologies
 ve rge
 audit o
 pon de
 ye lle
  looming
 11 4
 Cau s
 parenta l
 signa ling
minat ory
 ru de
 rep s
 U E
 inc idence
vids on
 Anyt h
 dist racte
 î n
 relevanc e
 Za n
 Nat e
 Inspect o
 turnove r
 des s
 livest oc
 decline s
 evaluat ing
 recyc ling
r ievan
 livestoc k
 Anyth ing
 cruelt y
 B risbane
 j oking
 ext raction
 stac ke
rievan c
rievanc e
 g rands
 desta b
 embarrass ment
 taxa t
 accumulate d
 b iography
 relieve d
 Bun de
 gun f
 Eas y
 false ly
 Mea s
 unde f
 IP A
 commun a
 Expe rt
i minatory
 stakeholde rs
 N oble
 Result s
 BlackBe rry
 success ive
 taxat ion
 Canuc ks
 f ragments
 penet rate
 unde rwent
 hands e
 Event s
 sexis m
r iminatory
 reinforce d
 tag g
 onw a
 Ce c
 misus e
 yelle d
æ 
,' "
 Cae s
 V on
 partit ion
 supersta r
 wa x
 c omrade
 Heat h
 suspen d
 Res c
 W M
 11 3
 Scientif ic
 rese mbles
 Heat he
 analog y
 g loss
 Fan s
b ouring
 ang u
 B ike
á s
 constituenc y
 stuffe d
 divorce d
 handse t
 the ology
 Update d
 recon n
 outrage d
 destab i
 indirect ly
 Certain ly
 Mc I
 condemn a
l inqu
 Perfe c
 n ominations
 sun g
 t rilogy
rciss is
 ISP s
 buy s
 Hu c
 G ods
 fundraise r
 Han g
m mits
 Launc h
 alum n
 colla r
 Perfec t
 screa m
 Displa y
 Cann a
 asy n
 194 2
 like w
 Ma rce
 Plann ing
 colla t
 Manue l
 suscept ible
 Ank a
 Phas e
 Ova l
izationa l
 Rasp b
 selle rs
 le dge
 goa lt
 Ex x
 believe rs
 asyn c
 goalt e
 Hassa n
 goalte n
ы Ð
 Ca rls
 indefinite ly
 unreason a
 hat s
 imperia l
 reconstruct ion
 ac ids
  ÑÐ
 melt ing
rvat is
 b ount
 MA N
 Buff e
T opics
 likew is
 likewis e
 ac ous
 stacke d
r minated
 Batt e
 ba it
 cre s
 Jaz e
 jug g
 misse s
 Amste r
 Angu la
 force f
 ne oc
 play g
 rete n
rwe a
 cart ridge
 M W
 --------- -
 gate w
 dest ine
 gatew a
 distracte d
oz z
rvatis m
 Mot ion
 ant it
 unique ly
 x e
 gatewa y
ospa c
 acous t
 lapt ops
 Angula r
 inflat e
 \ (
 195 8
 Ga llup
 spat ia
 P ractice
 c ouncils
 c osmet
 Re duc
 block b
 Duc ks
 inqu iries
 Expa n
 c lown
 Genes is
 recu rring
 POL I
 Jaze e
. .]
ospac e
ramew orks
 Mag e
 c racks
 Da vies
 s hrinking
 Jazee ra
 onse t
 sa int
 tube s
 Indones ian
 Illus t
 reconc i
 reconci l
 uncon t
h omew
omema de
 Exx on
 hete rosexua
 Wy n
 destine d
 life long
olog n
 Like w
 Tu s
 Likew is
 Likewis e
 operative s
 P ierce
 disagree ment
 Amster da
 Cove n
 blockb u
 galax ies
 va lidation
 195 6
 blockbu s
 Amsterda m
 Wy oming
 blockbus t
 e ligibility
 psychiat rist
  haul
 offende r
 contende rs
 overtu rne
 overturne d
 f rate
 Downt own
 ma dn
 re int
 reten t
 bu ry
 sweet e
 She a
 hec t
 regress ion
 madn e
 madne s
 madnes s
 pundit s
 De live
 Conn o
 designat ion
 c harisma
 weaken e
 Te t
opu s
 c ling
 mot orist
 weakene d
 Custo ms
 plu mmet
 condemna t
 tsu n
 Rep e
 volcan o
 sp litt
 Caes a
 Ja k
 s harks
dama n
 proponent s
 b ounds
 A ddress
 Be rry
 worth w
 Blaz e
 Part icipa
 intercept ions
 Brea king
 a rcade
opla n
 Resta u
 halt e
 punche d
 preparat ions
 Econo my
 s have
 Hug h
 unt ru
 Elle n
 unpa i
 Is le
 convert ing
 payloa d
 T housan
 Wag n
 blockbust e
 unsp e
 neg ligen
 worthw hile
 fa iry
S orry
 glac ie
 ninet e
 ninete e
 help le
 construct ive
 ninetee n
 unpai d
 helple s
 helples s
 rehabilitat ion
 GM O
 Refu g
 Nare n
 Est on
 San s
 Through out
 manifest a
 Constitut iona
 compose r
 crush ing
 Charte r
 misre p
 undis c
 Bunde s
ollus ion
 Pres t
 planet a
 bas h
 reassu re
 disturb a
 DN S
  dilut
 tent h
i ologists
 S z
 discip linary
 franchise s
 disturba n
 accus t
 pseud o
 disturban c
 disturbanc e
 wolve s
 Aman da
 My a
 lung s
 unautho r
 Plat f
 unauthor ize
moa n
 drawing s
 ubiquit ous
 P izza
 lawmake r
 shortc u
 shortcu t
 Pon t
 reject ing
 unauthorize d
 Inf e
 Referen c
 pedestrian s
â 
inne y
 he x
 policyma ke
 accust o
 dis int
 contest a
 scout ing
 su ing
 Have n
 gay s
 spatia l
 Qu it
 Baye rn
 b loods
 disint e
 gluc ose
 retent ion
 t oddle
 Pas c
lc e
 psych ot
 edit ions
 Â §
 infant ry
 Additiona l
 IP C
 Lon e
 minera ls
 country s
 fact u
 rec it
 Mye rs
 supernatura l
 supremac y
 Sex u
 reconcil iation
 fon d
 14 4
 winge r
i llies
 Flee t
i ć
 Resist a
 Offe n
 Resista n
oc risy
 Ya t
 reunit e
  homew
 oppress e
 align ment
 ama s
 chancello r
 C olla
 televise d
 195 4
 C ous
 Lake s
 Sexu a
 Pane l
 funn e
 My t
 D olla
 De ma
 post a
 thankfu l
 periphe ra
mmet r
 gree d
 comp ilation
 eff icacy
 Conse qu
 H oliday
 elde r
ila rity
 Rep ly
 O de
 RS S
 Wagn e
 b owe
 crus a
 seat e
 osten s
 Î
 blue p
 draft ing
 excuse s
 mortgage s
 Consequ e
 Conseque n
ÑÐ µ
. Â
 Jacqu e
 suppress ion
 cluste rs
 Mose s
 smashe d
 au n
 organize r
 tsun a
 cockta i
 apple s
 bluep r
 bluepr int
 miss iona
r oscience
 Testa ment
 reele c
rc ials
me rcials
 cocktai l
 Guj a
 Ment a
 Rock y
 glute n
 stu mbled
 Seg a
 keep e
J ose
d iaries
 proclai me
 ene rge
 plague d
 sava g
 Plu t
 Comple x
 D F
 mult inat
 disagree d
 Hac ke
 circulate d
 countrys ide
 Dang e
 un ident
 unanimous ly
M organ
 Quest ion
 Sava g
 proclaime d
 Bec ke
 t orrent
 accusat ion
 FI R
 unident if
 merge d
 re medy
 T U
 situat e
 rect a
 manipulate d
 Runn ing
 be lly
 s omeday
 Leiceste r
 Refug e
 dismissa l
 fana t
 unloc ke
  vocab
 Is is
 dec ry
 multinat iona
 slap p
 Naren d
 accomplish ments
 staffe r
 energe t
 recepto rs
 16 5
 provocat ive
 telec o
 Ku w
 tile s
 hards hip
 Pa int
 Pat ien
 amas s
 g rievance
 Savag e
â  
hap ma
ã 
 fetc h
 vapo r
 E mmy
 Jack ie
 CA P
 Hug o
 Black b
 compress ion
 int imidation
 Cultu ra
 instructo r
 government a
 rene g
 Le c
 lake s
have z
à ¥
 reelec t
hapma n
l ody
 Compan ies
 Guja rat
 continuat ion
 innocen c
 pan de
rc ially
  hamst
 Cove r
 Jen s
me rcially
 mess y
 Manu f
 proteste d
 unlocke d
 craft ing
m mercially
o mmercially
 brewe ries
 NP C
 occupa n
 191 7
 Ay a
 Indust ries
 Osbo rne
 Re move
 incarce rat
 Cann on
 En j
 innocenc e
T ry
men ding
 Narend ra
 Manuf a
 W inds
 drast ic
 outw a
 Du g
 00 00
 Sche dule
 Man it
 vanis he
 therapeut ic
 Eman u
 b ooking
 Manufa c
 Apa c
 Manufac t
 Wen g
 NO W
 unleas he
 reinstat e
ig le
 Ð º
 majo rs
 indict e
 Re ligious
 recreat e
 Anyw a
 progressive s
 unde n
 whip p
 entre n
ormat t
 Own e
 shatte re
 Anywa y
 Burt on
 S hawn
 circum c
 de mea
 Pe rt
 Pla s
 demea n
 shattere d
 swift ly
 inte racting
 segregat ion
 eag le
 rap is
 reve rt
 Nag a
 kille rs
 Apac he
 Temp e
 rapis t
 us he
 Pen s
 G ospe
 accusto me
 accustome d
 emp e
 OU T
 propose s
 resiste d
 75 0
ract a
 cere b
 magnif ice
 neglect e
 Referenc e
 magnifice n
 De ms
 reproduct ion
 Tuc ke
 carve d
 15 5
d rills
 Bas ke
 De vice
 sett ling
 Eugen e
 indicte d
 be w
 Bulle t
 wa king
in line
 Dw a
 p odium
n hagen
 Hype r
  hamp
 oppose s
 scann ing
 Wate rs
ã 
 ma iling
 Meas u
 Strateg y
 Ty s
 Ag g
 Linked I
 neglecte d
 Whee le
 strike out
 Pun j
 Korean s
 Newma n
 factu a
 gospe l
 sa lu
 refu t
 surpass e
 Kuw a
 cataly s
 circumc is
 Carp e
 disrega r
 disregar d
 Ka ma
 Luck ily
 RC M
 accidenta l
 bus h
 tren c
 nit rog
 Off icials
  liable
 Ech o
 crosse s
 LinkedI n
 Infa n
 must a
 telec ommun
 rep lies
 emerge s
 repress ion
 lu g
 enf o
 misdemeano r
 scen t
m inding
 breast s
 Punj a
  rave
 R H
 geograph ic
 G W
 sta lle
Ã ¯
 reva mp
 stalle d
 195 7
 than ke
d icule
osy n
 Emanu e
 Wagne r
 reus e
 CO U
 Ju mp
 195 3
 O riginally
 f rict
 w ilderness
 Fu ry
 thanke d
 Employe e
l ieutenant
Ã 
 entren c
 Rap ids
ran u
 Opp osit
 existent ia
 governmenta l
 collaborat o
 connect o
 Pack a
 Manufact u
 cyn ica
 statione d
 cynica l
 Ray mon
 Ris ing
 Punja b
l init
 MM O
 Nea r
 trap s
 standard ize
l iking
 Ventu re
 Ext re
 Son ic
 hamp e
 schedule s
me rcu
 forcef u
 savag e
 H C
 downloa ding
 caf f
i dicule
 mans ion
l oudly
 specif ications
 p iracy
 screenshot s
me ring
 Huc k
 Z han
 Bloc ke
 concert s
 Elde r
 systemat ically
 Ma ve
 dess e
 enfo rc
 11 7
 PO S
 clutc h
 ga rnered
 garden s
 b randing
 amp le
 ea rnest
 vocab u
m inally
 psyche de
 policymake rs
 vocabu la
 manifesta t
 psychede l
 In j
litz e
 } ;
 anat o
 lende rs
 AC A
m mot
 S orry
 certif icates
 medicine s
 logist ics
 Researche rs
 c harming
 acqu it
  ―
p ocrisy
 downs ide
lc iu
y pocrisy
 succ u
 pu rse
 wast ing
 enforc ing
 sent iments
 g igan
opa mine
 < <
 reset t
 myth ology
 Islan de
 continu it
 dinosau rs
 Â 
 gigan t
 Venu s
v ouche
 ( #
 11 6
 blogge rs
 size d
 Congress ma
 land f
 swip e
 Congressma n
 playa ble
 ignore s
 Consu lt
ha ry
 194 3
 Hag e
 Infan t
 invent o
 Anka ra
 shortage s
 Gua t
 overf l
 tweet ing
 depict ing
 sy ru
 Fla t
 pa ds
 overt a
 syru p
 Syrian s
 an imations
 ange l
 ret iring
 seate d
 vet t
è re
 Frederic k
 congest ion
 Os w
 even ly
 McN a
 unea s
 195 5
 c racking
 pat rons
 Brave s
 acclai me
 Fla n
 incomp a
 Shan n
  drills
 acclaime d
  loudly
h inkers
 down f
 soc ietal
 Unde rst
 eva p
  lieutenant
 Wheele r
 buc ks
 Cauc u
 arise s
 collat e
 Highe r
 aggravate d
 incapa ble
 Pre f
 REA D
 Caucu s
 inject e
me dies
 massive ly
 12 1
 Lot t
 homew o
 singula r
 Raspb e
 Resistan c
 Resistanc e
 injecte d
 simple s
 Relat e
o rone
 Insta n
 scan s
 O la
 Rapt o
 caff e
r ranted
 seizure s
 Kat ie
 swap p
 inca rnat
 Myt h
 a rous
  rove
racu s
 Pre mium
 TR U
 lean e
 pa rap
 Hoff ma
 goal ie
 last s
 descende d
 homewo r
 Niss a
 inge s
 11 8
 Hoffma n
 bruis e
 evacuat ion
 inges t
 Trave l
 deepe s
 deepes t
 impen ding
 exaggerate d
. ..]
ü n
 tapp ing
 Dragon s
 rew rite
 Nak a
 Hanse n
 c ough
 ann ot
 disrupt ive
 where b
 jurisdict ions
 whereb y
 LT E
m mercials
o mmercials
 Fe ma
 p hilanth
 cu mu
 pa rce
 LS U
 RCM P
 g n
 average s
 unidentif ie
 cla y
 unidentifie d
 fast b
r idicule
 M Y
 A ru
 Kab u
 Office rs
 annot a
 credit o
 modula t
 pup ils
h ypocrisy
 truth s
llu de
 12 7
 Raymon d
 rese rvations
 Esta t
 nitrog e
 nitroge n
 tit a
 annota t
 equat e
 proport ions
rac a
 Suga r
 Powe rs
r ospace
 Exper i
 forge d
 depart e
 ditc h
 Ge og
 Pub lis
 Resc u
 predecesso rs
 Mu rde
 Vict ory
 aun t
 irrespons ible
 ove re
 rule rs
 tita n
 gue r
 exc la
 brake s
 rente d
 boa rding
 increment a
 renewa l
 slug g
Tru e
c ommittee
 Awa ke
 Fitz g
 comp licit
 oppresse d
 Experi ment
 A rist
 ne on
ha lluc
 B rief
 R iot
 Andrew s
ha rms
 Lore n
 Valent ine
 empe r
  ripe
 GE T
 guita rist
 portray a
 sens ory
 circulat ing
 burge r
 regist ry
 Enj o
 Int o
 Inte rst
 p n
 elephant s
 emper o
 p roliferation
 strea me
 194 9
 Kuwa it
 atrocit ies
 invas ive
 gesture s
 p oa
 runt i
 metabo l
 Rea lity
 disqu a
 Publis h
 he mp
 S ot
 runti me
 14 5
k indness
r oscope
ige rat
 Peters b
 Constitutiona l
!) ,
 spee ding
 Ts u
 st rips
 c hilling
 12 2
 Weng e
 f loods
 Fema le
 Product ions
 Ma rian
Ø ª
lciu m
 Differen t
 antagonis t
 Estat e
 halte d
 Esc a
 cave a
 Men de
 launde ring
 perva s
 respectfu l
 Raspbe rry
 resona n
 Man t
 mutat ions
 rainf a
 popp ing
 Ca la
M ille
 Electo ra
 ze a
d iets
 mutat ion
 cavea t
 Cultura l
 Enjo y
 Supp le
 Open S
 recla i
 Celt ic
 Leg ion
 Meet ing
 forec losure
 evap o
 pervas ive
 contesta n
 Pret t
 bu ddy
 Ass u
 planeta ry
 Petersb u
 tu rkey
 Da g
 contestan t
 ---------- -
 Inspecto r
 Te re
 Electora l
 desse rt
 limitat ion
mise ry
 AA A
 vert e
 Belf a
 Petersbu rg
  oils
 villa ins
 chicken s
 synthes is
 w idge
 continuit y
 sa dn
 sadn e
 sadne s
 sadnes s
 pivot a
 unse t
 a iring
 correlate d
 departe d
 Pix e
 U ru
  ridicule
 As ke
 Gree ks
 brus he
 harasse d
 mut e
Å «
 va lve
 withst a
 Wea ve
 widge t
 D raw
 et he
 conven e
 withsta n
 Rescu e
 authent icit
 pivota l
 spu n
 Baske t
 incorrect ly
 cue s
 discre p
 exceptiona lly
 TS A
 authenticit y
 Belfa s
 Belfas t
 incu b
 suc ks
innis h
 Coope rat
 multit u
 prof oundly
o vidence
 attendan t
b rams
 intercept ion
 den ot
 nep he
 Sp on
r ovidence
  diets
 Venezuela n
 maste rp
h bouring
 lac e
ig hbouring
 lawfu l
 s liding
 simples t
 f inalist
 camp ing
 misrep re
osla v
 Fu lle
 c ommercially
 misrepre s
 Wenge r
 incit e
r igerat
 Market ing
 misrepres e
 ja va
 misreprese n
 C og
 Emanue l
 unoff ic
 unoffic ia
 cyl inde
 misrepresen t
 orth o
 unofficia l
 pollut e
 assess ing
 fore g
å ¤
 U V
 miniatu re
 ce s
 competen c
 TH C
 liken e
 ven e
 Green e
 swea r
 xe n
 remove s
 contemplat e
 is t
 prefe ra
 Prosecut o
ha ls
 composit e
litu de
 incarcerat ion
 Za p
ide lity
ritan c
 Sens e
 discrep a
 impeach ment
 Reporte r
 discrepa n
 essay s
í n
 nephe w
 unt e
 T rap
 C hicken
 rede e
 ba f
 spec s
 broade n
  hypocrisy
 Messag e
ritua ls
 eva de
 execut ing
ã 
 N M
 equa ls
ritanc e
 dent a
  misery
 test ost
 Ð ´
 194 6
 Strea m
 plant ing
 sea f
 una va
 Lama r
 inf ormant
 testost e
 Christ ine
 speculate d
izz y
  halluc
 Fact o
 Re volutionary
 salu t
 Up g
 injunct ion
 Tucke r
 testoste rone
 P f
 tissue s
 Tak a
ins ign
 Os t
 Pen a
 g raffiti
 Underst a
 rainfa l
 rainfal l
  vouche
 tipp e
 decrease s
 misunderstan ding
k idding
racus e
 confesse d
 Hone y
 tota ls
 Technica l
 Wa lle
 prepare s
 MT V
 dec omp
 Has ke
 gradua l
 Mac e
 crusa de
 syn on
 bigot ry
 campaigne d
 Tys on
 e licit
 c loa
 p roactive
 inflammat ion
 L ieutenant
k ilog
 c ollusion
 rule r
 Rif le
 capp e
 invade d
 magnificen t
 tendenc ies
 puzzle s
 snip p
 Blocke d
 ma lt
 tables p
rcas e
 " "
 defu n
 situate d
 DH S
 Me dium
 Strateg ic
 line ma
 valua t
linit y
 sort e
 -- >
 bake d
 Relate d
 newb o
 insult ing
 interva ls
 App lication
 outw e
 incub a
 synon y
 king s
 restrict ive
 trump e
 unaf f
 diff u
 Docu ment
 Zhan g
 incuba t
 not ions
 simp lify
 Fact ory
 Ha rde
 Ju ve
 LE G
 Heathe r
 Trans la
rac ially
 expe lle
. ..)
 baf f
 Mec han
 milita r
 newbo rn
 G rade
 village rs
 diffu s
 theoret ically
 Caval ie
 ba p
 Hat e
 I z
 Sing e
 Is n
 RN A
 prece ding
 inte s
 Benga l
 Keys t
 Transla t
 discrepan c
 G n
 Phant o
 plug g
 overfl ow
 Dan iels
ra dient
 Flye rs
 La f
 unleas h
 conflict ing
 15 00
 F orward
 Prett y
 Seven t
 sche ma
 enterta ine
 toughe s
 catalys t
 toughes t
 Lee ds
 UA E
  ore
 Aj a
 23 0
 tablesp o
 Understa n
 le e
 tablespo on
 K B
 inexpe n
 inexpen s
 prefe rs
 spe lling
 inexpens ive
 Patte rson
 diagn ost
 intes t
 Decla rat
 N iels
 cumu la
 b londe
 blue s
 communa l
 ( (
 Has t
 M oc
 plant a
 ne ighbouring
 McG u
 Cybe r
 bitc h
 pac king
 Witc h
 loc king
 yea rly
 smile s
 f ills
 impe rf
 Inte rf
 reconc ile
 supe rp
 sna t
 Sca l
 expelle d
r ibble
 infect ious
 pen insu
 downp la
 downpla y
 Sut t
 peninsu la
r idden
 urge s
 Duc k
 rotat ing
 simulat ions
  â
 sun n
 Mya n
 disturb e
 eg re
 snat c
 Feature s
 emiss ion
olog e
 cumula t
 underta king
 multitu de
 gigant ic
 sle w
 vocabula ry
 Fu c
 alert e
 L R
 guess ing
lit re
 K lu
ра Ð
 installat ions
 Dung e
 V S
rg ian
in dications
 Sen d
 Ava ilable
 imperf e
 passe r
 Myan ma
 applau s
 imperfe c
 craft s
 imperfec t
 C hapman
 score r
 su lf
 De w
¾ т
 alerte d
 condemnat ion
 impa ire
 accumulat ion
 applaus e
  idle
 affect ion
 amaze d
 vaccinat ion
 Fitzg e
 impaire d
 NAS C
 Fuku s
 Caus e
 Keyst on
 b iot
 hate s
 Keyston e
 c ommercials
 const e
 E I
 recons ide
 As c
 Fitzge ra
roope r
 Platf o
 He lle
 ty re
 C havez
 celebrate s
 defense ma
 defensema n
 lecture s
 pay c
 heartb re
 heartbre a
 s hale
 pu rge
innes s
 Aze r
lif ications
 Geog rap
 front s
 disproportionate ly
 F lowe
 jihadist s
 stip u
 inve rt
  rituals
 H out
 gun n
 ignit e
 smugg ling
 A rray
 parasit e
 S olutions
 ----------- -
 NASC A
 dictiona ry
 disturbe d
 ensu e
 E B
 Guat e
 NASCA R
 Linds e
 acquit t
 descendant s
 ru more
 cybe rse
 CI T
 suppress e
 coache d
 Ma rijuana
 F rase
 Fukus h
 Won g
 Setting s
 communis m
 crypt og
 Les l
 confiscat e
 stipu la
 MA T
 Myanma r
 Suf f
 bisexua l
 cu rat
 Haske l
 pinc h
 expenditure s
 Guate ma
 Xe n
 flag g
 stipula t
 Lindse y
 insurgent s
rcla y
 Den t
 Bene dict
 rumore d
 Saf a
 concea l
 expecta n
 mart y
 Fa ls
â 
 disc riminatory
 specif ication
 Fitzgera l
 Guatema la
 Fitzgeral d
 foa m
rc s
 practitione rs
 wande ring
m mering
 Hit c
 fastb a
 refun d
 slas he
 ge ms
 cle rgy
 consult e
ï ½
 traumat ic
. —
 K S
 Platfo r
 bap t
O riginally
 V olt
 fren z
k inny
 ) :
 se duc
 Mone t
 unreasona ble
 gee k
 Dre s
 BA R
 decreas ing
 tenta t
 ma lf
S imilarly
 Jane t
 configure d
 frict ion
rcis ing
 rest s
dien s
 Key n
 con e
Ã ¦
 Fukush ima
 17 6
 g litc
 dynast y
 cemete ry
 wa rt
 Un kn
 le is
 C omments
 pett y
 quantit a
ract is
 Dog s
 Kn e
 quantita t
 p olished
 C ourse
 mocke d
inp o
 Geograp h
 municipa lities
 Dec a
 tsuna m
 n icotine
 Lesl ie
 WIL L
 Cope nhagen
 b rigade
 excellen c
rct ica
 Custo m
 harde n
 En s
 Nissa n
 Ope ra
 peculia r
 tsunam i
 unset t
 cyberse c
 consulte d
 fortune s
 C opp
 alle viate
 ju diciary
 payc he
 M K
 Opposit ion
 tippe d
 Standa rds
 Acc u
 F ry
 jun c
ö r
 Manit o
 contradict ion
 cybersec u
 hist ories
 Nu g
  insign
 c hronicle
.’ ’
 Psych ology
 Assa s
 Supple ment
 bubble s
r icated
Å 
 cybersecu rity
opu ls
 Osa ma
 Stock h
 195 2
 outg oing
 fade d
 chas s
 dispatche d
 blen de
 sche duling
 nan o
 poa c
 Haskel l
 bru n
 interpretat ions
 Fu j
 cross ove
 Ra de
 Manito b
 Manitob a
Ø ¯
 Awake n
 intercon n
 DI S
 Roche s
 Sca le
 employ ing
 interconn e
 15 2
 Docke r
 interconne c
 interconnec t
 princes s
 cumulat ive
 In a
 masterp iece
 tea ring
 Frase r
 L ords
 P t
 Tac o
 che rry
 s inking
r opuls
r rigat
 Pat c
 float e
 Cyp ru
 Cypru s
 [ …
 Ve rn
 snipp e
ã ³
 IC O
 free w
 phenomena l
 monu ments
 C is
 Construct ion
 instinct s
 plug ins
irmat ive
 K N
rc harge
 Rege n
 junc t
oile rs
 esp ionage
 se mes
 rent s
 sac ke
 manifest o
 11 9
 New a
 None t
 unma n
 semes t
daman t
 dist ru
 fea rf
 partne re
 fearf u
 millenn ials
ide og
 Cert if
 boost ing
 EVE R
 geograph y
 Sn e
 Short ly
 partnere d
 Assas s
 fulf illing
 penetrat ion
 strengthen e
 Yu g
 disrupt e
 outside rs
 Nonet he
 fe minine
 sla c
mele e
 12 4
 millenn ia
 Nonethe le
 Nonethele s
 Nonetheles s
 passage s
  kindness
 cryptog rap
  !=
 mandate d
 M igue
 dragg ing
 Kee n
 Roches t
 rede f
 Sent ine
 longs t
 Ga e
 S harks
 fu z
 Fee l
 concuss ion
 excellenc e
 py t
 conde n
 p t
 re ddit
 hatc h
 supple ments
m ilarity
 Java s
 Unkn own
 Pay P
i milarity
 Rochest e
 Popula r
 start ling
 dispatc h
h omemade
 Innovat ion
 deg rade
 longst a
 longsta n
 un rave
 Kit t
 N inj
 longstan ding
 trun k
  ip
  racially
 L M
 semest e
Ù 
 suns e
 strengthene d
 regulat ing
 stee r
 reading s
ras a
 Interesting ly
 Ma rriage
 sacke d
 Frontie r
 Spot if
 recta n
 tentat ive
 ecosyste ms
 homewor k
 concu rrent
 Lan ds
 rectan g
 Aske d
 play ma
 sunse t
 finance d
 gunf ire
 emulat e
  melan
 Motor o
 eva s
ou z
 Rut g
 Rutg e
 Javas c
 Rocheste r
 statue s
 PayP a
 Platfor m
 tast ing
 Stockh o
 quantitat ive
 16 2
 gu iding
 Motoro la
 en u
 sn if
 acc re
 genre s
 193 3
 compete d
 open n
 varian c
 varianc e
 Upg rade
 ------------ -
 Alle g
 understa t
 Javasc ript
 t ore
 Stockho l
 sorte d
 fulf ille
 overst a
 legen ds
 Declarat ion
 fata lly
 jewel ry
r inary
 youth s
 Spotif y
  indications
 France s
 News le
r rage
 A viation
 Kae p
 Article s
 Newsle t
 fulfille d
 Creat o
 Mess e
 Newslet t
 frontie r
ina lity
 Newslett e
h ickness
 Tele c
 ens la
 grave s
 Migue l
 openn e
 Un if
 ref rigerat
  mercu
 inflammat ory
 t railing
 Pa b
 chase d
rophe c
 unde rcu
 VP N
d opamine
 cartoon s
 misg u
 pestic ides
 rea lizes
 Gues t
 Bat e
 existentia l
 openne s
 sta s
 Battle f
 frate rn
 opennes s
 Publish ing
 ba rt
 song w
 pump ing
 Organis a
 feas t
 works hops
 rock y
 unleashe d
 16 8
 unava ilable
 Organisa t
 imp lication
 laten c
 PayPa l
 condit iona
 screen e
rwea r
 brief e
 WATCH E
 fascinat e
 sce p
 Len o
 Su dden
 scep t
 Shann on
 cons ort
 defect s
 F ields
 kn ive
 Canna b
 organ izational
 app lian
 Custome r
 cock p
r iddle
 D ict
 pray ing
 vegeta t
 applian c
 applianc e
 gravitat iona
 def la
 IN F
 cockp it
 unexpecte dly
 Coc a
rrea c
 Mart ian
 knive s
 oversee ing
 metabo lis
 African s
 holding s
 McL e
 splitt ing
 visua ls
 pea ks
 f rameworks
 McKe n
 fe rry
 parent ing
 y ielded
 challenge r
 mona s
 Cat c
 RE P
 distru s
rc it
 Wit t
 shortc oming
 tea me
 Conno r
 monas t
 te rmination
 sketc he
 wish ing
ige rian
 chass is
 philosophe rs
 Cyc ling
 Ra is
 Stockhol m
 [… ]
  kidding
 notorious ly
 Kla n
 insurgen c
 Kaep e
 V ive
 Hollan de
 WATCHE D
 pump e
roope rs
 Sub j
 Ca c
 dog ma
 truste e
 e mitte
 penn y
 energet ic
 def y
 Kaepe rn
rac on
 distrus t
 Res ort
 assassinat e
 O M
 len t
 Tradit iona
 ceremon ies
 declare s
 12 9
 Ninj a
 pes s
 My S
 slogan s
 bacteria l
 f lipped
 vit r
 M N
 conden s
 Kaepern ic
 Kaepernic k
 nu n
å 
  homemade
 AN Y
 conque s
 conques t
 orient e
 Pa w
 ince s
  og
 construct o
 infilt rate
 Ka g
 Web e
 P ilot
 handle r
rc oa
 Menta l
 Ran da
 contracept ion
 generato rs
 misgu ide
 s inist
 undermine d
 GI F
 Opp ort
 elu s
 V og
 Opport u
 Opportu n
 Ale rt
 unhea lt
 nu de
 snif f
 downt u
 unhealt h
 Patien t
 Pu re
 Ske t
 exclu ding
 trigge ring
 Nata l
 motivat ions
T hursday
 escalat ion
 soc ks
 st randed
 Measu re
 B oulde
 McG re
 Sub a
 bee t
 Amaz ing
 elus ive
 Ep s
 Vis t
 wre a
 reta ining
 progresse d
 MI N
rs ible
 Sa lly
 ortho d
 E dgar
 Santo ru
rna u
 b ids
 butte rf
 counte rf
 Secu rities
 B N
 filing s
 defla t
 na rcissis
 spraw ling
 square s
 Twit c
 mapp e
 orthod o
 orthodo x
 denta l
 Â 
 Pengu ins
Ñ 
 191 4
 Guant a
 down g
 Samp le
 f init
 Newa r
 RO M
 cove t
 respecta ble
 Hann it
 Kabu l
lon is
b ricated
 lose rs
 Hannit y
 McC u
 Tan n
 MH z
 bureaucrat ic
 Guanta n
 Sa x
 s odium
 vacan c
 Leg o
 Santoru m
 Wa rf
 Pit c
 resist ing
 break out
 seat ing
 Dunge on
 ant is
l icating
 leis u
 Unc le
 fearfu l
 unde c
 13 2
 Chee s
 leisu re
 Guantan a
 Zucker b
 M ozilla
rg inalized
 Clea r
 Def init
 vis c
 Ba lla
 p ractis
 == =
 Guantana m
 Rutge rs
 V olks
 reject s
 Luc y
 caffe ine
 Ve rt
 cancellat ion
 statut ory
 matu rity
 redistribut e
 Burge r
 Î ±
 Guantanam o
 Un e
 linea g
ö n
 Pert h
o rocco
 restrict ing
 lineag e
 P ries
 ------------- -
inpo int
 Len in
 stress f
 imag inary
 syn e
 stressf u
 metabol ic
 insisten c
 Block c
  liking
 balance s
 She f
 WW I
 conque r
 imp ove
 monkey s
 stressfu l
 flus h
 vanishe d
 testa ment
 assist ing
 Sket c
 A mp
 b raw
 muta n
 Kaza k
 counte rs
 Ret a
 chee ring
 disca rde
 Advis ory
 dy e
 Newar k
 E volution
 conceptua l
 regene rat
 insistenc e
 PTS D
 bart e
 lus t
 Cont ine
 cance rs
 preva iling
 gas t
 vis ions
 cub ic
 discarde d
 sinist e
 consultant s
Ã ´
 Vande r
 Hut c
 Zuckerb e
 ass ort
 cease d
 speculat ive
 Fus ion
 15 1
 12 6
 fuz z
 standardize d
 disp ose
 elect rons
 compa rt
 195 1
 Blockc ha
 P harmac
  dopamine
 circuit s
 PE R
 expan ds
  rigge
 Zuckerbe rg
 stu mp
ra dation
 A brams
 payche c
 Quest ions
 snippe t
 withstan d
ha lve
 Analy t
 Gus t
 hea le
 impress ions
 inge n
 21 0
 Kat r
 Rec ip
 telecommun ications
d ominating
 Age s
 fort if
 Subj e
 pyra m
 scale d
 191 8
 ju dgments
 melt e
 Statu s
 Twitc h
 M ickey
 W orlds
 Create d
 193 8
 sixt e
 translat o
 Subje c
 acoust ic
 misguide d
 pumpe d
 decept ion
 swing ing
 nau s
 Subjec t
 aut oc
 tempt e
 L inks
 Econo mist
ron x
 Sa dly
 gut t
 Ma a
 Anta rctica
i viding
 sixte e
 Cag e
 sixtee n
 Ana he
 condemn ing
 Malays ian
 Cons o
 When e
 P ike
 diffe rs
 sacrifice s
 prope lle
 Pixe l
 Whene ve
 Wheneve r
C omments
 CL I
 graduat ing
m oured
 hijac ke
 Monito r
 Requ ire
 Sp ike
 siniste r
 Atte n
 Chan d
 disrupte d
 bree z
 et han
 Anahe i
 Anahei m
 Bala n
 13 3
 naus e
 sta u
 understat e
 texture s
raine rs
 nostalg ia
oun dup
 qua ke
 depress ing
 elevat ion
 te rminated
  kilog
 a mbiguous
 Ton ig
 Tonig h
 F innish
 Hanna h
 Napo le
 Tonigh t
 oriente d
iamon ds
 pon y
 I X
 nutrit iona
 tempt a
 Pries t
 clean u
 p irates
 C ritics
 heft y
 cleanu p
 possesse s
 tempta t
 tu rf
 t rolls
  millionaire
 YO R
 conse rvatism
iga b
 La mp
 melte d
 burden s
 May e
 downtu rn
 en durance
 ext ort
 pyram i
 C oordinat
 Elect ions
 cappe d
 lay s
Ð¾Ð »
 oversee s
 rew ritten
 batt a
 ostens i
 ostensi b
 ostensib ly
 tempte d
ima x
 pea ke
 presume d
 Quot e
 confine ment
 succu m
 succum b
 IS S
 punche s
W ritten
 Lanc a
 keyw o
 keywo r
 scout s
 tamp e
 unfa irly
 Opportun it
 Transf o
 wa ving
 DI Y
 Rosen b
 pyt h
 screa me
 pla qu
 Ris k
 Conce p
 insult s
 YOR K
 plaqu e
 alte rat
 Dian a
 FA A
 PH O
 folde d
 play f
 orde a
 unus e
 prec u
 tone s
 tan ke
 GU I
 Kazak h
 entitle ment
 outwa r
 Ranc h
 fratern it
 Ugan da
 Contine n
 Gif t
 Saskat c
 lega lized
 keywor d
██ ██
 Fa h
 guesse d
 Runn e
ige on
 Saskatc he
 Saskatche w
L ouis
 Ede n
 I ve
 Hat c
 gle a
 face t
 Saskatchew a
 Saskatchewa n
 Con dit
 gravitationa l
 pu f
 We lling
 sma c
 ye n
 g ing
 Treasu re
 pipeline s
i rring
 t hinkers
o lonis
 bet s
 pn e
 transfe rring
 b ille
 CB D
 metabolis m
 Kan y
  ال
 Rog u
 ec s
 mutua lly
 pyth on
 Lanca s
 Asse s
 Multip le
 Continen t
 puf f
 Iranian s
 Sout hamp
 Southamp t
 exe rcising
 playg r
 playgr oun
 C ory
 playgroun d
 SHA R
 sp ies
rn iva
 Brun s
 unuse d
 Sy racuse
 reinve n
 Vau g
 heterosexua l
 class ics
inna mon
 reinven t
 teame d
 fet u
 tun ing
o dging
 Hu e
 Develope r
 aut ops
 filte ring
rag a
 pne u
 aff lu
  roller
 Ka w
d ophile
 rigge d
 ts p
 Was s
 bis hops
 ice b
 resent ment
 hazar d
 stare d
 D W
 begg ing
  à¤
igu a
 Croat ia
 escap ing
 Ke t
 afflu e
 afflue n
 R ouge
 Rec ove
 markete d
 satu rate
 Azer b
 Tat e
 Mat a
 P rotoc
 stau n
 LD S
 NV I
rga rt
 Azerb a
 Ce re
 Propert y
 scru b
 massa g
 sew e
 t hirteen
 foc a
 Ra qqa
 staun c
 circu s
 eu p
m idating
 Rafa e
  melee
 OP E
i midating
 ecs t
 ecst a
 stew a
 Rogu e
 catalog u
 Eye s
 fetu s
 Camp u
 Ge s
 disma y
 Sus t
 Cle ment
 J orge
 POLI T
 peake d
 Ma he
 Southampt on
 f ridge
 b ragg
 distort e
 Ð½Ð °
à ²
  mens
 melt down
 mutan t
 300 0
 P ray
 ma rginalized
 rese rvation
 Huck a
å 
 O ile
 backpac k
 Instru c
 Pus h
 inspecto rs
 Reade r
 17 2
 discount s
 spear he
 spearhe a
ris ke
 hazar dous
 Webe r
 booste d
 13 1
 Azerba ija
 Boulde r
 Hucka b
 That c
 separat ing
 Azerbaija n
 Singe r
 u h
 context s
 Proble m
 Rive ra
 Bus t
 O rient
 p rops
 Minute s
 transit ions
l oured
 Instruc t
h ooks
 Evan g
 ca rriage
 hesita n
 pledge s
ropuls ion
 ensure d
 distorte d
 S ims
 package d
 Beaut y
 inhe ritance
 Asses s
 depict s
 Drive r
 Ecuad o
 Import a
 unse e
 POLIT I
 S iege
 Spee c
 Za k
 a damant
 une n
 topp le
 execut ions
 D ort
 encourage ment
 Crus a
 M ilt
 Au dit
 Jagua rs
 outline s
 Ten s
 dreame d
 s haft
 linge ring
 there of
 usa ble
 behe a
 spu r
 circum ve
 circumve n
 circumven t
 envision e
 NEW S
 PB S
 Play ing
 Su rp
 envisione d
 noteb o
 blockbuste r
 ove rreac
 ove rweight
Ñ 
 Cauc a
 bac he
 notebo o
 noteboo k
 13 4
 Et e
 alliance s
 POLITI C
 resu rge
 16 3
 bis h
 possess ing
 slice s
me rsive
 Sexua l
 cinemat ic
 take a
 Evang e
 Where a
 confess ion
op ology
  dominating
È 
 Azu re
iden ds
v idends
i vidends
 Campu s
moc king
 A rgu
lifie rs
 congratulat e
 Clinton s
 Mea t
opla s
 Blockcha in
 Phanto m
 Rams e
 Write r
ã ¾
 Qua ke
 Sp y
m mersive
 earthquake s
 Rafae l
 Islamist s
 193 6
i rrigat
  raft
 by e
 musc u
 condition e
o rgian
 bache l
 b ooming
 skew e
 Acade m
 copy ing
 dealing s
 incompa t
 Yu k
 unhealth y
 takea w
 takeaw a
 pa mp
 takeawa y
 Eng e
 Fly ing
 SP O
 t hickness
 uninten de
 B ronx
 Tat a
 finit e
 sta le
 15 3
 16 6
 surpasse d
roc ious
 rede ve
 Chan dle
 cryptograp h
 V ine
 nerve s
 punch ing
 VI P
 unintende d
 Cavalie rs
 C ody
 pala t
 collate ra
mis f
 Institut ion
 K P
 excee ds
 D oing
 redeve l
 Mac B
 Wolve r
 gentle ma
 gentlema n
 Ba rclay
 McLa re
 coordinate s
 professiona lly
 McLare n
 Change s
ilate d
m olished
 A bove
 DO M
 ava t
 pe re
 Juve n
 Son n
 best s
 Wherea s
 un g
 HA V
 pru de
 calle r
 ty ing
 perpetuat e
 entrenc he
 fun k
 Bas h
 Da vidson
 Scot ia
 M og
 Keyn e
 s hields
 betray e
 stag ing
 Crusa de
 amount e
 amounte d
 but c
o mmits
 Tan k
 f inalized
 aut omot
 su rrogat
 Keyne s
 de it
 textb o
 zon ing
 N igerian
 newcome rs
Ð¾Ð ¼
 genet ics
 surrogat e
é g
 assign ments
 setbac k
 Mun icipa
 Range r
 IG N
 continent a
 intercept e
 : =
 ensu ing
 Importa n
 correct n
 egre g
 Fals e
 un imp
 correctn e
 correctne s
 intercepte d
 HE A
 correctnes s
 avat a
 Ans w
o miss
 Disp a
 catche r
 Kru g
 quot ing
 Vist a
 semeste r
 announce s
 discipline d
 misc a
 Answ e
 Fa y
 automot ive
 Wen dy
 na ils
 tre s
 c ries
 cus h
 p inpoint
 Ivan k
 resurge n
 Got t
 decept ive
 nationalist s
 Jenn ing
 swing s
 Thatc he
 topp ing
 dump ing
Ã 
 ID E
 betray a
ã 
 Hawai ian
 endeavo r
 collect s
 correct ions
 twea ks
 Cauca s
 ray s
 16 4
 NVI D
 REA L
 imperia lis
 standa lone
 Chandle r
 miscon c
 piss e
 W N
 misconc e
 Shef f
 ensla ve
 stagna t
 bureaucrat s
 H Q
in ican
 alt a
 homeless n
 homelessn e
 homelessne s
rgon e
 chant ing
 homelessnes s
 Scal ia
d igre
 foca l
 unrea list
  т
 AA P
 Jenning s
 NVID I
 NVIDI A
 erect e
 erecte d
m inican
 Depen ding
 give a
o minican
  hay
 court house
r imate
 FR A
 b ing
 SI M
 att ractions
 audit ion
 Caesa r
 Ecuado r
 fascis m
 Organisat ion
 Chees e
 curve s
 Weave r
 Wis e
d icative
lons o
iche ve
 Interst a
 T ools
h icheve
 egreg ious
hicheve r
 upg rading
 Popula t
 G rande
 counte rt
imat o
 reelect ion
 A rian
 fatt y
 givea w
 giveaw a
 giveawa y
b mitting
 computat iona
 mot ions
 presentat ions
me lls
 Intersta t
 devise d
 rea f
 Interstat e
 Leaders hip
 B oost
rama n
 AL S
 blu s
 refle x
 sunn y
 twea k
 Donn a
 outs e
 regret t
 Sun de
 Caf e
 great n
 greatn e
 outfit s
 U z
 cla mp
 greatne s
 se is
 Restau rant
 greatnes s
ç 
 c orona
 net t
 Ivank a
Å £
 CEO s
 Che rry
 Inclu de
 Tunis ia
 George t
rac ious
 Huckab e
 We ine
mmet ry
 Green la
 Ken d
 Ta ma
 Huckabe e
 precede d
 renewable s
 continenta l
 reaf f
 Effect s
 Support e
 Q U
 tau n
 Spring f
 imperialis m
 outside r
 invite s
 ten e
ä t
 14 9
i ronically
 bish op
 denot e
 stock p
 sa iling
 outs kirts
  irrigat
 Auc k
 multip ly
 latenc y
 imp licated
op og
 impa s
 he misphere
 Ga le
 intellectua ls
 Bene f
 Gun s
 N X
 Auck la
 Auckla n
 taun t
 linema n
 Consequen t
 Je e
 Sentine l
 exa ms
 Pass e
 Stru c
 ordea l
 IR A
 Sketc h
 f ount
 Napole on
 standing s
 unc a
 Gen de
 s imilarity
 Dono va
 port e
opath y
 Say s
 ave rt
 myste ries
 protest o
 Cana diens
 implementat ions
 draft s
 fore he
 forehe a
 screame d
rott le
 Donova n
 McGre g
 Tu rks
 representat ions
 Cons idering
 assert ions
 simp lified
 P romot
d ividing
h rottle
 Stre n
 independent s
 enlist e
 fe c
 27 0
 IPC C
 Dw ig
 Sta p
 imprope r
 Repe a
iwa l
 Ax e
 Dwig h
 Dwigh t
 wiza r
 Katr ina
 L H
S omeone
 haunt e
 spawn e
 stea ls
 rove r
  halve
 Docto rs
 la vis
 Interf a
hama n
 Basket b
 McGreg o
 mate s
 pressure d
 t ray
 Nea l
 bount y
 Oile rs
rag s
 Drea ms
 knock out
 nove list
 entrenche d
ielde rs
 blade s
 Sen e
 protect o
 McGrego r
 Ta j
 note w
 supply ing
 -------------- -
 notew ort
C oming
 Fat e
 impas s
 owe s
 notewort h
 Acto r
ã 
 Basketb a
 recreat ion
 maneuve r
rne g
 dis da
 acquaint a
 deprive d
 expans ive
 secret ive
 haunte d
 acquainta n
 acquaintan c
 Quarte r
 acquaintanc e
  misf
 Prep a
lip e
v olutions
rcot ics
 GR E
 Packa g
innat e
 ca va
 spreads he
 spreadshe e
 Cous ins
 spreadshee t
 gu ru
l odged
 Basketba l
  diary
 ethan o
 Res olution
 p ops
inde rgart
 Mac D
 noteworth y
 Basketbal l
 Prospe c
 cultivat ion
 mot t
 Wa c
 sau s
 C loc
ommiss ions
[...]
