#version: 0.2
  t
h e
  a
  s
n d
  w
 t he
e d
  b
 t o
 a nd
  h
  f
i n
  T
 w a
r e
i t
o u
  l
  d
  c
  p
a y
  m
e r
 wa s
o m
 T he
  he
i s
a r
  n
i m
o n
 s a
i d
l l
 h a
  g
a t
  S
in g
o t
e n
a n
l e
o r
e nd
i r
o f
a m
e t
  H
  it
 t h
i g
 The y
  in
i l
 p l
 H e
  "
o w
v er
r i
u t
 b e
  u
 sa id
 pl ay
it h
 d ay
 w ith
p p
O n
  y
o o
k ed
  r
e x
 he r
c e
  I
 S he
l d
 T im
 h is
 s t
k e
 b ig
n t
c k
 y ou
ver y
s t
v e
  on
u n
 ha pp
ri end
 f riend
a ll
il y
ex t
  L
 the y
of t
 w e
 ha d
 n ot
 l i
 u p
he r
 wa nt
  of
a d
it t
< |
| >
end oft
endoft ext
s e
  B
 d o
  e
 happ y
en t
  very
  M
e s
 th at
 sa w
On e
' s
ou ld
 m om
 f or
 s h
itt le
 l ittle
 s he
c h
im e
 n am
. "
 t ime
  k
ou nd
 s o
 the re
 nam ed
 s m
 b o
 we re
 L ily
 n e
 want ed
 b ut
ou t
T he
 friend s
v ed
! "
h t
 T om
ir d
e l
 b ird
a l
 a n
a ke
 to o
om e
 I t
u g
id e
 w ent
 w h
 he l
On ce
  is
 a ll
 hel p
u e
 l oo
 l o
t er
  A
 up on
r y
o re
i nd
 f un
g et
 to y
i ll
am e
 a s
 a t
r a
  j
 d id
get her
  re
u r
  o
 s e
 to gether
a ck
 c at
l y
 t re
oo d
i c
t ed
 do g
 c ould
 c an
 the ir
ar d
e c
ar k
 g ir
 play ed
 h im
 b all
? "
 gir l
 r o
w ay
 g o
he d
m y
 a re
  out
 l e
 f r
a in
 k n
he n
 the m
u m
' t
a x
 sa d
u l
 bo y
 tre e
ot her
 ha ve
 m an
 c l
 lo ved
 loo ked
ou g
 f ound
 s p
 st ar

 

 S ue
on e
h ing
 s c
 b ack
ow n
 M ax
a re
 li ke
f ul
s ide
 m e
 be c
 p ark
ig ht
on g
 c ar
o p
el t
  One
 li ked
 w ould
 m ake
r ound
 l a
 f a
 f elt
Y ou
  W
e ll
 se e
 B ut
om et
 as ked
a g
 ne w
 n o
i ce
 S am
ou se
 star ted
ar ed
 c ame
 B en
 a l
  other
oug ht
il ed
 s omet
 a g
 g ood
 sm all
s s
 b r
 sm iled
 s ay
ri ed
ad e
ing s
  

o b
p ot
 w or
 f ind
i a
 a way
t y
 p ut
  ex
 wh at
 somet hing
 fr om
 m ade
 th ought
en ed
 h ome
 play ing
 c o
oo k
 e very
 wa l
 m u
u c
a ch
ar n
 S pot
 r an
i le
  F
i e
  J
a ve
 ag ain
 s ome
 la ug
d d
 h ouse
 d own
 f l
k ing
 too k
 sc ared
 p r
n y
u re
 toy s
 le arn
  You
i f
 w ill
 bo x
i ck
re t
a b
e p
 m y
 a round
 th ings
 you r
ou d
 b l
u ck
 w hen
is h
 li ved
 f e
 the n
 s un
a s
 s w
, "
 c h
u s
pp ed
 a b
 M ia
an k
 g et
uc y
T im
um p
T h
 l ot
is t
ot h
 t ried
a p
 kn ow
 say s
 g ot
it ed
 wh o
 kn e
u st
 man y
nd er
 in t
 ab out
L ily
 p ret
 d ec
 an y
 r ed
  D
i ve
 kne w
a ce
ou s
 m ore
is e
  v
 c are
all y
 p ic
a u
q u
 h ug
 L ucy
 learn ed
 p o
 wa ter
f ter
 bec ame
 be st
au se
 o p
 g re
 ex c
ur p
way s
� �
 out side
 laug hed
 loo k
 al ways
 dec id
 sh ow
 u n
an t
 B ob
 ro om
f e
 decid ed
 h o
 bec ause
 int o
 S o
 e at
it e
 j ump
 A nd
 p e
 b oth
er s
 M om
The y
 d ad
u dd
  ke
 on e
n n
 th is
 exc ited
 fa st
 n ice
  E
 fe el
T om
Y es
 r un
 l ong
 to ld
 s k
 a m
urp r
ou r
 in side
u ll
 t r
 s urpr
 m o
in k
 pret ty
in y
 s or
W h
 t ake
o g
 s l
 e ach
 g ave
 mu ch
 g ra
le w
nn a
 ro ck
 h ow
 st r
ar a
im al
 an imal
g ed
 ne ed
 th an
B ut
v en
et ter
 to w
  or
  C
 u nder
es s
 o ld
 sor ry
g e
is ed
r o
ur t
 c le
 f ish
 wal ked
 cl o
a nd
 be ar
a se
a st
 ha nd
ur n
 W e
 k ind
 H is
he re
 happ ened
 j ust
 fl ow
 f ood
 l ist
 did n
 t e
 animal s
 h ig
p l
 ne ar
 wa t
  ide
 t ry
c hed
 sk y
in e
 s n
v ing
 f i
r om
 u s
 ide a
 b etter
 A my
 b ug
 he ard
g ry
 it s
 t w
 l et
p ec
at e
ab le
f f
  en
 care ful
 sh are
  if
Th ank
M om
 f ly
 st or
i al
 f lew
m ore
 any more
 T h
 sp ec
 spec ial
i on
 c om
 lot s
 ne ver
 b y
l f
re am
 d an
 b u
 f o
 w ind
 d on
 t al
 cle an
or t
 g r
 lo ve
r m
b er
  end
 The n
op le
 e ven


 

 m ag
 h ard
 sh iny
udd en
 f ore
 o ver
 c ake
a k
 b ook
 co l
 t urn
 f am
 b ad
 sa fe
 a fter
ad y
 A nna
udden ly
 pe ople
 pr oud
 E very
 surpr ised
pec ted
L et
 hig h
 c u
 h urt
 c ome
im b
ard en
 do or
 g arden
b b
 g round
 op ened
 pic ked
 l oud
 cl imb
ex pected
 un expected
 g l
 c he
il d
  im
A s
 g ive
 wa y
a il
' m
 than ked
 col or
 bl ue
 st ill
 e ver
 hug ged
 c all
 F rom
 f ar
i p
 H er
 S ara
 W hen
N o
 of f
 mag ic
i z
oug h
ag e
um my
  K
 jump ed
 sh ould
 fam ily
 p ar
oo l
 k id
 sm ile
he s
u ff
 pl ace
k ay
 wal k
 n ow
c t
 I n
 gre at
e m
  qu
le s
 str ong
 st ay
 u nt
 st o
a ut
 fore st
t ure
an e
 b ra
itt y
  P
 fr og
 br o
 unt il
o on
 be aut
d y
 s qu
 st ick
 n ext
 bo at
le ase
n ing
 happ ily
 list en
a king
 kid s
 t ra
i es
i ful
 beaut iful
 a pp
t h
 help ed
 d ra
 show ed
 clo s
b e
 im p
 stor y
un ny
o y
 wh ile
 tow n
re l
p t
 r ain
re ss
 pic ture
 be ing
 re m
I t
 every one
ar y
re e
 m or
 ha t
 call ed
 m et
 sto pped
 a d
H e
 g ame
N ow
 w o
C an
 an gry
g er
uff y
 s oft
 op en
 tr uck
 ke ep
W hen
 c ry
 y ummy
 lo st
 b ed
 L et
 S ally
 wa rm
b y
v ent
 bra ve
 m ouse
 W h
 at e
 K itty
is hed
 d e
f ore
 do ll
s o
 could n
 wat ch
 le ave
 al so
dd ed
 f ell
 gre en
 fa ce
 tw o
g an
is s
 flow ers
b it
Wh at
  R
b le
 no ise
ab bit
ir st
ow l
 w here
a z
o ck
 so on
se lf
 sl ide
 r abbit
 ho le
l uffy
 be fore
ir rel
 p us
ir ed
 sa t
ill y
 he ar
 u se
� �
H i
 p a
 ke pt
� �
Th at
 squ irrel
The n
e ar
m a
 no dded
 ex pl
 st ore
 c ook
 hand s
L ook
 bird s
 p ain
 go ing
 fun ny
 ha ving
d ay
 s ing
ay be
u ch
 e y
a ug
 cat ch
aug ht
 C an
 F luffy
u it
 y ell
 th ink
le ep
 c ra
 f in
B en
 b re
 fi x
 t ired
 b unny
 us ed
 loo king
 b us
an ge
a ir
 wor k
 w r
t ing
  our
 p ull
W e
 th r
t hing
 wa it
  Now
 k it
 s ound
 j o
 ha s
  G
 me an
 po nd
em ber
 be h
 d r
 sun ny
l ed
 other s
 as k
n g
c hen
 kit chen
 tal k
 fl o
 d if
re w
 p ie
 he ad
 re al
 J o
 f irst
 t ri
 mom my
 ey es
ell o
 imp ort
H ello
 fa v
at h
j oy
  z
 rem ember
 r ight
 flow er
 c on
 m ess
 par ty
 co ld
 D o
 v o
 sw e
i ous
f t
 sa nd
a c
  “
or n
 r ace
 cu ri
im es
 import ant
 d uck
 mor al
 sh ared
z y
ou nt
 J ack
  ice
 o kay
 ad vent
 wor ked
ll ow
A t
 en joy
 d ress
 br ight
 m aking
 curi ous
  own
 t all
 d ir
 h op
re ed
 h id
 fav or
  ri
h n
 s leep
 d is
W ow
 favor ite
 th ing
 be gan
 m on
 b ag
 h ill
D on
 cl a
 dra w
 re st
 he re
 y ard
 t ell
 F in
st er
 wat ched
q ue
 fo llow
 mo ve
 be l
ec t
 c ut
 n ight
 ag reed
 p ick
c o
 bl ock
 h un
ap er
ll y
 st op
 beh ind
 Th is
 surpr ise
i ed
 sh o
 h ot
A fter
 t able
 gra ss
 wor ry
 d ark
 tre es
 vo ice
 wal king
fe re
 flo or
 far m
 li on
 to p
 dif fere
 p lease
 r u
 s ong
 but ter
 t ail
 swe et
M ax
 sh out
 color s
 re ad
 l ady
 D ad
 for g
is y
 leave s
 clos er
ig n
 car s
 turn ed
 need ed
 t ast
Wh y
ar ing
 w ood
 c ried
 differe nt
 laug h
 d el
 pie ce
� �
er ed
 M r
 ro ll
 advent ure
 fi re
 do es
i ke
 c r
 hun gry
 ha ir
 S uddenly
 p aper
 feel ing
 yell ow
 f ull
b o
 pr in
S ue
 to uch
S am
A nna
 A s
 w et
 friend ly
 p er
o om
k en
c ked
a ched
 sw ing
 fr uit
i ent
 bro ken
 re ady
by e
pp y
 pr om
 Th at
 an other
 l ight
 pret end
 dan ce
at er
 climb ed
w here
 list ened
 Bob o
 dan c
 run ning
 on ly
 pl an
 g one
 sw im
bb ed
S uddenly
s h
 tra in
il a
S he
S ara
nd ma
 J ane
 clo se
a v
 sm ell
ab y
 am az
S o
 ho ld
 block s
 wo nder
 Tim my
 re pl
 A ll
 butter f
 se es
 re ached
 wa ll
 p u
one y
r ed
 sl ow
 help ing
 d ri
 c ream
 c ool
 gl ad
a f
 a nt
 l ess
 be en
 good bye
 a c
 f ight
at her
M ia
 pus hed
ic ed
 fa ir
 mu st
 h ide
 mom ent
 wind ow
  O
 s it
 ball oon
 sn ow
 ch ild
 expl ore
 a r
 Every one
 w ished
 b aby
 d one
 wa g
 st e
 bu y
 st uck
 per f
 th ank
 m ight
ic y
 nam e
iz ed
 try ing
 b it
 com ing
 b ar
 qu ick
 f all
 app le
as h
 sc ary
 look s
 bu ild
 do ing
 w in
 under st
a isy
 d in
 d ream
 dir ty
 he ld
am es
 book s
 m ar
I n
 butterf ly
 le ft
 shout ed
 c ount
 repl ied
av y
 re ach
 t iny
 thr ough
ot t
 d ro
 wh y
 a ir
 br an
 la nd
ke y
 th ree
 pull ed
 sp l
 gr ow
 tre at
 br other
 w ise
 wood s
 s ure
' re
 ch air
i x
 m at
in s
 se en
 p ink
 cla pped
 pl ant
el y
  owl
 cu p
ie ld
 somet imes
and y
 f ill
 cl oud
as k
 sw am
out h
 j ob
 color ful
 remember ed
 big ger
 ne st
 m outh
p e
O kay
 less on
 jo in
 c re
p h
ou p
ro om
 The re
ar t
 wa ved
udd y
 gra bbed
 stay ed
O h
 pain t
Th is
 cl ot
 con t
 clot hes
ow er
 A fter
 wa ited
 quick ly
c le
 wor d
 bro ke
uck y
 g ames
 c ast
 b lew
 g ent
 Mom my
J o
 enjoy ed
 not iced
ri es
at ion
 s et
 like s
 picture s
t on
d e
 se a
 he avy
 mu s
 al one
 g if
as ure
 any thing
 sp ot
 m iss
 ho pped
 wor ld
 turn s
or m
 y ear
d er
 b ott
 p at
 p ot
 p en
l c
H er
 m ix
 a rm
 b ike
 t ight
 every where
L ucy
 w on
 tow er
 th rew
 him self
 follow ed
 B uddy
 r ide
m an
le ss
 j u
B ob
 j e
am p
ap e
 com p
 ke y
r ow
" .
 wh ite
ct or
 wr ong
 D aisy
 make s
 Wh at
 bre ak
 bl ack
are nt
e e
n er
S pot
D o
 de ep
th y
 mus ic
 po l
 del ic
ce ss
u ed
 forg ot
 be e
 p arent
 cast le
ve s
o lly
 e m
i et
 we ar
 h it
  ve
is ter
ou n
 qu iet
 r ound
an ce
 st u
 danc ed
 v is
ull y
 want s
 le af
 mon ster
 n ap
 underst and
 Jo hn
an g
 b owl
o s
r ot
re n
 b or
 tal ked
itt en
 d ry
 fast er
 cook ies
 br ought
f ully
 le g
ro ss
F rom
 m um
z z
 s ide
t s
 s ign
 sm art
 In side
c y
H is
 rock s
 some one
 po in
 se c
 sh aring
 fo x
 we ll
 re s
 re l
 happ en
 but ton
 bran ch
 L ila
 re ally
 fin ished
en ce
ard s
 din ner
 s ister
 fly ing
ed dy
 cont in
 wor ried
 e le
 vis it
 T o
 M aybe
 be ach
  que
 sec ret
 e l
 k ing
 Sara h
Jo hn
g y
 to day
 perf ect
 ri ver
 every thing
 s illy
 sh in
 dan ger
i pp
 Jo e
 child ren
 g u
 So on
 f ield
 fill ed
 f ur
 el se
 smile s
 we lc
 A t
 w ish
Wh ile
 sa ng
 E m
 g i
z e
 p udd
 sn ack
 eat ing
 real ized
 piece s
 prom ised
or d
 sp r
 p ig
 f ree
 contin ued
 b ite
e ad
 parent s
 care fully
at ed
itt ing
 e ar
J ust
 j ar
M aybe
 c ow
A my
 bl ank
 dra g
st ead
 or ange
 mu d
 cry ing
 blank et
 en ough
 roll ed
ck et
 s oup
 sa il
 p urp
im i
 y es
a le
 dr ink
 sn ake
se s
 b oun
 p et
 cra b
 laug hing
 thr ow
 fair y
 word s
 amaz ing
 b ath
i ch
 purp le
  Z
 with out
i re
 bott le
 B illy
 gif t
 gra ndma
F in
us ed
on s
 p ast
 m oney
i ver
f ort
 m ail
 G ra
 bar ked
 wag ged
 at t
ch ool
 mon key
 do ctor
un ch
 br own
 mo ved
is es
 ask s
 get ting
 clos ed
 w he
 welc ome
 s u
 c andy
 s chool
 mor ning
 own er
g g
 l on
 m other
 hig her
 s itting
 tre asure
. ”
 sm o
! ”
 danger ous
 lon ely
 C h
 li ving
 app les
us h
 sh op
as ed
 str ange
ve l
 shin ing
 ro ad
e re
 cre at
 Tom my
un a
 pa w
e y
 r a
 sho es
 p re
i ble
  -
 st re
 tal king
al thy
 c aught
 e gg
o l
 pa ss
m e
 l ake
 run s
 b uck
 l etter
 w ings
 che e
f ish
 m ad
 f an
ask et
 b asket
a ss
 drag on
a pp
Mom my
s et
ck s
 st one
 think s
 st and
 delic ious
 no se
 pudd le
 to m
 B l
 M imi
 bel ie
 farm er
 sa me
 year s
bo ard
 t eddy
 b at
is k
it ch
 m ine
 se ar
 co at
c hes
ig h
 day s
 br ing
 gent le
 f it
 star t
 fin ally
 wh ist
 cr ay
ig g
 sc ream
 k ite
 p ill
ph ant
ar m
 v ill
 ch o
 sing ing
ell a
s w
in ed
 tast y
 p h
 b en
 tr ou
 she ll
 her self
 hop ed
 an sw
 w ore
 sw ings
s y
 h or
 bel ong
P lease
 pus h
 bus h
isk ers
 car rot
 ar ri
aught y
 te ach
b ow
ra ct
 n aughty
 ele phant
 dro pped
 sh ap
 co ll
i er
s c
 te ac
e my
 wo ke
b all
 p ile
 hid ing
 c our
is a
er ry
 to uc
 m in
 pu ppy
' ll
 see m
ll ie
 tw ins
am a
 l unch
 b ow
 sa ck
 p ers
 cour se
 che ered
 shap es
 gre w
 J en
f used
 ro pe
 vill age
ir th
irth day
 ju ice
i pped
 rain bow
 sp in
O K
J ack
 sh ook
 sp oon
 ben ch
 stre et
 f ence
 cut e
 F red
 ro b
 n ut
 chee se
 pr ob
 touc hed
id ge
co l
 j oy
 Wh iskers
 arri ved
 se ed
 wa r
 teac her
 c orn
G ood
 ab le
 fore ver
 be ll
 fe w
 car ry
 mo st
 pl ane
 Bl ue
le m
 e as
 sound s
ll a
 d es
 sp o
 prob lem
 b irthday
 in c
 p ower
b r
um b
 bug s
il k
 wonder ful
 doll s
 bus y
at o
ir p
e b
 w ra
 prom ise
 Th ank
 feel s
i an
et er
 Em ma
 bre ad
Fin ally
 ne ck
 m ilk
 rob ot
 re c
 sh y
ount ain
 k iss
ir t
 hear t
 b and
 c ave
 po cket
u b
 help ful
g ly
 slow ly
 belie ve
 sh ake
ump y
e ared
 pat ient
 p op
 o b
ar p
 li ve
 stor m
 hold ing
 u gly
 tow ards
 up set

  

 t urt
 sh r
ad ow
 co ver
 k itten
o st
 R emy
 sh arp
 dis app
 stor ies
 s uc
 h oney
o ve
 B ella
re ad
 no ises
 L e
 ball s
 c ir
 sp ark
 gr ay
 d ist
 dir t
og gy
 l ate
 dri ver
 se at
 buck et
 me et
 you ng
 amaz ed
 turt le
al m
 sp id
 treat s
 magic al
u nt
at or
 gl ow
 see k
 z oom
 le m
 sand w
fort able
um ber
 tri p
 m ist
our n
 spl as
 m ark
 j ourn
 fo ld
 m ach
 pu zz
 par t
l ing
 hor se
 or gan
 w ild
 prin cess
pp ing
oo se
 cook ie
S ure
en s
 hug s
 M ark
 t aking
un g
 whe el
ep end
 cl oth
 L isa
 s ug
 in stead
 bu bb
 str ing
 n et
 dro ve
il ing
 ru de
 hug e
 co in
 star s
 fight ing
B e
 J im
 sp icy
 l ucky
O f
 cra w
He y
 b one
 in v
or s
 Gra ndma
n ot
 c a
pp er
 for get
u p
 d i
a ur
 sa l
 Fin ally
 can not
 whist le
 c ard
 s ick
 p ath
 c ou
 spid er
 w ide
L ila
 fo ot
 snow man
 li fe
 song s
 pill ow
iz e
ul ar
 J ust
L ater
e st
 A nn
er t
 fix ed
 gi ant
op h
ri ll
 no d
 bo ss
 com es
 la st
 jo ke
 mo on
 tast e
d en
 mach ine
 gr umpy
 wa ve
 th in
 dri ve
 car t
 as h
 s er
 gra b
 pe ace
l ower
 dad dy
  On
er y
 Le o
 s el
 she lf
 hid den
ere st
 s uddenly
 was n
 wr ite
 land ed
 con fused
 r ing
 ch ange
 wor m
oo p
 int erest
 ch ased
 fruit s
 s our
it y
 my ster
 b ark
 r ad
 smo oth
 C ome
 adventure s
 v al
 ste pped
 f le
op e
 o ven
 take s
 miss ed
 sel fish
k in
 she ep
T o
 mess y
 ac ross
  ent
t o
 ex p
 c e
 l ater
ell y
if e
  N
 stick s
 t ie
S t
e ver
 L una
 b ought
 st ep
 d rew
 te a
pec t
 b an
irp y
bo x
? ”
 was h
 l ay
 p our
 be ak
o se
 j og
 gr ate
 duck s
 sp e
 leg s
ug g
 f il
 B u
 em p
m er
 hop e
 emp ty
 sl id
 fe ather
 sleep y
 dr um
am ed
ar s
et h
 z oo
 p an
 ph one
 grate ful
 f ing
ion s
 lem on
le t
 C at
 cle ver
 smell y
 M olly
 im ag
 spl ash
 interest ing
 sa ve
 J ill
 ch ick
 c alm
 m ed
S oon
 watch ing
iz zy
iz z
 pl ate
  ign
y ard
 cloud s
 ban an
 l ine
 face s
 b a
 a ct
 th ough
 wo lf
 back yard
w el
 seem ed
 dog s
 spr ay
C ome
 pr ot
 who le
 m ot
 fan cy
 Dad dy
 que st
 arm s
 puzz le
 he althy
 su pp
w ard
 fin ish
er ly
 al ong
ll o
 rock et
 expl ain
d ge
 eas y
 je wel
on t
 p ract
 j elly
 Ch irpy
 t id
 f ake
 cray ons
 wonder ed
 m aybe
 sc ar
 sh ip
 not hing
one st
 em b
ig er
 p ool
 long er
 any one
 B e
u ally
 J erry
 fr ont
 wor king
 give s
ir r
 p ack
 s uch
 B unny
o cked
m ent
 boss y
 D oggy
 trou ble
 smell ed
 sa ved
 p in
ra ss
 ne igh
ar rass
it ing
 h onest
 a v
ar ge
 emb arrass
 li ft
 v an
 forg ive
 tid y
 we ak
ur se
 put s
un k
 k ick
 sh irt
 m ind
 W ith
 O llie
 neigh b
 plant s
 so l
 Mom o
 gent ly
 co zy
or row
m ing
 expl or
s p
 mist ake
 y og
o c
oom y
 poin ted
 l ad
 a f
 st ood
or k
 on to
 jump ing
 wait ing
 prin ce
 c ross
 lo ck
 che er
 que en
 Wh y
 M ary
 w ing
A nd
on es
w e
 l arge
 love ly
ul t
 s ur
 re t
 de er
 che w
 cou ch
 b al
 st ret
aught er
er a
 The ir
 place s
 M y
 lad der
 ret urn
ra id
 ant s
 d ish
 af raid
 clean ed
 tom orrow
 build ing
 sandw ich
 pers on
S ally
e k
n ed
 pretend ed
 boun ce
 w ip
ge st
 mat ch
 ri ch
u ce
 p izz
 g ather
 sear ch
 bor ing
om an
 S omet
 te eth
 h um
K itty
M y
ac ed
 d aughter
 w oman
 scar f
 go es
 la w
 To gether
 st ra
 fur ry
 swim ming
 splas hed
 p ri
 love s
 tr ue
 scream ed
 la zy
 g en
 answ er
 e ag
 n umber
 ash amed
 pizz a
a w
 app eared
 fe ar
 near by
 power ful
 fl ag
 ha ng
 S t
v ous
 cl own
 ch ase
 mot or
 wa nd
 T V
 ru b
 suc cess
 cho col
 I f
 creat ive
 tr ust
 we aring
 no isy
 mat ter
p a
 d ig
 he llo
 n er
 too l
 sa f
 B ird
ad o
 ner vous
el p
 te st
 sm iling
 so ld
ic ked
o ppy
os aur
 cir cle
m b
 m ap
 dr ank
 cla ss
 tri es
 chocol ate
 P lease
 imp ress
 kne e
 gen er
 din osaur
 pol ite
 m irr
 T iny
 Bob by
 balloon s
 go ld
 r are
 prot ect
 c and
St op
 G o
 car ried
ens ive
 a p
 sh adow
 mirr or
 D on
 ba ld
 g un
in a
 exp ensive
 re g
 myster ious
if f
 p ump
 S p
 not e
 her o
 mar ch
 h ar
ar l
  icy
 res pect
 we ird
 c ri
 sn ee
 g ate
 so ap
ra g
ut e
iss ors
 po or
 the se
 tow el
 wh ale
 fe et
 t ape
 d izzy
itt er
 gener ous
nd pa
 pre s
 Ben ny
 dis co
n ic
H elp
vent ually
 pic nic
 le ad
 m ic
 s que
 embarrass ed
 journ ey
 sug ar
is p
sc ape
 bo ot
 peace ful
 t ent
 f at
 B ear
 sc issors
Tom my
 tast ed
 yell ed
 t ick
 m el
 br ush
 danc ing
n ess
 gl ue
 h ur
 r ough
 cl ap
 br idge
ot e
 dec or
 clos et
 cr own
 st ir
u al
im p
 prin t
 Somet imes
ow ed
air s
um e
 H ow
 c ap
 l amp
 v ase
 sc are
le br
 rel ie
l ves
an y
 e ld
 te le
 ce lebr
 g igg
 wh isp
 lo g
 bl ow
 pain ted
 sc o
 D ucky
 p ay
er ries
 w is
 b erries
 mix ed
 sp read
 would n
 c age
 b ake
r ob
get able
 m ountain
 ad m
 draw ing
 bec ome
 fam ous
 be an
 kn ocked
 n orm
 ve getable
as p
 k icked
ust r
 sh ark
s er
 inc red
 lo se
 norm al
 wra p
c ed
 gr oup
 th ick
  3
 f ine
 gl ass
 ign or
 clo ck
 te am
 eld erly
 cle ar
 corn er
 fr ustr
 might y
rob e
 c one
 incred ible
D ad
 B r
ig hed
 mom s
 bal ance
 so ck
 sp ace
 j am
rag ile
 fr ight
 bran ches
 organ ized
 ro ar
p ort
 sw ord
al ous
 gu ess
 f ool
 M ama
 se ll
 fe ed
 S ome
 wh ich
 h orn
 pres ent
 je alous
 y arn
on y
 f ragile
 b urn
 underst ood
 m is
 stu bb
 t er
 frustr ated
W here
r ay
 ho se
c ient
 sp ent
 sho e
 t aught
 stubb orn
 tw ist
 creat ure
 che st
 relie ved
 spo iled
 an cient
 wa ke
i que
 fi er
 pr ay
 fier ce
 egg s
 c ab
 ter ri
 b arn
 pump kin
 com fortable
 or d
y m
 fright ened
or ry
 to ug
 un ique
 me asure
 go at
 wag on
 un us
 bre ath
 fool ish
 use ful
 explor ing
d le
 stra w
 unus ual
 d ug
 cl ay
 disco ver
 tom ato
 P e
 de ad
 find ing
 pol ice
 wr ote
 cl um
 ex am
l ace
 wa ves
 squ are
 hear s
 cab in
 tell s
 neck lace
 d ull
 clum sy
 toug h
To gether
 bubb les
 no sy
k n
 sear ched
 was hed
 bath room
 paw s
bb y
o nd
un n
an ged
 bo ard
kn own
f ic
 as king
 cra zy
 thank ful
 b itter
 sun f
y al
 p ir
ber ry
  ind
al k
 dif fic
 ro se
c il
 sw an
 bl oom
 un known
 E lla
 cover ed
 diffic ult
 a dd
 pen cil
 fing er
 ha m
 h oop
 j et
 w itch
 dr op
M e
  '
 chick en
 gl oomy
 lo yal
a pped
al s
He re
c om
 we althy
l ight
 un l
 cat s
 end ing
 g uit
b led
sh ine
 do ve
 join ed
 c her
an ut
 mo v
 terri ble
 your s
i ant
  U
 R ex
 sal ad
 And y
 nut s
 r at
 li f
g round
 t iger
 pot ato
E very
 m ask
x ible
se lves
 val ue
 ch anged
 mo ving
 exc iting
orm ous
 M any
 bo dy
 T r
 to ast
 rec ord
er p
 z ip
 che ap
 dis g
 guit ar
irst y
 know ing
 advent ur
 your self
 en ormous
 hair y
 sho ot
 Br own
 bor ed
 pe pper
 rem ind
or y
 ac orn
l and
 adventur ous
 sun shine
 small er
 hat s
 st uff
 sol ve
 fle xible
 co st
rill iant
 kn ife
 perf orm
 snack s
 nod s
 sh ore
 Jim my
 b rilliant
 th irsty
 delic ate
 fr own
 disg ust
 coll ect
 st ri
 seed s
 count ed
 as leep
 banan a
re en
 mail box
in ess
 d ough
 tri ck
 neighb or
ung le
 he al
Wh o
l ive
 st age
 mark et
id ent
 cu be
 j ungle
 st at
J im
 sque e
mb re
 explain ed
at es
 u mbre
 disgust ing
 la b
 jo lly
 fl ash
u nd
 fr idge
in al
il t
p id
 cr ane
c orn
 s uit
 r h
id dle
 sunf lower
 t imes
 cat erp
 caterp ill
 rel ax
 sh iver
 f our
 A l
 is land
ig inal
 h arm
ic t
 Wh ile
y ing
 stu pid
 med ic
 In stead
 com b
 g oose
 c ro
ed ient
I f
 W ill
 sto ve
A re
M um
 ind epend
m ost
 spr ing
 g em
 bat ter
 s ighed
 vegetable s
 st ones
H ow
p es
 sh ine
 medic ine
 d epend
 You r
 r ug
 care less
 or iginal
 st amp
 g ar
In side
 c ries
g u
 carrot s
 sc r
 success ful
 sa uce
 je ep
 pop corn
 me al
 ob edient
 al most
 m iddle
 mag n
 stu dy
 independ ent
 fear ful
 j ack
m et
ink y
S orry
 e scape
 Sam my
 caterpill ar
 ser ious
 pe anut
The re
 bed room
 eag er
ak en
 get s
 par rot
 stat ue
 hel met
 pe bb
 f ountain
  No
 an g
 ra ven
 past a
 umbre lla
 comp et
 belong ed
 jack et
 de st
 fil thy
 des ign
 bor row
 c am
er able
 house s
 pri ze
 h ay
 bra ce
 stand ing
 mis erable
 r aced
 t aken
ag es
 for k
 cray on
 pain ting
 tri ang
i o
 impress ive
 ch oose
 f ig
 t ied
ia ble
 spot ted
 lif ted
 sl ipped
our s
 t ank
 thought ful
 depend able
 ste al
en ny
 gar age
 bu ilt
 mu sh
  er
ip e
 mo le
 craw led
 sc ale
 boat s
 p ant
 p ian
 ham mer
 bott om
l ph
 cheer ful
 us ing
 smo ke
 pick s
 mo der
 show s
ber ries
 pian o
r n
 magn et
d ile
co dile
 hurt s
in ary
 re f
 cra ck
 en g
 a unt
 mel on
 wa ff
 moder n
 do lph
unn el
c ream
p ack
 t unnel
o in
 ar row
 rel iable
 ho pping
Tim my
 mush room
 j ug
 squ ash
 g um
 s ink
 mov ie
 t ax
 fl ute
 be et
 le an
The ir
i v
 pop ular
ic op
icop ter
 cry st
 on es
 s il
 compet it
 hel icopter
as er
 need s
M olly
ip op
ll ipop
 cro codile
 li z
 p ress
 trou bled
 pig e
 lo cked
 tri cks
 lo llipop
 play ful
 hum ble
 tax i
 kiss ed
a ppy
 l ow
com fortable
am ond
 r id
 un comfortable
h ost
 wa nder
at ch
 ang el
ed y
c les
 gra ce
 to rn
 an x
 wra pped
 mu ff
 tw ig
 pant s
 disapp oin
 S n
 help s
 di amond
 cam era
at ter
ot o
 anx ious
 g host
 ru ined
 te ars
c ident
il ty
 qu ar
a ff
 Jen ny
 f is
 bel t
op l
er opl
 en v
 E ven
 gu ilty
 b ull
 a eropl
 help less
 happ iness
 liz ard
 boy s
c ut
 c ere
 walk s
ce an
 pass ed
 me ant
 o cean
 fl uffy
 w ire
 n ail
 brace let
 de af
z ed
 stret ch
 ca ct
 cand le
t t
 beet le
 m op
 harm less
ump et
 ord inary
 answ ered
 c op
 coll ar
 be es
 t ire
 sh ape
 quar rel
 rad io
 flash light
 cryst al
 hard er
 pour ed
 tr umpet
M ama
 eng ine
 pers ist
 h unt
 to oth
 cere al
 inv ited
 comp ut
 t ag
 off ice
 m elt
 ch arm
 sp ill
co a
 l it
 sco ot
 c omet
 triang le
ie f
 m ug
 re p
u be
 yog urt
 sp end
 ac cident
 comp ass
 sh ade
he tt
ag hett
aghett i
 disappoin ted
 li cked
 cact us
 pa le
 c ush
J ane
 fig ure
 gi ving
 reg ular
 av oc
 she et
 whisp ered
az e
ut h
ell ig
 cre ate
 bar ber
 int ellig
 p ipe
 ro de
 ro of
 th read
it her
 li br
 lo ad
 v i
 gif ted
c col
 pract iced
 del ight
ccol i
 har sh
 d ust
 p ow
as ses
 Tr ue
 b icy
az z
 sp aghetti
 compass ion
 sa iled
ur key
u bby
 for ward
 persist ent
 spe ed
 m itten
 pr o
 co coa
 en vel
 quest ions
 comput er
 c oo
 feather s
h ip
 gl ove
g ing
Bob o
 ri ce
 shr imp
 des k
 st ream
 in se
 pige on
 charm ing
 ear s
 car p
lc an
 env ious
 kn ot
 t urkey
 strong er
om es
 co ins
 t ap
 ra ft
lcan o
we et
 tra p
umb ers
 aeropl ane
 tr unk
 whe at
 box es
 carp et
 ch ubby
 rest less
 intellig ent
 t ube
 sp un
 dream s
 friends hip
 ha lf
ul if
ol in
 craw l
 loo p
 bro ccoli
 on ion
 we ek
 del iver
an ger
 ac ce
 v ide
 vo lcano
 s le
 J ake
 tra ck
 b ri
 ca ulif
 v ine
y e
 tick et
 th ief
ess ie
cy cle
 loud er
 inse ct
 n umbers
as ing
 y aw
 hair cut
it al
 sleep ing
 m ill
 al ert
 e ventually
 exc ite
 pebb le
 ho sp
 att ract
 plan et
 To day
 un iver
is ted
ul u
 er aser
 hosp ital
 return ed
 dest ro
 grace ful
 happen ing
ac he
 O K
 dec ide
 learn ing
 sc reen
rew ork
 nice ly
 Em ily
 le op
 caulif lower
 competit ive
 po em
 celebr ate
 c urt
 pe ach
 sold ier
 sa us
 par ade
at ient
 attract ive
 curt ain
 b ase
 dolph in
 vi olin
 way s
G o
at s
 tra vel
 ro d
 ignor ant
ul b
 wheel s
 y ach
 sc atter
 d eter
 compassion ate
 bar rel
 envel ope
 bubb le
 l ying
 fi rework
 sor t
 quest ion
z zy
 P ipp
 scoot er
 deter m
 r ag
 th u
 bicy cle
el ery
 need le
 ju dge
 b ulb
 F r
 leop ard
 te m
 yach t
 p ony
 cri cket
 h omes
 or der
Sara h
 ad or
ter n
 tr uth
 h ook
d om
 ru bbed
et e
ig ator
 bus hes
 un cle
 cush ion
 sp ell
 gr own
 coo ked
 ador able
 ch alk
 so ar
 p urse
 sk in
 them selves
 imp atient
 c elery
 tr ay
 shell s
 pen gu
 sn iff
 pr un
 wall s
 se al
 live ly
 c ase
 all igator
 dist ant
 rad ish
 say ing
 spe ak
 motor cycle
 me at
 s end
ill a
 spin ning
 for th
 count ing
 ent h
 boun ced
 ch ain
  ed
 clean ing
eb ra
 fil m
 sle pt
 p it
 sur f
 mar ry
us ia
 wall et
 enth usia
 met al
ur b
eb ook
 b in
 not ebook
 sk ip
 wip ed
is ion
ch air
 big gest
 avoc ado
 imp ro
 beh ave
 destro y
v ator
 band age
 laugh s
 ste ak
 pat tern
 S h
 po st
 ele vator
 Bu zz
us ie
 d ive
 sh ut
 sk ipped
 unl ock
 di ary
de st
j ect
 z ebra
 bag s
at ing
 arm chair
ag ed
ra ge
 dist urb
 o y
 po le
 show ing
 cl ub
 gather ed
 n urse
b ul
 ear th
 en c
 str anger
 swe ater
 jelly fish
 sc rew
 tem p
 P oppy
 com pl
 mix er
G ive
 sk ull
 l ime
 b ump
bul ance
 am bulance
G ra
n am
 f ather
 journ al
 loud ly
it o
 fold er
 sh ield
 B et
 L ulu
 libr ary
 button s
 play ground
 truck s
 in k
 P eter
 light s
 t ummy
 poin ting
 c ity
 decor ate
 st ation
B illy
ir it
 pre p
 fall s
qu ito
 P olly
 F o
 f u
ent ion
n ger
 Bird y
l ies
 her b
 or nam
 ornam ent
 mo dest
 gu ard
 mo s
 know s
 c ord
 pol ish
 mar ble
ob y
 mos quito
umb led
 sal t
 att ic
 ve st
 when ever
ct op
 res c
 y et
 p le
 disapp eared
ce ed
 straw berry
 k ay
 brother s
 M um
 it ch
 pir ate
 foot ball
 spl it
ke le
 on ce
kele ton
 h ipp
 a ut
 l ed
ur ing
ctop us
 dri ving
 c able
 supp ort
 call ing
 cup board
ak y
us hed
 wis hes
 comp let
 tri pped
 ro ot
 kay ak
 o ctopus
ob ile
 a dded
 ed ge
 m ild
st ic
 determ ined
 suc ceed
?" .
 read ing
 co al
om obile
W ell
 sun g
ut es
p ar
 sug gest
 st ack
 thu nder
 kind ness
 aut omobile
 compl ain
 enthusia stic
 snee ze
 cart oon
 yog a
 gr owl
ht ub
 fle a
 me adow
l a
 draw er
 bat htub
 ri bb
oph one
 go lf
 ha ll
 mean s
 s keleton
 m ath
 ve il
 hunt er
 fl ame
 g or
 L ittle
 po ke
 vide o
 che ss
 cup s
 tr oph
 glow ing
 mat t
 oy ster
w ork
 pen ny
 sp ear
l asses
 it self
 draw ings
 hipp o
 rep air
 sw itch
 sung lasses
 tele ph
 cost ume
 d ess
 z ipp
, ”
 re pe
 muff in
 ar g
 past ry
 p un
 roll ing
 min utes
 make up
 pa cked
ir on
ri c
 Pe ople
 waff le
c ase
 hand le
 pe ar
 m aze
 teleph one
 p ine
a it
 g ear
 he dge
 matt ress
 pack age
a ving
 M iss
 sho cked
in es
 troph y
 pow der
 kn ight
 c ob
 miss ile
 fr ame
 man aged
 enc ou
 w ife
 o k
 se par
 st airs
w eb
 r ot
 c amp
t ime
r ophone
ur ch
 mag az
 col our
 str ugg
Jim my
 gra pes
 f ile
he ad
 T ina
 basket ball
B ye
o ld
p er
 cob web
R e
 T weet
S ee
 per m
 w ool
 mic rophone
es day
 ey e
 le ash
 g asp
ie w
 D an
ke ep
 we ep
 bark ing
at ure
 saf ely
 te ar
 v iew
 slid es
of fe
 step s
ist ol
offe e
 banan as
 st aff
 sp irit
 t ask
 gigg led
 ho c
J ill
 hoc key
 v end
 th ose
 gor illa
 cool er
w as
 R ose
c ing
 ear ly
 mar ched
ro sc
 min t
 L ook
was her
 fl our
 hot el
h ic
 sail or
 dess ert
 ph oto
rosc ope
 ve hic
il ot
  oft
 oft en
 ch urch
 P ete
 cook ing
 rem ain
 f ive
 saus age
ot ter
 t en
 tool s
 med al
 e ither
 fire man
ch or
 gra ndpa
  otter
 base ball
 p istol
 pretend ing
 dish washer
 re ver
 organ ize
 pe e
 vend or
 kn ock
 s ight
 g rill
 temp le
 batter y
 thin king
 open s
  ow
 real ised
  iron
 la ser
 sn e
 o il
 sand box
 pat ch
 h ours
 r ise
 wh ip
' d
ctor y
 G ive
 an chor
 tra sh
en se
 sh ort
n ey
 Bet ty
 rh in
 fa ctory
se um
 m ay
 war d
A l
at ely
 card board
ug ged
 lot ion
 mess age
 val u
 ward robe
 c ell
 mu seum
ap ers
 u r
in ation
 hang ing
uc et
 S unny
ail able
 Z oom
 h ive
e er
 tow ers
keep er
 black board
 me m
l oo
 excite ment
 c offee
 p ilot
F luffy
re ady
 nap kin
 pengu in
r on
 che ck
 re ward
 qu it
 Pipp in
 can e
 pick ing
pl ace
 Sn ow
az or
  ig
 fa ucet
 pass port
 st umbled
 R ob
 dream ed
 ig loo
 B essie
ar oo
ang aroo
 free z
 ju icy
 all owed
pl ay
 hold s
 al ready
 av ailable
 set t
 bat he
 torn ado
im ney
 fing ers
ht ray
 ha nger
 new sp
 s ize
 la und
 l end
E m
 ch imney
 laund ry
 o ak
 fis her
 k angaroo
 m en
 tell ing
 Every where
 no vel
bo dy
 m ummy
 p al
 mu le
 cher ries
 not ice
 pract ice
 spill ed
 re ind
 complet e
 enjoy ing
 mic roscope
Jo e
ar ian
 g ain
amp oo
 su b
 fire place
 imag ine
and a
 dis play
oc er
 Z ip
 fast est
 magaz ine
 hur ry
 cabin et
 shr ink
 as htray
W ait
 cow s
 Sp ike
g en
 pal ace
 impro ve
ac hes
 r ake
 reind eer
 fall ing
ocer os
 sk irt
ur ed
 discover ed
a id
 star ed
 ro ared
 sil ver
 t ub
 tra il
I s
 min er
c ome
 b ill
 f og
ict ion
 a x
st airs
 h ut
ile t
 happ ier
 tall er
iction ary
 o ats
 fisher man
 ob ject
 p or
v ision
 valu able
 sh ampoo
 ho les
 off ered
 boot s
 rhin oceros
 nam es
 to ilet
 climb ing
 bl in
v ice
O w
 stret ched
ie st
 zipp er
 listen ing
 bath robe
 jewel ry
 s ym
ale nd
 He re
 joke s
 tele vision
 pro v
 c alend
 stop s
 ax e
 jump s
 fu el
c u
 spark ly
 perf ume
 S usie
M ummy
 bu ry
bo l
l u
 press ed
 K im
ree k
 re ce
 ne at
 T oby
 c reek
 po pped
 op era
 calend ar
 sn ap
 att ach
 gasp ed
 sym bol
 t una
M r
 p apers
 un pack
 res ist
ar ry
 d ictionary
 sub way
 letter s
 freez er
 cho se
 pin ch
z ag
 spo ke
 any way
 su per
 help er
 por ch
af fe
 bike s
 li e
 M ar
ic hes
 com fort
 tight ly
 sh aking
 book case
 s on
 r azor
aur ant
 A re
 sandw iches
  ext
ig zag
 we igh
 again st
 stick ers
 rest aurant
 newsp aper
 bl ouse
t e
 vehic le
 swing ing
 p ed
 dis ag
 n ature
 squirrel s
 belong s
iv al
 swam p
 butterf lies
 g ym
d el
 inc lu
 grow ing
 buck le
om ed
 stir red
 bill board
 must ache
 be ep
L ittle
x y
 al arm
 fe st
 li p
 light ning
 hun g
ut or
 dist ance
og n
 c ards
 ob ser
 ag ree
 te ase
 rec ogn
 rub ber
i k
 hat e
 s of
f ast
e f
O uch
 does n
 music ian
 ad vice
 bee f
 ser ve
asp oon
 sweet ie
 mo del
l ter
 blue berries
 cri b
 sof a
 cir cles
 break fast
 t utor
as is
 books he
 gir affe
st ri
 fest ival
 separ ate
 she lter
 g as
 air port
 o live
 r ail
 bookshe lf
 frog s
 te aspoon
 rever se
 j unk
 rid ing
 ple ased
 dra in
 Mr s
 wip e
 o asis
 so il
 a head
 resc ue
 le aving
um mer
 pain ter
 ch ance
 squee ze
 kn ob
 po ked
 T eddy
 pee ked
 l umber
 train s
 ext ra
 sl ipp
 qu iz
 re fused
re s
rm omet
 p age
 ru les
 happen s
 in s
 sound ed
 poin t
 win ter
 danc er
 bird c
 Gra ndpa
 disapp ear
rmomet er
 Do lly
 was te
 we ather
 birdc age
 li c
D aisy
 re ef
 the ater
 carry ing
 inv ite
if orm
 go al
 o stri
 sw ung
 un iform
 tr ade
 cl iff
i ence
 law n
 P andy
 lean ed
ol a
ang u
 acce pt
 adm ire
 for t
 accident ally
 past el
bb les
 st om
 l angu
 tw ir
 s uff
 p anda
 b et
r iger
riger ator
 pe ek
re nder
 blin ked
 star ts
n a
 ref rigerator
 any where
!" .
 imag ined
 dream ing
 rem ove
n ight
 L ee
 show er
 ce iling
 class room
 car ing
i um
 gra nd
 miss ing
a ked
 lic ense
 st able
 monkey s
 the rmometer
ast ic
 war ned
 W here
 s ummer
 ab ove
 bri ck
ec ted
 c udd
 problem s
am ber
 ch asing
 ap ron
 lab el
 s ent
 law y
it ure
urn iture
 l id
ugg age
m ed
 respect ful
 f urniture
 frown ed
 zoom ed
 p ages
 pre vent
 b ent
 l uggage
 mistake s
 ostri ch
 sun set
is on
 suggest ed
 window s
l ow
ation s
 j ail
 w ine
 ribb on
 old er
 shout s
 gra pe
 C l
 C o
 w igg
uc ture
 str ucture
 spo il
e or
 fix ing
 ch amber
 lion s
 del ay
 find s
 hand ed
 search ing
 un ite
D id
 f ought
 lawy er
 bright ly
 meet ing
 pa ir
 cho ice
 surpr ises
C h
 ar t
 E llie
 U n
 fav our
eter in
ad ium
eterin arian
 st adium
 proud ly
ik i
 v eterinarian
v et
 chair s
ro d
 sl ip
 S pe
 sad ly
 B ow
 inc re
 C arl
 pudd les
 b erry
 int rod
 ran ch
ve al
 B oun
 arg ue
  V
 adm ired
 c ur
 favour ite
You r
 in f
 excited ly
 grab s
 r ac
m end
 ste am
th ank
 hum an
eor ge
s ity
 He l
 pus hing
 sa ving
 R ed
 re veal
 y ield
all ey
om mend
ol og
 m all
 remind ed
 rec ommend
 le ak
 har b
 sur render
 app l
cu ss
a ul
 we ap
 reg ret
 put ting
 v alley
 miner al
 even ing
 forg ave
 mat ches
el come
 snee zed
 a w
 pu p
 r ushed
ec ause
 sp ade
 ap olog
 dis cuss
 pl ates
 prep are
 harb or
 ign ore
 count ry
 B ig
 langu age
 Bu zzy
 pull s
 pl astic
 supp ly
 flo at
 sniff ed
 J azz
 repl ace
 me as
 sho vel
 ra ise
 N ext
 B ill
 f re
 car ed
 so cks
 stri p
 door s
 myster y
 li ves
 rest ore
 stick er
 s udden
ar i
 kind s
 slipp ery
er o
 O w
 play er
 pan ic
 hop ing
ric ane
id ay
 sh one
le x
her o
 be g
 B inky
 super hero
 delight ed
 g ro
 M ike
Y ay
au d
ch an
 chick ens
 should er
 rain ed
 colour ful
 bre at
 cla w
 Bu bbles
 soft ly
Y uck
 Al ice
r ise
 p ort
Gra ndma
 ho l
M ary
 hol iday
ic er
o of
  �
 bark s
as on
 throw ing
 plan es
 b end
 Fred dy
 shake s
 end ed
 inf ant
 shiver ing
 kne el
 sun rise
 pus hes
 O live
 thank s
 fre sh
 suff er
 poin ts
im ed
w ards
 t ip
 Spe edy
 P at
 free ze
 keep ing
 W ould
 co pper
 gigg le
 smell s
 de ar
 ent er
 prov ide
c ast
chan ic
 dis hes
 E nd
co nd
N ext
 un h
 appl aud
 head s
 hur ricane
 cher ry
 m ass
 me owed
 men u
 th umb
 se cond
 bright er
in ce
 sand cast
 me chanic
 w re
 spray ed
 e vent
 let ting
 weap on
 laug ht
  x
 laught er
 cla pping
 feel ings
W ill
ick y
 splas hing
em ent
 O r
ac ked
 cast les
c er
 F l
 sc ore
 univer se
app ing
 n avy
 d em
 stick y
oph ie
 r ow
 room s
 fl ies
ig i
 unh appy
 D ave
 gre edy
 d are
 al ive
 break s
 en er
 cou rage
 inv it
Re ady
 repe at
 dem and
L isa
 trust ed
 some where
arl ie
 prun e
b les
 wre ck
A ll
 sk ill
 exam ine
 par ts
  Y
y ear
 eat en
o e
er c
en ry
 m ention
 rain ing
 Hel p
B uddy
 throw s
 jog ged
que st
 star ting
Em ma
 r ush
 po ison
 pir ates
he art
 v ac
 cont ent
 K iki
 s igh
 fl apped
 drop s
 ch irp
 sp ort
Q u
 spark led
A nn
 Z oomy
 gi ven
 stre ng
 ste el
 bump ed
 yaw ned
 stu d
 re quest
 sco ld
 my self
 streng th
 shr ugged
M ark
 coat s
 pun ish
 e qu
 sn ugg
 univer sity
 pa id
 pig s
 scr atch
 to e
 ex erc
 tra cks
 John ny
 up stairs
 pray ed
 cross ed
 squee zed
 fl ood
 impress ed
 boun cing
Al ice
 R u
 rabbit s
 bad ly
g es
. .
 le ather
 war n
 ex pect
 new s
 t ide
 T ed
 min ute
 bear s
 claw s
 bu zz
 sweet heart
 n ation
y th
 S m
S h
yth m
 his t
 vac ation
 he at
 straw berries
 obser ve
 explor ed
Dad dy
 sett le
 sandcast le
 yaw n
 hist ory
m are
 L ola
 L illy
 S que
i ally
 M ummy
in king
 belie ved
 hor ses
 H oppy
 che cked
 net work
 to ur
 M andy
 chee k
   
 U nder
 off er
 eas ily
 pl aced
s pec
 spot s
 snow ball
we en
m en
 ener gy
 B ee
 imag ination
 blue berry
 bet ween
ott en
spec ially
 G igi
iz es
 d aisy
 wa ving
ree ze
re at
 v room
 so ak
 rh ythm
 saf ari
 mass age
 stom ach
 b aking
 night mare
qu ake
 ins isted
 blow ing
Be fore
 ent ered
 st air
 p alm
 beaut y
 tw isted
 b other
 wr iting
 prun es
 sc oop
 bra in
  ing
ip ment
 po ppy
 hill s
n oon
 after noon
 e specially
 equ ipment
he st
 s ir
 S ee
 p ad
 Fo x
 ing red
 call s
 ingred ient
 earth quake
 ignor ed
 Snow y
 burn ed
 no body
m ble
 st y
ap a
 se w
 t ug
is ty
 hear ts
xy gen
 le ar
 lear nt
 lemon ade
J enny
 incre ase
ill ie
 g az
F red
 back pack
 mail man
 ped al
 whist led
 S k
 shop keeper
ff ic
 perm it
 tre mble
 y ucky
ang es
 move s
 introd uce
 lem ons
 cra sh
 bean s
 flo ated
ed n
edn esday
itten s
W elcome
 plan ned
 stri ke
 tra ffic
 inclu de
 sl ap
 rac ing
 L ucky
res ses
 wis dom
 p ur
 wag s
 Fin ny
la imed
 l uck
 G eorge
 follow ing
 pri ce
ec ting
 m ama
 p itch
 bel ow
 E lly
 H ave
L e
 we ight
 exc laimed
h ouse
 bu ried
 com f
 follow s
 ingredient s
 recogn ize
 f urt
t ain
 cand les
 mar bles
M imi
ri age
und ay
em ember
er ation
 W ednesday
 ap art
 growl ed
uc t
ore s
 con f
 A lex
 S u
 fold ed
 hop es
 teach ing
 close ly
 Fin n
 Wh o
 he el
 S unday
 encou rage
 Ow l
 z igzag
 pull ing
 d igg
 P aul
 boun cy
W ith
 furt her
 chew ed
 digg ing
 win ning
W oof
 d resses
 im age
re c
c ery
 shout ing
 gro cery
 tw isty
 peanut s
 puzz les
bb ing
 D og
Every one
 scr at
l ook
 ch ores
 whisp er
 I s
 Fr oggy
 sp ike
 c ape
 sn ail
 acorn s
 worm s
h ood
 deep er
 ur ge
if i
 exp er
 Sque aky
 T illy
 Gra ce
 When ever
 plan ted
 att ention
ec ture
 exerc ise
 cu b
 op eration
 under ground
 h on
 ag re
 Dan ny
 qu ite
 creature s
 s imp
 strugg le
or al
 M ittens
 bl ood
dd y
 l ecture
 was hing
 hurt ing
 gif ts
 van ished
 dress ed
 invit ation
 sol ved
 li cks
 snugg led
 Sh aring
i ppy
 b le
 mar riage
 quiet ly
g ie
 war ning
 j azz
 breat he
rec i
 elephant s
 s izes
 d ried
 fall en
 land scape
or ies
 spr ink
 neighb our
 m ice
u esday
 app reci
 S ophie
 � �
 Joe y
 eag erly
 sail ing
 Co co
 pa used
ip s
 count er
 Boun ce
 G ood
 P enny
 wor th
look ing
 R ock
 o xygen
B ecause
 re lease
N ot
 shin ed
p ted
 re aches
 bal an
 Z ara
 o h
is ses
 k isses
 sty le
 bri cks
 gl o
 play s
 T uesday
 ide as
s ed
 in st
 w ob
 firework s
B ella
igg ly
uc ked
 see ing
 fl ap
 acce pted
r ight
 P ip
To day
 bl ink
m m
 R os
 tre mb
 mu ddy
The se
 mem ory
 mar ried
 tomato es
 ex it
op s
 wag ging
 fa sh
R emy
 Ann ie
 wander ed
 Ch arlie
un ately
ipp ing
 glo ves
 cap tain
 pillow s
 rece ive
 res p
 P inky
ra ged
 d uring
et ch
 Every thing
 pet als
 we b
 water ed
i ved
 man age
 E ventually
 br ings
 pin ched
 cake s
 van ish
 fash ion
 Blue y
 prin ter
 destroy ed
 treasure s
n ce
 all ow
up s
 had n
 wor se
 F ifi
S urpr
 ve l
 hit s
 b ur
x u
 vel vet
 app ear
 disag ree
d o
 catch ing
 scatter ed
 R o
 mem ories
 sor ts
 P apa
 her s
 scold ed
 or anges
 pe ars
 sign s
 b ones
 ran g
 seat s
 sit s
 sn apped
 gaz ed
u xu
 ra ised
B l
 s i
 z ipped
 p ies
 Mar ia
 prin ts
 sh ot
 slid ing
 Go d
 fr o
 eas ier
 skill s
ss ible
 climb s
 twir led
c cer
 blanket s
 forg otten
 ba ked
e ster
Y um
 differe nce
ester day
 l uxu
or ted
 gold en
is ing
 k itty
 T w
 cut ting
 se ason
ag gie
 cr ow
 now here
a h
an ny
 so ccer
 d ared
 bit es
 H arry
 l ung
 H enry
 celebr ated
ch oo
 stra ight
ch ie
 unl ocked
st ers
 sor ting
 ble ed
 coll ected
ap ed
 welc omed
d ing
 vis ited
 spoon s
 our s
 st itch
 jog ging
Surpr ise
med i
 em er
medi ately
 Sp ark
 is n
 to ng
 tra ve
 win ner
um ble
 ru in
 s ince
 pret t
O k
M oral
 att ached
 weep ing
 T ony
 march ing
 luxu ry
 simp le
 E ach
 should n
 guess ed
 z ero
 cre ated
 stuff ed
 pet s
ct ion
 fam il
 wa ist
 ur ged
 bow ed
 sell ing
 flo ating
r r
 Sm ith
 by e
 K ing
 king dom
 v ict
 olive s
 kick ing
 W iggly
 pun ished
 L iz
 to es
s it
 gr ant
 B aby
 mus cles
 Ros ie
 jewel s
 bed s
 mel ted
Good bye
 sl ice
 gr in
 understand ing
 collect ion
 to re
 meas ured
 cra s
ak er
 tra pped
i ers
omed ay
 l ined
' ve
 ac ted
 encou raged
fort unately
v a
 rece ived
 S andy
 waff les
 Be fore
 W ally
 we st
 me ow
ent s
 pattern s
r in
in o
 br us
e ath
 mouth s
k ins
 b ang
r ing
Me ow
 K ate
 pe aches
 b reeze
ad ed
un e
 prin ted
 sold iers
 s omeday
 potato es
 pup il
um es
 drink s
 M illie
 she d
 exper ience
 T una
 present s
 fire f
 Ru by
 sur round
 n one
 voice s
os ed
e ep
 dr inking
 Un cle
is hing
 relax ed
 vict ory
c us
 bre aking
 paint s
 hur ried
e ve
iss ion
 tw ink
 tong ue
 cost umes
 fl at
 mention ed
 beg ged
 te asing
 whist ling
 f etch
 perm ission
 disag reed
 s ip
 pe arl
 s ix
ake s
 str o
ve st
 The se
 app ro
 e sc
 sk ipping
 fis hing
Le o
 M ay
 hig hest
 p ra
 wat ches
 sor ted
 ring ing
sh ip
 to night
 B o
 op in
 let s
ic ing
  Qu
 perfect ly
 shadow s
 im mediately
 herb s
 warm th
 sp it
 remain ed
t her
Bob by
 It s
w alk
J en
irr ing
 sne ak
 lip s
 kneel ed
Bl ue
 C he
 cont est
ut ter
 cartoon s
 side walk
 col ours
 stamp s
 ag o
H a
 B oo
 T oto
 Fo llow
 e ast
 head ed
o ved
" ,
 str ang
 f ed
 lady b
 supp osed
 li ck
 root s
 cr unch
 mix ing
 work s
M andy
 decor ations
 kn own
 melt ing
 emer gen
 rest ed
 l ines
 A b
 l ily
 inst r
 Su zy
 J ul
 la id
 G r
 con es
 succeed ed
 wigg le
et y
s ing
 set ting
 sh ock
 S low
 stud ied
 strang ers
 Rock y
Re ally
 twig s
 br id
 their s
 D r
 girl s
b oo
 scream s
!" ,
 land s
 ord ered
 moment s
 st irring
 field s
 al right
And y
 steal ing
d ed
 r ul
 brave ly
av id
 m ister
 B oth
! '
 in vest
 scrat ched
 play time
Sam my
 ri pped
 invest ig
 t ucked
 burn ing
 rest ing
is hes
 Ch icky
 Cl ara
 brid ges
 t ext
 off icer
p lease
B ird
ab ies
 sett led
 a chie
 mat ched
 text ure
P eter
H appy
 turn ing
 wait s
 Sk y
or ed
 tremb ling
ist en
 nail s
at ie
 Some one
 muff ins
id s
 esc aped
 investig ate
 pile s
 J ames
 bro om
os ity
 ladyb ug
 so re
 Pe pper
 adm ir
 appreci ate
 th reat
 b abies
 sil ence
 sister s
 are a
 dad s
 emergen cy
id es
 answ ers
 pu pp
 key s
 chew ing
 sl apped
 w iz
 import ance
 ser ved
B oo
 saf ety
 H op
B u
iz ing
W ould
 spark le
 touch ing
 so ared
ig ail
 L ater
 s ings
 he n
E lla
all en
b ers
ant ly
Mom o
 D ino
 amaz ement
 keep s
 ch allen
 he sit
 tw in
 reveal ed
ache l
an na
 d ire
 it em
 so aked
z ing
 wr it
 food s
 dinosaur s
 rid es
 record ed
 tick le
 in ch
 Z igzag
 M e
 wiz ard
 v et
 trip s
 glow ed
 Fr og
 A n
M mm
 be amed
 h i
 qu ack
 cur led
 ha ted
 w ink
E ventually
 sho pping
 eat s
 B ug
 pra ised
 wood en
 bring ing
 mitten s
 study ing
 gu y
 brus hes
 space ship
 craw ling
 g ust
 Somet hing
C at
 rul er
 fl av
 down stairs
 shoot ing
 n apping
 tast es
 mark s
 sprink les
 cudd led
 d ot
he llo
 f ut
pl ash
a les
a ved
 fut ure
 mon sters
 coll ecting
 meas uring
 H appy
 famil ies
' .
 F irst
 O ut
 M o
 th rill
J ake
 o at
ir ts
 res ult
 appro ached
 R abbit
a ct
 crunch y
U n
 rem em
 bleed ing
 remem bers
 be at
 n icer
 sne aky
 disturb ed
 lead er
Em ily
 sc aring
O r
 pe el
h ind
 H ope
 fire men
 St ar
 neighbor hood
 gre y
 mot ion
 N ot
 no on
 po ssible
S omet
 apolog ized
 we ighed
 D id
u es
 ticket s
C l
 nap s
 loo se
 pr ide
 you th
 swim s
p ed
 str ings

  
 recogn ized
 si ren
 po king
f ied
 H o
c ious
h a
 tri cked
el vet
 gain ed
 wonder s
 cras hed
 want ing
 o be
 sees aw
 work er
unn ies
l s
 draw s
om ing
 scoop ed
. '
 zoom ing
 opin ion
 yell ing
 prep ared
 grin ned
 Slow ly
 a we
 dog gy
 poem s
 Be ep
 act ing
 happ iest
 che f
 sne aked
 resp ons
 e ff
 Al ways
 L izzy
 b unnies
 own ed
 any time
 str uck
 ped als
 kn elt
O llie
oy s
en a
 secret s
 p ause
 decor ated
 horn s
 agre ement
 S qu
id ed
 fr ost
 tall est
 obe y
R emember
riend s
og o
 St op
H ave
 decid es
 beh aved
 t ugged
 s ides
 wo of
l ier
 sl im
z en
 good night
 keep er
 chirp ed
 spark ling
 pre cious
m other
i en
T r
 repe ated
 clap s
 cont ain
 snowball s
aff es
ind y
u d
r s
 R ay
 our selves
all ow
 gir affes
 balan cing
 kind ly
 spend ing
 writ es
ay s
pp ers
 L ike
 pr op
om as
 his sed
F irst
 fro zen
 frost ing
 eff ort
 buzz ing
 strugg led
 admir ing
 re le
ig gy
 V elvet
 sweet ies
 St eve
 slim y
 br ushed
S usie
 bloom ed
 pol ished
 A m
ar th
 Z oe
an ted
 comf y
 b oo
 stay ing
 ru bbing
 pocket s
 rock ing
D ucky
 thrill ed
 be side
 comp le
 A unt
A h
 M aggie
 e ight
 mach ines
is dom
ur ry
 ear lier
 seem s
 y esterday
 r ust
S p
 K eep
 trave led
 fold ing
 bo om
 cra cked
 hug ging
it ies
 St itch
 rad ishes
 lo ving
 open ing
 cir cus
 curi osity
 surround ed
 demand ed
 spray ing
o h
 R achel
 paint ings
 G reen
am ie
 rem oved
 g aze
 hon k
 pebb les
 hard ly
 zoo keeper
 cat ches
 st ing
ed ding
 pow ers
 stri pes
 Pipp a
 load ed
Somet imes
 splas hes
 pet ted
 pot s
 match ing
Thank s
 D avid
 be lly
 st are
 to ss
Y ummy
i bb
 apolog ize
 what ever
 comf orted
 ro cked
 B ree
 dec ision
 ribb ons
er n
 Bird ie
 J oy
 strugg ling
 des er
 ex pected
 ste ep
w h
 prot ected
 neighb ors
 chase s
 smile y
D uring
 gr anted
 cr umb
 M at
 pur red
 di ving
 sad ness
Wh iskers
 organ izing
low ers
 eag le
 hero es
 d ipped
 sun light
 li ed
 pastel s
E x
 road s
 saf er
 scr u
 Fr ank
 arg ued
 M illy
 W ater
 go als
 disco very
 Ab igail
 pe ered
 vill ag
R o
 Boun cy
u se
an a
 t im
l oe
 drag ons
 bucket s
 build ings
 part ies
 be ard
 w edding
R ex
 fl utter
 planet s
 Rob by
 an n
 pol ishing
 fa sc
ir a
 rele ased
 crab s
 G ogo
 Ch r
 W atch
 tail s
 saus ages
 ar gu
 J u
 bott les
 cont ro
 wigg led
 te ased
u ke
 argu ing
 sl ed
 drag ged
 pad d
 C ar
 ro aring
 cle aring
 mov ies
 sh irts
 gather ing
 air pl
 w id
joy ed
 spid ers
 teac hes
 l imes
 R emember
 D are
 over joyed
 act ually
 sigh s
 contin ue
 cudd le
 so aring
 small est
 dri ves
 ri p
 spark les
 J ess
 cub es
 sit u
 ref res
 O lly
 challen ge
 tal ent
 grand mother
 S plash
 pour ing
um m
 fasc in
 pretend s
 cut s
 b ank
 pe ppers
 quarrel ing
 man e
 shiver ed
t en
 dust y
le y
John ny
 villag ers
 wonder ing
 stretch ing
n joy
 week s
i b
 dark er
 where ver
T iny
j am
  X
s ses
 on wards
 r ings
 un ited
A choo
 K atie
 be ad
 prett iest
 c aut
 Be ing
 Every day
 real ize
 comp any
 pengu ins
F r
anna h
L una
 Sp ring
 bed time
 W isdom
 comple ted
 Le ave
 knight s
” .
 flag s
 B ecause
 J e
 play room
 P rin
 act ions
 Z ero
 learn s
 got ten
 pat ience
d am
ind a
 shr ug
 kit es
 respons ible
 fe ars
 dest ination
 rep ly
 wire s
 d am
 wr ist
aw s
 pack ing
 applaud ed
 fa ult
 mountain s
 scru bbed
 m a
 A va
 cre pt
U h
 E arth
 sat is
 ph ot
 th ird
 pencil s
 win s
 stick ing
 b aker
 visit ing
 w ound
 pe as
 use s
 remind er
 contro l
Gra ndpa
as hed
 jo king
 aw ake
 instr uct
 P ut
 heal ed
 star ing
 h itting
R ob
 F ish
 scream ing
 beg in
uck ily
 F riends
 M oo
ic orn
 helmet s
ent y
 un icorn
l er
se ek
M ar
 towel s
S illy
 ch ips
 cre ation
ic a
 L ou
 was ted
b ie
 Be hind
 mask s
la ire
 forg i
 item s
 firef ight
 lollipop s
 out do
W atch
 he av
 gun s
 H ippy
 d ied
 se as
 gl itter
udd les
 arri ve
 sto le
 were n
 sc ales
 ac com
 per ched
 achie ve
 log s
 pract icing
d ie
in ing
 who se
 instruct ions
 pump kins
St ay
 batter ies
 sw oop
 agre es
 cand ies
 pro ject
 snake s
 chirp ing
Ben ny
 she lves
 prot ecting
 ex act
 par ked
 C ra
 patient ly
 act iv
 should ers
 vide os
 blow s
 prom ises
F o
he e
 d ent
g o
us an
n ers
ue st
 airpl ane
 exam ined
jam as
D oggy
 ro ses
D ave
 accom pl
 task s
 Ho ot
P oppy
 B op
B unny
 bead s
 bowl s
 crumb s
z es
P ete
 listen s
 L ove
 Brown ie
 Cat ty
 O l
 b unch
 c ough
 dolph ins
 g uest
 request ed
c akes
 rem ote
 impro ved
 bra nd
 reach ing
ant a
 al ien
ay la
 B ye
ir m
 J an
 cop y
 S un
 cheer ing
 phot os
 Che w
 Jul ie
B ad
 Bl ink
T ime
 can s
 C uddles
 tim er
M ike
 repl aced
 work ers
ath y
 st ern
 B y
 E njoy
 ne ither
G eorge
ast er
 mis ses
 pass ing
 curtain s
 conf l
Ch irpy
 rainbow s
 rub s
 roll s
uct antly
 pat ted
 pa jamas
il o
 outdo ors
L ola
es ome
 complain ing
d ies
 Squ irrel
R un
 pupp et
 Prin cess
 ben eath
 close s
 drum s
 la p
 t une
 B eth
 M ouse
 fill ing
M iss
ang led
 S orry
 ref use
 swe at
 fa ced
.. .
 se ven
 balan ced
P aul
b l
 resc ued
 qu acked
n eath
 A bby
ist le
 aw esome
  1
 miss ion
 caut ious
 confl ict
 guy s
 How ever
 c ause
 obser ved
 v ent
 introd uc
 past ries
n ie
 Th omas
 O ur
 doctor s
 exact ly
 ru le
 bec oming
 m es
 police man
y ou
 rocket s
u ly
  Yes
 D ot
 fair ies
l ay
 p out
A n
 ins ist
 bloom ing
 tra ctor
 far ther
av i
O ops
 S ad
G reat
 inclu ded
 remember ing
 cur ly
F ine
Z oom
 team work
z ie
 fascin ated
 sl am
 wob bled
 tr uly
 help ers
H enry
 sight s
 pad dle
 f irm
 st umble
 J illy
 ca used
ac ob
 pray er
 record ing
 sp ong
ke lly
a is
 star fish
 tr aded
 supp lies
 poin ty
 th ro
 inv iting
 situ ation
e ah
 every day
 neighbour hood
g ers
 ornament s
 A lly
 val ued
ink le
 add ing
S ome
 rel uctantly
 dot s
 stay s
 b are
 prett ier
 table s
 des ert
 snow men
 ste ady
 miner als
ara way
 th orn
o dy
 a st
 f araway
 gl asses
 Fo xy
 G et
 W elcome
 swoop ed
 un f
 S ure
 Tw o
 fork s
 us ual
 us ually
P olly
 d ar
 snee zing
 win ked
 sol ut
 load ing
 J amie
 spong e
 Qu ick
 insect s
  Once
 pan s
D og
J ames
 so bbed
 S anta
s m
 growl ing
 thro at
ar ter
 no ses
 Ch loe
 Jo sh
 D izzy
 conf ident
 scar ves
 W ant
 your selves
ag ull
 home work
Jo ey
 St ay
 superhero es
 sm arter
T ina
 wind y
 libr arian
 K ids
 gem s
D ays
or a
 under neath
 kick s
 know led
 itch y
 knowled ge
 jacket s
 F or
 S kelly
 surf ace
 unt ie
 com m
 D uck
 prince sses
.. ."
Th ose
H old
e ed
id o
Y eah
c oon
 square s
 H enny
 gigg ling
 warn ings
 read s
i ar
v in
 ch oo
O ur
 you nger
T oby
 clown s
D anny
 M ix
 ro pes
s on
 bit ing
 crow d
 Un fortunately
Tr ue
p ite
 se agull
 padd led
 wear s
 deliver ed
 buzz ed
 on ions
 twir l
 M on
 complain ed
 b umpy
Mr s
 st em
E w
 pig gy
 dire ction
 di ved
ou ch
Ro ar
 Ann e
 start led
 t angled
ul ts
 lean ing
 A nt
bb ie
 J ones
 bad ge
Ann ie
 P o
 un p
Gra ce
 de al
th ough
 v owed
 nap kins
 r isk
 tick led
an es
 cover s
 p ec
Sh h
 yell s
in t
 satis fied
 knock s
 refres hed
M aggie
t uce
cu se
 S c
 c ous
 arrow s
 Wh istle
P e
 wip es
 spe aking
 guess ing
 let tuce
Un fortunately
 Qu ack
 ri pe
 S usan
 Do do
 choice s
 hid es
Bu zz
 Ro ver
 sign ed
 slow er
 seek er
 introduc ed
 creat ing
 sing er
 Mat t
 c ent
 fro ze
ugg les
 jo ked
 sque al
 explore rs
 toast er
 av o
S ophie
ang ing
 pray ing
 discover ing
 wr itten
 D ara
 prov ided
 ref le
 L ion
Ex cuse
 mushroom s
 P aws
 Je ff
 kne es
 pay ing
Ch arlie
 hid er
ence s
f it
 As h
 wander ing
 imag es
 st ung
 W ink
 bare ly
 magnet s
 beh aving
 tip to
 mar ked
?" ,
br ush
rr r
 D ee
 rest ored
 lead ing
 ch uck
ll ed
 gre et
 n ine
T eddy
ad os
 bra very
 gear s
 Sn uggles
 competit ion
k y
 out fit
e al
ol ine
 prop erly
 wis hing
 vent ured
 ch at
 dance s
 mus cle
a a
t le
 pen s
 sal ty
am b
 Bet sy
 Z iggy
 ran ger
 deser ve
 how ever
 matter s
se qu
 dark ness
 bur st
 F u
 cobweb s
 rain y
 chef s
 ruin ing
 b ak
 block ing
 con sequ
ust ed
it ely
 sc ur
st y
 v ines
 fa b
 fab ric
ab el
 base ment
 ent ire
 le ast
 perform ed
 Bug gy
S n
 scrat ches
 heav ier
 C laire
 min ts
How ever
 avoc ados
 twir ling
 L inda
r ink
f l
 lo sing
 scur ried
 sunf lowers
 Jen na
 rain co
 sword s
T weet
 cl ick
 L aser
ag ic
 job s
 sil ent
A lex
 fl ames
 necklace s
 L uke
J erry
 Gr umpy
 relie f
 rot ting
 sew ed
 sn at
l en
 trick y
Fo llow
L isten
 light er
oph ia
 Sk ip
 bow s
 ex ha
 consequ ences
 solut ion
   

 L ena
 st ain
 tire s
 P r
A b
Be ep
 unp acked
 part ic
 race s
r ance
 bump s
 p ins
 wrap s
 b acked
 decor ating
 w ow
ais ies
c her
 dent ist
 cautious ly
 need les
 pur r
 lif ting
izz ie
 accompl ish
 d aisies
 triang les
 ann oy
 hesit ated
ep t
 Th ose
 growl s
 
  

 crack ers
o ke
 stom ped
 c ott
 gra bbing
 bo dies
 fig ured
 m ater
 T ree
 buy ing
 F ido
 R olly
 mater ial
 swan s
 t ies
 g ri
 A dam
ver s
 grow s
 sweet s
 cheek s
 flav or
 own ers
 C athy
 Good bye
B ig
 suffer ing
 E l
 fa ct
v room
 J essie
 group s
 fore head
H arry
b ly
 lung s
L illy
 re pa
 bak ery
 interest ed
 M ilo
 f reed
T w
it ches
 chuck led
 Not hing
F or
 con n
 sw ept
R u
 exha usted
 thu d
? '
 t apped
 twink ling
 ne ct
 nect ar
ro sty
ell e
 fe ast
 dar ling
ind r
 M ad
 wor ries
 fu zzy
 tunnel s
 un s
 Tr ust
 re ason
 repa ired
 B all
 Co pper
 activ ities
 pec ked
le ts
 H annah
 T ry
 ent rance
 L isten
 me als
 ra indr
 complet ely
 partic ular
 ma iled
 nest s
ct ions
 cudd ly
 wait er
 s ense
 N ana
 color ed
 le ap
ark y
 pee king
 pl enty
b and
n o
st ep
 C ara
 slam med
 play ers
 B irthday
 bu dge
 mon th
  Q
 sc ra
 forget s
 d en
 Ol iver
 hand ful
 m er
o ssible
 gen ie
 Chr ist
 st ool
igg ie
 P up
 talk s
 feed ing
 passport s
 Su zie
 film s
 bath s
 imp ossible
 determ ination
M ay
 prin ting
 design ed
bo at
 bu ses
 o pp
 bar s
 suit case
le phant
ue en
 count s
 sto len
 Sn ap
 spike s
 spread ing
 ste er
 wip ing
 R ain
 l amb
et ty
 hon ked
 cow b
W hee
n ies
 separ ated
bl ings
 si blings
 hop s
 ch op
 fire s
 sew ing
 Tw inkle
 fe ver
 twink le
 t y
 camp ing
 M ira
 l ower
 ch anging
 beh avi
b ut
ret ch
y es
 Bl oom
 celebr ation
 li qu
m as
 doll house
 squeal ed
S unny
 back ward
 ag e
 snat ched
 c ash
 tw ice
h o
 s way
le e
it ched
 celebr ating
 Pe anut
 ac he
 shr inking
 k ings
we ed
R ose
ri ous
 kitten s
 shop s
c ope
 G ina
 J acob
au ra
 h us
 touc hes
 pan cakes
air y
 Jess ica
 avo id
 sp at
 F rosty
r ig
S andy
h og
 path s
 H old
ck y
ive s
 N ina
 calm ed
 r otten
 dro pping
 sea weed
M illie
 stro ked
 twist ing
P ipp
ile s
 J on
 M el
 unt ied
 play house
ll en
c l
n e
 pupp ies
 stud ents
 ast ron
 screw s
h i
 R e
 some body
 liqu id
ig ning
 squ ish
 wake s
am my
 W oof
 astron aut
 brace lets
 thr own
are n
im mer
 loop s
 O ther
 pl ain
 wra pping
L uckily
 plan ning
 tr amp
 a imed
 sk unk
D an
 pen nies
 sh oo
 danc ers
 lift s
 firef ly
 spark s
p en
 po ster
 Christ mas
 c ust
end y
y an
 object s
 reward ed
 dire ctions
ing o
us ing
 hus band
 refle ction
� �
T ake
ri ver
 cl ues
u ppy
 lead s
 incre ased
 bl ocked
 r ising
K ate
 cous in
 do d
 With out
 forget ting
 Y esterday
 cust om
rig ued
u de
 begin ning
 tramp oline
 pout ed
 store keeper
 zebra s
 a ff
 hedge hog
 Ro llie
 � �
 borrow ed
 snow fl
 country side
 mes mer
J ump
P at
 vehic les
 instr um
 J ay
 M ic
 K ayla
 U p
 frown ing
U nder
iv ity
 mark er
 be y
 bey ond
 pres ses
 On ly
 Q ueen
 dam age
 B iggie
 far t
i very
ie ce
 T ara
j o
 heal th
 n ibb
 slip s
 swims uit
 whisp ers
 Jul ia
 fl apping
 warm er
arm er
 tipto ed
 regret ted
 Rob o
 lay ing
Z ip
itt ed
 F ire
 y elp
ad es
 every body
 gl ued
 rain s
 cre ations
 hear ing
 cold er
 sw ir
iver sity
a el
 E lephant
 shap ed
 fin s
 street s
 cush ions
 rust y
O ut
 sa n
 fart hest
 creat ivity
Al ways
 sa le
 Mike y
an s
 strong est
 Spark y
 fit s
ibb it
 bell s
 doll ars
 e arn
 Ch irp
 M oon
 lend ing
ang le
i am
M illy
 cash ier
ee se
 L arry
 inclu ding
 R ich
 rainco at
 san k
 sniff s
 sto pping
 tremb led
 sour ce
it i
im on
 ind eed
 wob bly
 Miss y
ter s
 guest s
 sing le
 recommend ed
 spell s
 accomplish ment
 bel ts
 end s
 surpr ising
 hope ful
 seas ons
 Snow man
 T ake
B ear
 E ls
 plan s
 encou rag
ich ael
 supp orted
N ina
 art ist
 suff ered
ill ed
st ick
 perform ance
 slow ed
B ill
e et
 g ross
 flav ors
 sp ins
ert ain
id ing
ch o
t he
 label s
Qu ack
 del ivery
 raindr ops
ara c
u ing
 forgi ving
 W oo
 rac coon
ob ody
 pour s
 stand s
 turt les
 van illa
il ity
u ess
 be am
 rec ipe
 t ying
 S w
 g eese
 draw n
 rob ber
 will ing
 we pt
V room
 B ones
 ch arac
 corn ers
 pop s
 que ens
el ia
 d ie
 gri p
 sail boat
 S ophia
 driver s
 m oo
it ude
 hall way
 imag ining
 second s
 Fu zzy
 prep aring
M ine
 wid ened
 ad ult
 Sp irit
 c oop
 gro cer
 talent ed
 Be aky
 I zzy
 P am
 sail ors
umm ies
 as ide
 soft er
ll ing
 water ing
 knot s
 send ing
 t ipped
 uns ure
L ulu
 hor iz
 tree house
 L izzie
 not es
 e cho
C o
 achie ved
ig ers
 horiz on
 deliver ing
 sque ak
 St ella
 hot ter
 ple asure
Cl ara
 pupil s
 bur row
E llie
 angel s
 curious ly
 blin king
 y um
 J une
 St retch
 d et
 symbol s
 tw eet
 C indy
 Ru dy
 pass en
w k
 t ummies
 figure s
 pige ons
 t iss
B aby
umb ling
 band ages
 c oup
Mar ia
 Do ctor
 Rob ert
 robot s
o ey
 toss ed
al ph
 back wards
 h our
 ro ars
 mer ma
 r ather
c ited
u zz
at ur
 Cra b
 P lay
M oo
Do lly
ight ing
 grocer ies
 zipp ing
P ut
 un w
V ery
p rin
 am ong
  icing
 bl own
 after wards
 r umble
!” .
 screw d
ipp er
 T ia
 T iti
 g lee
 pr ove
 sp ed
us hing
Ru by
 d ip
 over come
Qu ick
 surf board
 shovel s
 To ot
 slice s
 m erry
 m ate
 wob ble
J ul
 T urt
 disturb ing
 head ing
 firefight ers
 rever sed
 sw all
Fr ank
 A bbie
 swall owed
 ch ip
S u
 fl ipped
 sc ored
ed s
 J ump
 squee zing
S ad
ust y
 wa king
at y
 int rigued
 m aker
L ike
 B arky
B etty
 p uff
aw n
 ha wk
 E x
 encourag ing
 a ud
 R on
 ch os
 chos en
on ies
he w
 A ng
 F armer
 coup le
 design s
 screwd river
 slipp ing
 Em my
 squish y
 cent er
 garden er
 river s
 mark ers
 resp ond
 jar s
 t igers
ile y
 frown s
pec ting
 flutter ed
b ird
 K it
 firefight er
R ibbit
 R yan
 S l
 Sad ly
 sec ure
 suit s
 sprink led
 cream y
as hes
 br u
 ignor ing
 shark s
 gigg les
 tight er
 tiss ue
 firm ly
oun ce
 L aura
 famil iar
 sh own
f ly
 thorn s
Sp ike
 W o
 draw ers
 Z ee
C ar
ch ild
 de f
 exp ress
 aud ience
 cross ing
 d aring
ment s
 cloud y
 colour ed
 perform ing
 c or
 a is
a e
r at
 N ick
 pedal ed
 mix ture
G et
 grace fully
 t il
g gy
 haircut s
 yield ed
 p onies
 crown s
 dis ob
 bit s
 S leep
 to dd
 hang ers
 nervous ly
 P atch
bb led
  2
 pay s
Z oomy
 pe ck
 e v
 stro ke
B ang
f all
 n apped
 res pected
a ven
 mind ed
B essie
dd ie
K im
ab ly
 test ed
B oys
ad ing
p arent
 Un iversity
 N ear
 bee h
 Turt le
 neighb ours
 surf ing
 Chr is
ar row
 sh ady
ver ed
 d arl
 darl ings
 enthusia sm
 magic ian
ion a
 wis ely
 sail s
 st itches
D ear
 thought s
 week end
Fred dy
 Tweet ie
 remind s
f ted
 temp er
or ing
 fle as
 spit s
 surround ings
K atie
ant ha
 team s
th a
 fill s
 lesson s
 fl ip
 Al ong
 mel ons
 paint brush
 merma id
ll e
on i
 grand child
 el bow
 expl o
 hoop s
 sport s
 F ighting
 li es
G uess
ra c
 pan icked
 am ount
 clean er
 long est
c used
 scoot ers
 l ent
 bel oved
 s ill
immer ing
it a
 beeh ive
Pipp in
Al right
og a
ong rat
 grand parent
 oy sters
ongrat ul
 forgi ven
 magaz ines
 W ise
 ar r
 e lf
 repe ating
 discuss ed
 sweet est
 wa dd
K eep
 Gr anny
 May a
 la ce
 re ass
 Thank s
 nightmare s
 W illy
 tub es
 spoon ful
 understand s
 Z oey
 bat hing
 n ood
A m
ast y
 man ners
 swe ep
 b ully
 n ur
 spr ang
 wr ink
Un cle
c row
 H olly
 Y et
 gu ide
 c rew
an cy
on na
rom ise
 breat hed
J azz
ent ly
ild a
step s
wh ile
 B ally
 bulb s
 grass y
 ne are
 sp ies
 test ing
 wigg ly
 c oug
 R oo
 sheet s
 sol ving
 foot steps
 speed ing
After wards
nt il
 fo cused
ce pt
oun ced
? !"
 bra ver
 cam el
 mesmer ized
 hesit ant
 lick ing
 Spark le
 r ushing
 W ell
 P uppy
 join ing
 greet ed
 pol ar
 Mar tha
- -
es pite
 Bu bb
 ch anges
 material s
 wor n
K iki
Wh ich
und red
 N obody
 bicy cles
 stor ed
E ven
 an ger
 m ast
Le ave
e en
 peace fully
 ship s
 sp ice
 Sh ow
 g onna
 n uzz
 terri fied
 pol itely
Sn ow
 scare crow
 spill s
 kn ives
 Mix y
 ev il
 bury ing
pp ies
c a
 are n
 heal ing
 aeropl anes
 don key
f reeze
 m iles
 scatter ing
 se als
 Chew y
 d ump
am boo
D avid
 S oft
 worry ing
B ee
z oom
P enny
be ep
 L enny
 puzz led
 st acked
 K ip
 N ice
 lo ses
 W in
 basket s
 trave lled
dd ing
 O kay
 bl ast
 gaz ing
ip es
 temper ature
H urry
er m
 belie ving
 cl ue
 dri pping
 tast ing
 u nd
 pinch ing
 1 0
 T ess
 rat s
 so aking
is c
 sand y
 Is n
re ct
 S imon
an while
re y
 Ab i
 ban ged
 punish ment
B inky
 cras hing
 human s
 for ce
 A na
 g est
 h undred
 L ia
 Che ss
 swim mer
 snowfl akes
 relax ing
 F airy
 beep ed
 res isted
 quarrel ed
 W endy
 r amp
el ie
f orm
 jo ins
 backpack s
B y
Tw o
ab by
 delay ed
 dress ing
year s
 P h
 todd ler
 L uckily
 T e
 cover ing
 fl ight
of ia
 ben ches
 encourage ment
O pen
or ter
 scra ped
 tow ard
T ony
 fo cus
 purp ose
 Ju dy
 cor rect
B ow
 lip stick
' ."
S pe
 b amboo
 C ow
 month s
 perm itted
 pot ion
 twink led
 langu ages
 freed om
 ord ers
 m aster
 po ppies
 risk s
 nood les
sh m
 f aded
 wound s
K ids
ri er
shm allow
 Jo jo
is ions
 bird house
 cream s
 Her b
 annoy ed
 cell s
 ad ults
 che ers
 sniff ing
Bird y
op es
 unw ra
 flo ats
 opin ions
 p uck
Bu zzy
In stead
ec ca
and as
 fl own
 hands ome
 sc en
 snee zes
 M int
 no dding
  5
 bur nt
 smell ing
 dri fted
 with in
b age
id er
 bother ing
 dam aged
 he ight
 sc ient
 instrum ents
 ple aded
 sl ither
 te aring
 e ase
 Mar ie
 scient ist
B ack
d a
 Al i
Good night
M ira
 p ound
 hand ing
 sell er
 S ay
 g erm
 file s
 was ting
 dream t
 res ults
 brus hing
 destro ying
 explain s
C arl
b ell
 C r
 M abel
 R azor
 charac ters
 his s
ous y
 St e
 c ertain
 sweat y
Be hind
P andy
 H ug
un ched
 bus iness
 on ward
 tal ents
 brave st
 eng ines
T ry
 stern ly
it ion
 mosquito es
 post man
prin ts
 P en
 mind s
c ake
u nder
 Jan ie
 scare s
 t uck
 Rob bie
 apolog ised
 stom p
u rious
 man ag
u el
 b itten
 sn uck
 dec isions
 remind ing
 sw itched
 til ted
atter ed
 behavi or
 des per
 sing ers
 Ju dge
as hing
 Po or
bb ers
 peel ed
 sque aked
in ny
 Every body
 pur rs
 y umm
 B ra
 U ntil
 display ed
 rust ling
 sm ashed
 treat ed
 mate y
 neat ly
 B ess
 plant ing
 mar shmallow
 in sp
 bell ies
 cra cks
 grandparent s
 s y
 yelp ed
 N avy
 sc amp
 shin es
a ver
 color ing
 fa iled
 h oo
 Y oga
 M ake
 zoom s
l ine
 breat hing
 n asty
r up
 comb ed
 des pite
 p andas
 add ress
 water fall
ig hing
om p
uff in
 Ang el
 L oop
T illy
c c
 ant ic
 ro bbers
 wid er
Ab igail
P lay
 door way
 echo ed
 sweat ers
 To dd
 ed ges
e vin
 Sh adow
 in j
A unt
 Bl inky
 disob ey
 g ap
L iz
w ise
 t ar
 Fl ick
 M ichael
 magn if
 tap ed
W ake
or king
os cope
 act ion
 flap s
 scold s
f ather
ul p
 M indy
 crawl s
R os
 back s
 go bbled
 sw ap
 Fish y
 war ri
S low
 E ddie
 G ary
 se ver
 st eth
F l
 newsp apers
 prob ably
 shin ier
R ock
T ed
 o cc
 sever al
 Me g
 enc ount
A dam
L ena
 conn ected
 pl ucked
 quiet er
 ser ving
  ouch
 Sh are
t ock
ig ger
 gest ure
 door bell
 pl ot
 stud ent
T oo
 care s
 squ aw
 S e
 grand son
 resc uing
St eve
f ire
 g oo
 row s
 simp ly
 sp y
 whist les
i el
m ies
 astronaut s
 sh orter
 snap s
M agic
Sh rink
v ant
 Tim e
 cott age
 unpack ing
ss ss
 accident s
 sw o
 N ut
 m ood
 swo llen
ib i
an ie
 M ousy
 Z ippy
ab elle
 bother ed
H annah
Z ara
 steth oscope
M at
 ca using
 trust ing
M ad
 dress er
 leap t
 s ou
ain t
f ound
 pill s
 prop er
J amie
Th omas
 through out
ret ty
 D ina
 pray ers
 run ner
O live
 joy ful
 Pr ince
 lo cks
m ates
 goat s
wh at
 tar get
 W ait
re st
 B ang
 K aren
 de ars
 C ro
 fl ips
 m unch
 wadd led
R ed
art led
 low ered
 ste pping
 Jack ie
 con s
 teacher s
 T oys
 cowb oy
 envel opes
 in ches
ear s
 V room
 ch ar
 antic ip
 explore r
 R alph
 R uff
 Re ady
 play d
Fin n
N ice
un ity
 B ad
en ing
 P l
 effort s
 floor s
 knock ing
 uniform s
 T ri
l ied
 aw are
 foot prints
 F iona
 near ly
Some one
 R ia
 dis c
ll as
 appreci ation
 gl itt
 s ens
 tr ot
 wh imp
iv i
 che cks
 coll ap
 ne cks
oo sh
 ex cept
 la pt
 Jack y
 ch arge
 pl ug
 flutter ing
 umbre llas
 stamp ed
 sandcast les
ac y
 stat ues
 Am elia
 Dave y
 H oney
 shr ank
H oppy
ail s
isc uit
om b
 add s
 fin ishing
 pri ck
r ily
r ons
 chocol ates
 dod ged
 hunt ers
 stro ll
 germ s
 passen gers
og er
 ais le
 ap rons
 wr igg
 set s
 G erry
.' "
 novel s
 we eds
 T aking
 demand ing
or der
 meow s
 scratch ing
L ucky
 nur ses
D r
iss a
 discuss ing
 mind ing
ur render
 C ari
 drive way
 k illed
 bec omes
 ha ird
 lapt op
 tool box
 D espite
 El iz
 att ack
 po sit
Spe edy
 Sad ie
 bounce s
 scamp ered
so l
 G l
 de ed
 spray s
 supp lied
 tem pt
 burn s
 friendship s
 suggest ion
 clos ing
 sl apping
Co co
 anticip ation
 belong ings
 invit es
A rrr
 St an
 cott on
 er ase
 for m
 spring ing
 r ays
 twist s
 forgive s
 snugg le
 model s
 hum ming
 mass ages
 sh all
 new found
 respond ed
on nie
 ex pecting
 ghost s
 che ated
 She lly
 Woo ly
Do es
G igi
 N e
 travel ing
ott e
 al though
 bat tle
 co nd
 mom mies
allow een
 a im
 car ries
 invit ations
 refres hing
 con c
 present ed
 B umpy
 r owed
 tw enty
he l
 squ ir
ot s
 coop er
 fox es
arl otte
ri e
 duck ling
 fin al
P ip
 B ibi
 ca fe
 marshmallow s
 Z ipper
 cl icked
o or
 be aver
 des igning
 jet s
 H alloween
 M uffin
f ive
 Who ever
 mug s
 dr own
 Ex cited
 R uth
 con vin
 opp os
 picnic s
 tri cycle
 C le
Sad ly
i ens
 Al though
 Mad die
 P op
 c ongratul
 scoop s
of f
p o
 al iens
 travel s
 question ed
 test s
 � �
 Spe ed
 strip s
N ear
in ted
B r
M ouse
at ty
 Fl utter
 de fe
co vered
 Bubb a
Ch loe
end ed
ir i
 fight s
J ess
ro ken
 Big gy
 oppos ite
B all
 I m
E lly
F ind
H mm
 aff ord
 encount ered
 grand father
 r out
 dec l
in ch
 N ever
 ra ising
 V ivi
 up side
Me anwhile
im ent
 R ita
 calm ly
 fl ashed
 real izes
 since re
 yaw ning
r is
B oth
 Sam antha
 b uddy
 cryst als
Ch oo
Tr ust
atur day
 buck led
 cup cakes
 def in
 win ners
by es
Jo sh
ver se
 ca w
 weap ons
' ,
 S aturday
 che at
 pack ages
sh adow
 att em
 co ach
 good byes
 mes ses
 sa cks
 Tr uck
 con vers
qu et
 Fl o
 cap s
v al
 M ina
 en em
 enem ies
 scr ub
 yumm iest
ash a
 return ing
 sw allow
 Me gan
 Soft y
 admir ation
S ince
ri an
 E va
 spr out
 Lou ise
 un able
 An other
 Play ing
 b less
 bright est
 freez ing
 sad der
ook s
ugg ing
 M an
 Y awn
 resp on
 O h
 co sy
 respon se
re verse
 br ide
 diamond s
 gar bage
 hon king
 opp ort
 re app
st alk
 prevent ed
 stret ches
 whisper ing
 G ray
 aw ful
 o dd
 who ever
ant astic
er k
 aw oke
 journey s
 weigh s
al th
 dragon fly
 spice s
 trap s
B rrr
 b orn
H op
 cl ip
 reass ured
 arg um
 bean stalk
 st all
iv ia
 automobile s
 beet les
 defin itely
 exam ining
 playd ate
 stuff ing
 visit ors
R achel
ic i
m ine
 was hes
b roken
 M aisy
c ie
 custom er
 wis er
 Jo lly
 S ofia
 trave lling
em ma
up er
 N urse
 b ou
 bou quet
 haird ress
bb le
 camp fire
 decor ation
 t umbled
, '
or se
 E lle
 bu d
 honest y
 b omb
On ly
a ction
eb ecca
v y
 Fl op
 offer ing
 welc oming
 He llo
 O t
 incre asing
 occ as
 trou bles
 we alth
 J ax
 insp ired
 loud est
 Ch ick
 gro an
 par ted
 ty pe
 Nut ty
 Th under
 wh ales
ir ac
 R icky
y l
 decl ared
 correct ly
 Quack y
 beak s
 cra ft
f us
ook y
y ler
 cle ared
ath an
 cowb oys
 Dot ty
 nuzz led
 ex ch
 pri zes
 Miss ile
 warm ly
Fin ny
 custom ers
 obey ed
 re wards
Sh ould
 F el
 comfort ing
 siren s
 Fl appy
 conn ect
sh aped
 B ingo
 M agic
 town s
m atch
 V icky
 re ly
H oney
elie ve
 F e
 bend s
 f antastic
 insist ing
 own s
 tr igger
 hairdress er
 spo iling
Jul ie
 clean s
 p ipes
 po ses
 share s
 support ing
 surrender ed
Out side
S un
 C ook
 wrink led
ren ch
 cho pped
 beam ing
 mo ons
 rec order
B eth
ell ow
 Wo lf
 snow y
 than king
un es
J e
 act ive
 enjoy able
 exper ien
 sc urry
 P iggy
 c oral
 doll ar
 env iron
 K evin
 lo c
el ope
w orm
 B ub
 stream ers
Su zy
 Pat ty
ud ged
 Z ack
 M other
 ex amp
ing er
 environ ment
 shoo ed
 short s
  ill
T ree
 bru ises
 sc ent
 L uc
 gr at
ust er
 his ses
B o
 Els a
 pl ugged
 sel f
 steer ing
 warri or
 exerc ises
 visit s
ir l
 A r
 R el
 cudd les
 dan gers
ap tain
sc reen
 M in
 s igning
 squ ished
 un fortunately
 L ight
be e
 disappoin t
 pilot s
R ay
 applaud ing
 grat itude
m unk
 M oppy
 prov iding
J oy
al f
 R ub
 t ing
 tick les
 bad ger
 convin ced
 ju d
 night s
 storm s
G row
 Els ie
 K elly
 choo sing
 respons ib
 you n
 activ ity
 bra ins
 neare st
 youn gest
A bby
 arr anged
 coug hed
 explo ded
 F ly
 reward ing
C laire
M on
 Fl oppy
 T re
 bo nd
 pe ep
 sun screen
erp iece
g ood
 K aty
 S weet
 Tweet y
as ers
 S al
s n
 Jo an
 annoy ing
il ities
 soap y
S plash
me ow
 lace s
 rail s
 P ine
 appreci ated
 off ic
 t apping
 thread s
 P ick
 congratul ated
 emer ged
 heart broken
 we ighing
bo ards
 S il
 t in
D anger
 Ph il
 cl erk
 crocodile s
 attem pt
 scr am
 A ny
 N ancy
 d ial
 examp le
 mess ed
 sn ug
Ah oy
Mom ma
w ater
 Jon ny
 K ay
 hook s
 chip munk
 top s
 bat hed
 guard ing
 so ot
 T ippy
 manag er
 Mic roscope
F riends
ort unately
 D e
 B aa
 mast erpiece
Snow y
end ing
et ah
 er asers
 Tom orrow
 comm on
 f et
 fin ishes
 tip s
 dig s
 me mb
 memb ers
 nibb led
 trot ted
 che etah
 kind er
Pe ople
 bl ond
 chew s
 particular ly
 be ast
 rip s
Ann e
ir cle
 argum ent
L izzy
 Help ing
 fa ith
at ive
 earn ed
 C ici
 Jo ke
 forgiven ess
 obser ving
 J umpy
 che aper
 cur l
 experien ced
 fis hes
 inst antly
 mis chie
 Tw ist
 c ages
 gener osity
 mischie vous
G r
Ros ie
 fo am
 meow ing
B aa
 grand d
 store s
C indy
m ered
 matter ed
etch up
 A g
 l imp
 p asses
 te les
 sleep s
S que
 breath s
io let
 Fred die
 gasp s
 r in
et tle
ord inary
Rob bie
p r
 hat ch
 r umbling
 tr ans
G ot
 Ho pper
 Mom ma
 accompl ished
 grass ho
 satis f
ab ra
o ver
 mat s
 smart est
 str um
 teles cope
 th ump
When ever
ac ing
 mo at
 wh ined
 I ce
 farm ers
 j ugg
 scram bled
G ina
 dri p
 M ore
 ang rily
 collap sed
 garden s
 sy rup
 discover ies
 experience s
 forest s
 sty les
 ve gg
ide y
ou raged
  


 med als
 to r
ho le
 Do es
 con qu
 f aint
 mean ing
 otter s
 ty pes
 f if
 hard est
 sn apping
ac ock
ad abra
p it
 express ion
 move ments
er ing
 aff ect
 bubb ly
 ch illy
 sur v
N ever
 cour t
 unf air
 vest s
P inky
 extra ordinary
 score s
 tooth brush
 att itude
 Mon key
 blue bird
 hor ri
 vi br
 k etchup
 spear s
M o
M other
ll s
m el
 B erry
 behavi our
 grassho pper
 soon er
 ha bit
 pat ches
K aren
 Ash ley
 af ar
 mom ma
 poke s
J on
er ts
y d
J acob
 sc ri
 th ie
 thick er
l o
  icky
 F le
 F riend
 T erry
 class mates
 shr unk
 slither ed
 squee zes
 glitter ing
 prick ly
 exp ert
 R iri
 ann ounced
 kneel ing
 to pp
 S uper
 mark ing
 pe acock
ell ing
 A choo
 C ally
 cost s
ct ric
 thie ves
 water mel
 zigzag s
P apa
 A pp
 Z og
 act s
 h ood
 jump er
 sk irts
 Cl oud
 Sw im
 wo lves
 co coon
 con cer
 dri ft
 sque aky
 thumb s
 bo ards
 wood cut
 Eliz a
 ser vant
J essie
 che ating
aff le
b u
id ence
 Be cky
 J ason
 r aking
 tr ading
 explain ing
c at
ri ck
 b iscuit
 tid ied
 E ric
 lunch time
 A c
 P uffy
 luck ily
Fr og
an ced
 spill ing
 D ay
 An imal
 Mad dy
 U se
 dess erts
 trans form
F ire
 Dan iel
 M ine
 P ig
it s
r or
� �
 G ill
 St ill
 C aptain
 m irac
 mess ages
am ma
r ough
 G illy
 L ung
 be ating
 ch ill
 windows ill
id y
 T ammy
 see king
o ot
 Rain bow
 a ctor
 L ina
 Will iam
se ss
 M ath
 fore shadow
A ny
pr il
 H i
 P inch
 lean s
Blue y
ac les
w ar
 Mon ster
 T iger
 cloth s
 de v
 fl ashing
 his sing
 watermel on
B ounce
F reeze
rac adabra
 St ep
 disc ouraged
 fun n
 posit ive
 wind ing
 compet e
 dri pped
 for ts
 woodcut ter
p op
 Frank ie
 disagree ing
 press ing
 tea pot
 W il
 gl immering
ick ing
 kangaroo s
 tidy ing
 trust s
 vegg ies
 Fl ora
 Pe ep
 land ing
 temp ted
 do ck
 for med
 over w
 sh allow
 To oth
 f ade
 r ack
Not hing
l ers
 cop s
 ele ctric
 wor st
el ing
f lowers
 apolog y
 Sil ver
 sled s
a i
cream s
i ving
 L ife
 as s
 comet s
up id
 J elly
 M ag
 Sh ark
 sa v
B ug
Ow l
  4
 convers ation
 offic ers
 p apa
 situ ations
 R oger
R ain
 d ing
 sun s
ay e
st orm
 But ter
 mill er
 overw hel
 pizz as
 scurry ing
 structure s
 zip s
” ,
 Ch arlotte
 H urry
 Ol ivia
 f oggy
 grandd aughter
Z oe
 Am ber
 Jane y
 deser ved
 web s
R abbit
 B uster
 Mix ie
 S asha
 Sp idey
 Y ummy
 cub s
 opport unity
 Go ld
 difference s
 rhin o
 sn orted
 T ell
 quack ing
 Bird s
 he aven
F ifi
if ully
 inch worm
 le vers
 unl o
 T yler
 appro ach
 in ter
 B oom
 Fel ix
 Ru fus
 cooper ate
 po s
 pos sess
 seagull s
?” .
rag on
s ers
wel come
 Sm oke
 disappoint ment
 po se
and ra
 bin oc
 sneak s
 speak s
 art work
 binoc ular
sn ap
 Sn ake
 answer ing
 sc owl
 surf ed
 short cut
 d ep
 rob in
 s ipped
 Gra nd
 In ky
 ar rest
Cl imb
 Am anda
 am used
 re un
 ribb it
 unwra pped
ss y
 appl ause
 pepper oni
 repe ats
ug ar
 C ars
 M ae
 check out
 key hole
 padd ling
 puppet s
 stri king
 visit or
D eal
L ia
 B rian
 C ircle
 att acked
 cro aked
 un z
E at
 G us
 Ot to
 sp ooky
E ach
ors ie
 beaut ifully
 groan ed
 Je an
 check ing
 cons ider
 swimsuit s
cident s
g ar
s ie
 Y ellow
u ses
 Sl inky
 Sque ak
 g room
 water s
j est
 in vent
y le
 exam s
 net s
L uke
et s
 dry ing
ot ion
u dy
 Aunt ie
 R ebecca
 l ump
 shrug s
ag ine
art in
 cheer fully
 heel s
 honk s
 shoot s
 shy ly
 so bbing
le st
 S ince
 ch in
 sh h
es ses
h ny
il i
 hang s
 health ier
 whimp ered
an ish
 M us
M ilo
ic ious
 caterpill ars
Slow ly
 R atty
 f ries
 magnif ying
 squ inted
izz es
 F ind
 bl amed
 fascin ating
 T ip
 frustr ation
 sc ulp
 sculp ture
ch ing
 sh immering
ou ched
 Pe ace
 po ss
Sh aring
 Pen elope
 number ed
 ple as
 s uck
ed ic
th at
 W affle
 nibb le
 ba a
 flow ing
am il
ell ie
i bbles
oth y
 O ff
 gr umbled
 ra ked
Pe pper
hing s
 build er
Bu bbles
 Woo lly
 fa cing
 gu ards
 pet ting
 sway ing
e at
rac ted
 det ails
 myster ies
 sprink le
Y esterday
 Bo at
 H ar
 en emy
 fl ock
 sn ort
se y
 B arry
 good ies
 table t
 texture s
 C urious
 po pping
 w ig
 Gra cie
 count ries
 cr ops
 fan s
 mar ve
 stack s
 wild flowers
 See ing
 knob s
h ow
 Jen n
 Tess a
 bush y
 loc al
 Bub u
 ang rier
 binocular s
 bow ing
 drown ed
 hunt ing
 peep ed
 ste w
 M atch
 map s
 G low
 moon light
 n iece
 qu izzes
 D eal
 outfit s
 John son
 crow ded
 mind ful
 w rench
 weak er
 wh oosh
O O
 Bee f
 end ings
S qu
cy cles
 fl ashes
 hesit ation
 proper ty
I m
o ll
 O xy
 ab ility
 bo il
 car ts
 fo nd
 imagination s
 un less
amil iar
 Ac cidents
 And rew
 R ight
 gl ared
get ic
st and
 fold s
 ha ven
 kn it
 mic row
 space s
 unf amiliar
 P et
 dirt ier
 responsib ility
T una
s aw
th s
 desk s
 microw ave
 p ouch
b ank
 crack er
B less
ib ly
 O xygen
 ast on
 d ate
 mem ber
 sw apped
rn ie
 R avi
 R ing
 B un
 disappear ing
 door step
 re bu
 soft ened
 wh ine
C ra
W ant
f ree
l t
 Hel en
 n atur
 quack s
 Ch ip
 F ix
 Pe ggy
 T oo
 listen er
 writ er
sc ar
 Sp icy
 bl ushed
 pri v
 palm s
ven ir
 P ast
 not icing
 sou venir
pe at
po ison
u pt
 G abby
 dis aster
 law s
end ant
ent r
re peat
st r
 R es
 T ra
 ph ones
Be ing
Rob by
re g
 B ert
 C ut
 Co al
 L i
 conf idence
A va
al a
 overwhel med
 stir s
 tim id
 fl ick
 may or
ing ly
 Mo le
 P retty
 t ugging
C he
as mine
gu ess
 inj ured
 mail ing
 owl s
 unt angle
l or
 B ooks
 Im mediately
 Wh ite
 conc entr
 satisf action
S c
Wh ose
 Animal s
 Mar ch
F ly
Je ff
M abel
 E at
 l im
M ittens
m ers
 Wo nder
 pr ank
th is
 B onnie
 Mel issa
 P ot
 R un
 Tri angle
 hoo ves
W iggly
 Cl ose
 Cle an
 K n
 N ora
 S ir
 fix er
w ell
 St artled
 cl ut
 sn ar
ic ate
 Tr ucky
 instrum ent
 sk ies
Ex cited
b ling
l ish
 F aye
 H orsie
 cap t
 Mat ilda
 des c
 disag re
ad ually
 Sleep y
 cre ak
 pe cks
 rin se
 stain s
 wrigg led
S usan
ik y
 Cra bby
 Hel i
 I cy
 S ing
 bump ing
 sh ave
 bend ing
 r uff
 swir l
Play ing
ul f
 Sc issors
 chat ted
 explor ation
 sand pit
Cl ose
S m
cess ary
 fact s
 le ver
 rod s
M ake
 C andy
 attach ing
 B ro
 bur ger
 fool ed
 clear ly
 concer ned
 glow s
May a
W ally
 certain ly
 comp an
 la va
 rever sing
 sal on
 cir c
 fet ched
 motor cycles
 sm elt
el s
 firef lies
 old est
 pro d
 somet ime
 t unes
 tr oll
 blond e
 challen ges
 kiss ing
K ayla
R ing
 Bob bie
 warm ed
 L ots
 b ound
 different ly
 natur al
 unlock ing
T ara
 conqu ered
 cup cake
 cut ter
 det ect
 river bank
 ru bb
Ab racadabra
D ino
er g
s a
urp le
 Fl ap
 all ey
 hat es
Jul ia
 O pen
 real ise
 send s
 swir ls
s orry
 C ammy
 bang ing
 m unched
 sens ation
 wigg ling
Is n
 Rel iable
 cl ips
 f ist
 hipp os
 topp ings
Do ctor
M ichael
 Green y
 br akes
 ha lves
 mirac le
 ro be
 st ings
 sway ed
H ope
 Cl imb
 P ink
 ostri ches
 surv ive
F ish
 Flop sy
 bubb ling
 cr ushed
 emb ra
 other wise
 tor to
ber t
keep ers
ul a
 Look ing
 tent s
 O f
 repair ing
an i
 W orking
 liz ards
 rubb ish
 stretch y
 vine gar
 Flick er
 passen ger
Su zie
 E d
 Wh ich
 p ounced
 torto ise
 vibr ant
M any
ast e
 Gr ump
 R h
 scen e
 b as
 desper ately
 gl ided
 moo ed
g r
 Light ning
 Sunday s
 calm er
 cop ied
 int ently
 ma jest
 p oop
 sn ip
 P er
 coo lest
 j ing
 joy fully
 jud ges
 rag s
 tw el
 wo ken
n et
oo h
ra p
 Jo dy
 gl ob
 lecture s
sm elling
 aston ished
 cous ins
 h ips
Mike y
is ible
ly n
 cap es
 Out side
 arri ves
 goo ey
 gu esses
 inv isible
 reun ited
 speak er
 success fully
Ew w
un o
 L u
 bat s
 twel ve
wh y
 chat ting
 comput ers
 good ness
ur ity
 Carl a
 snowfl ake
 stack ing
m ie
 comm un
 compan ion
 desper ate
 park s
 pound s
 rac er
 reapp eared
N ick
ist ory
 an k
 d ou
 le vel
 luck iest
L ou
O l
Z igzag
b ed
 S ugar
 cricket s
 d umb
 g all
 sell s
 stomach s
 t ale
 Ste ven
 disagre ement
 disobey ed
 g ates
 s us
 wind s
igg les
 W hee
 aw h
 awh ile
 cr isp
 ho ses
 pearl s
M ore
 Or ange
 loyal ty
 pops ic
 so da
L inda
it es
 tong ues
 C D
 Ros a
 rid er
re nt
us ion
 Bl ack
O oh
 L aw
 ab o
 sure ly
p an
 bu nd
 occas ion
col ored
d es
 Ann abelle
 chick s
 guit ars
 st un
! ’
d og
izz a
r um
 I ron
 R aven
 abo ard
 alligator s
 intellig ence
 rebu ild
 seas he
 separ ating
ch ief
 V iolet
 cre ep
 cro ak
F ound
 A pril
 C are
 O ld
 W inky
 c uc
 caut ion
 learn er
C atch
Somet hing
aid s
 Un i
 r ins
 reveal ing
 sp iky
 wh ines
sol ut
 S ettle
 esc ap
 tick ling
w orking
 B a
 C oby
 Ro ar
 cr ouched
 glob e
 under water
u dge
 appear ance
 bloom s
 pr og
!' .
J an
Jess ica
ever se
 ' '
 So cky
 guard ian
 hat ched
 le aking
 stroke s
f ived
if er
se ph
st op
ur ricane
 do ves
 persist ence
 rout ine
 t ant
 zoo keepers
arn ing
eal ing
 adm it
 bl ame
 light ing
 pain ful
 qu ilt
 squ ashes
 tap s
Ch icky
Mat t
S leep
Sn ap
 P uff
 deep ly
 mo ld
 ri pp
 sh attered
 tempt ing
Ah h
T oys
 Sp in
 bur gers
 cent re
 electric ity
 peek s
 sec urity
 squir ted
 thr one
R alph
S ophia
Th ree
gg les
 L iam
 allow ing
 cook s
 real izing
c on
em on
 cho pping
 exch ange
 l ar
ck er
ort h
us hes
 Quick ly
 R ace
 sweet ly
Sh are
 A lf
 glitt ered
 rins ed
 sweet er
o ss
ver ing
is app
 In ch
 build ers
 defe ated
 ener getic
 fu rious
 go ggles
 mel ody
 melt s
S w
Z ero
 C omet
 Cat s
 choo ses
 sniff led
 tant rum
 wa ded
as y
 G iant
 Other wise
 compet ing
 contain er
 M ila
 Sh arp
ar ted
b ang
ere my
 D uke
 P ark
 R ara
 attempt s
 h udd
 l ull
 lar ger
 protect ion
 serious ly
 und one
 C her
 Pinch y
 Wh ale
 buck les
 cl uck
 coo ed
 helicopter s
 toss ing
L izzie
Sh oo
 O ver
 Sm o
 T ears
Every thing
S weet
 D in
 H or
 courage ous
 d edic
 hum med
C urious
Sque aky
St ill
solut ely
 al oud
 deser ves
 go d
 mu ster
 patient s
 rac ers
Mad dy
s he
 D ragon
 M a
 Sque e
 T hings
U se
ap s
 J et
 Liz a
 R usty
 mar vel
 meet s
 tour s
 Cr usty
 H ops
 R eddy
