{
  "\u0000": 0,
  "\u0001": 1,
  "\u0002": 2,
  "\u0003": 3,
  "\u0004": 4,
  "\u0005": 5,
  "\u0006": 6,
  "\u0007": 7,
  "\b": 8,
  "\t": 9,
  "\n": 10,
  "\n\n": 516,
  "\n\n\n": 882,
  "\n ": 5723,
  "\n \n": 2087,
  "\u000b": 11,
  "\f": 12,
  "\r": 13,
  "\u000e": 14,
  "\u000f": 15,
  "\u0010": 16,
  "\u0011": 17,
  "\u0012": 18,
  "\u0013": 19,
  "\u0014": 20,
  "\u0015": 21,
  "\u0016": 22,
  "\u0017": 23,
  "\u0018": 24,
  "\u0019": 25,
  "\u001a": 26,
  "\u001b": 27,
  "\u001c": 28,
  "\u001d": 29,
  "\u001e": 30,
  "\u001f": 31,
  " ": 32,
  " \n": 576,
  " \n\n": 8851,
  " \n \n": 6758,
  "  ": 4831,
  "  \n": 6725,
  " \"": 319,
  " '": 2897,
  " ''": 9845,
  " -": 1862,
  " 1": 6322,
  " 10": 7714,
  " 2": 7470,
  " 3": 2742,
  " 4": 9088,
  " 5": 7823,
  " A": 445,
  " Ab": 5479,
  " Abbie": 7359,
  " Abby": 6319,
  " Abi": 7725,
  " Abigail": 5960,
  " Ac": 8973,
  " Accidents": 9375,
  " Achoo": 8931,
  " Adam": 6775,
  " After": 1544,
  " Ag": 8798,
  " Al": 3033,
  " Alex": 4981,
  " Alf": 9910,
  " Ali": 7843,
  " Alice": 4606,
  " All": 1398,
  " Ally": 6396,
  " Along": 7527,
  " Although": 8309,
  " Always": 5762,
  " Am": 5843,
  " Amanda": 9174,
  " Amber": 9113,
  " Amelia": 8164,
  " Amy": 833,
  " An": 5628,
  " Ana": 7732,
  " And": 727,
  " Andrew": 9376,
  " Andy": 2924,
  " Ang": 7388,
  " Angel": 7956,
  " Animal": 8980,
  " Animals": 9483,
  " Ann": 2212,
  " Anna": 899,
  " Annabelle": 9790,
  " Anne": 6527,
  " Annie": 5145,
  " Another": 8413,
  " Ant": 6532,
  " Any": 8717,
  " App": 8939,
  " April": 9811,
  " Ar": 8629,
  " Are": 4218,
  " As": 1346,
  " Ash": 6610,
  " Ashley": 8900,
  " At": 1735,
  " Aunt": 5857,
  " Auntie": 9230,
  " Ava": 6111,
  " B": 380,
  " Ba": 9831,
  " Baa": 8740,
  " Baby": 5317,
  " Bad": 8126,
  " Ball": 6829,
  " Bally": 7607,
  " Bang": 8096,
  " Barky": 7375,
  " Barry": 9314,
  " Be": 2403,
  " Beaky": 7247,
  " Bear": 2664,
  " Because": 6084,
  " Becky": 8962,
  " Bee": 4842,
  " Beef": 9358,
  " Beep": 5755,
  " Before": 5344,
  " Behind": 6159,
  " Being": 6068,
  " Bella": 2101,
  " Ben": 560,
  " Benny": 2646,
  " Berry": 8893,
  " Bert": 9452,
  " Bess": 7925,
  " Bessie": 4039,
  " Bet": 3675,
  " Beth": 6302,
  " Betsy": 6651,
  " Betty": 3984,
  " Bibi": 8285,
  " Big": 4550,
  " Biggie": 7085,
  " Biggy": 8338,
  " Bill": 4564,
  " Billy": 1799,
  " Bingo": 8549,
  " Binky": 4589,
  " Bird": 2572,
  " Birdie": 5923,
  " Birds": 9131,
  " Birdy": 3699,
  " Birthday": 6860,
  " Bl": 1895,
  " Black": 9780,
  " Blink": 6261,
  " Blinky": 7974,
  " Bloom": 6927,
  " Blue": 2027,
  " Bluey": 5171,
  " Bo": 5425,
  " Boat": 9308,
  " Bob": 716,
  " Bobbie": 9587,
  " Bobby": 2597,
  " Bobo": 1371,
  " Bones": 7222,
  " Bonnie": 9495,
  " Boo": 5456,
  " Books": 9476,
  " Boom": 9141,
  " Bop": 6226,
  " Both": 5519,
  " Boun": 4493,
  " Bounce": 5094,
  " Bouncy": 5964,
  " Bow": 4485,
  " Br": 2757,
  " Bra": 7917,
  " Bree": 5919,
  " Brian": 9194,
  " Bro": 9558,
  " Brown": 2957,
  " Brownie": 6235,
  " Bu": 2312,
  " Bub": 8600,
  " Bubb": 7641,
  " Bubba": 8331,
  " Bubbles": 4603,
  " Bubu": 9335,
  " Buddy": 1598,
  " Bug": 5639,
  " Buggy": 6680,
  " Bumpy": 8272,
  " Bun": 9408,
  " Bunny": 2412,
  " Buster": 9118,
  " But": 548,
  " Butter": 9099,
  " Buzz": 3628,
  " Buzzy": 4552,
  " By": 6271,
  " Bye": 6251,
  " C": 786,
  " CD": 9775,
  " Cally": 8932,
  " Cammy": 9615,
  " Can": 1131,
  " Candy": 9556,
  " Captain": 8994,
  " Car": 6001,
  " Cara": 6857,
  " Care": 9812,
  " Cari": 8204,
  " Carl": 4487,
  " Carla": 9726,
  " Cars": 9184,
  " Cat": 2332,
  " Cathy": 6782,
  " Cats": 9928,
  " Catty": 6236,
  " Ch": 1842,
  " Charlie": 5147,
  " Charlotte": 9107,
  " Che": 5447,
  " Cher": 9953,
  " Chess": 7736,
  " Chew": 6258,
  " Chewy": 7681,
  " Chick": 8511,
  " Chicky": 5531,
  " Chip": 9421,
  " Chirp": 7139,
  " Chirpy": 2388,
  " Chloe": 6448,
  " Chr": 5986,
  " Chris": 7496,
  " Christ": 6872,
  " Christmas": 7025,
  " Cici": 8772,
  " Cindy": 7288,
  " Circle": 9195,
  " Cl": 4444,
  " Claire": 6684,
  " Clara": 5532,
  " Cle": 8306,
  " Clean": 9503,
  " Climb": 9636,
  " Close": 9502,
  " Cloud": 8945,
  " Co": 4445,
  " Coal": 9454,
  " Coby": 9832,
  " Coco": 5090,
  " Come": 2263,
  " Comet": 9927,
  " Cook": 8574,
  " Copper": 6830,
  " Cow": 7779,
  " Cr": 7860,
  " Cra": 6202,
  " Crab": 7315,
  " Crabby": 9534,
  " Cro": 8099,
  " Crusty": 9997,
  " Cuddles": 6264,
  " Curious": 9318,
  " Cut": 9453,
  " D": 680,
  " Dad": 1306,
  " Daddy": 2369,
  " Daisy": 1614,
  " Dan": 3890,
  " Daniel": 8986,
  " Danny": 5045,
  " Dara": 6596,
  " Dare": 6014,
  " Dave": 4699,
  " Davey": 8165,
  " David": 5909,
  " Day": 8979,
  " De": 8739,
  " Deal": 9349,
  " Dee": 6623,
  " Despite": 8211,
  " Did": 5712,
  " Din": 9968,
  " Dina": 8083,
  " Dino": 5601,
  " Dizzy": 6450,
  " Do": 1202,
  " Doctor": 7301,
  " Dodo": 6571,
  " Does": 8855,
  " Dog": 5014,
  " Doggy": 2416,
  " Dolly": 4340,
  " Don": 2610,
  " Dot": 6346,
  " Dotty": 8532,
  " Dr": 5501,
  " Dragon": 9985,
  " Duck": 6479,
  " Ducky": 2709,
  " Duke": 9943,
  " E": 742,
  " Each": 5289,
  " Earth": 6114,
  " Eat": 9488,
  " Ed": 9663,
  " Eddie": 8001,
  " El": 6786,
  " Elephant": 7118,
  " Eliz": 8212,
  " Eliza": 8955,
  " Ella": 2885,
  " Elle": 8491,
  " Ellie": 4469,
  " Elly": 4955,
  " Els": 7175,
  " Elsa": 8621,
  " Elsie": 8660,
  " Em": 1739,
  " Emily": 3493,
  " Emma": 2054,
  " Emmy": 7394,
  " End": 4651,
  " Enjoy": 6272,
  " Eric": 8971,
  " Eva": 8409,
  " Even": 3271,
  " Eventually": 5165,
  " Every": 903,
  " Everybody": 7914,
  " Everyday": 6069,
  " Everyone": 1435,
  " Everything": 5159,
  " Everywhere": 4068,
  " Ex": 7380,
  " Excited": 8300,
  " F": 605,
  " Fairy": 7740,
  " Farmer": 7389,
  " Faye": 9519,
  " Fe": 8557,
  " Fel": 8543,
  " Felix": 9142,
  " Fido": 6769,
  " Fifi": 5180,
  " Fighting": 7538,
  " Fin": 1257,
  " Finally": 2192,
  " Find": 9263,
  " Finn": 4987,
  " Finny": 4945,
  " Fiona": 8137,
  " Fire": 7106,
  " First": 5674,
  " Fish": 6138,
  " Fishy": 7998,
  " Fix": 9422,
  " Fl": 4686,
  " Flap": 9606,
  " Flappy": 8546,
  " Fle": 8913,
  " Flick": 7980,
  " Flicker": 9660,
  " Flo": 8393,
  " Flop": 8499,
  " Floppy": 8677,
  " Flopsy": 9641,
  " Flora": 9054,
  " Fluffy": 1132,
  " Flutter": 8328,
  " Fly": 8673,
  " Fo": 3695,
  " Follow": 5458,
  " For": 6474,
  " Fox": 4888,
  " Foxy": 6417,
  " Fr": 3540,
  " Frank": 5954,
  " Frankie": 9043,
  " Fred": 2004,
  " Freddie": 8806,
  " Freddy": 4621,
  " Friend": 8914,
  " Friends": 6142,
  " Frog": 5627,
  " Froggy": 5021,
  " From": 939,
  " Frosty": 6964,
  " Fu": 6660,
  " Fuzzy": 7238,
  " G": 1163,
  " Gabby": 9439,
  " Gary": 8002,
  " George": 4948,
  " Gerry": 8188,
  " Get": 6418,
  " Giant": 9934,
  " Gigi": 4848,
  " Gill": 8992,
  " Gilly": 8999,
  " Gina": 6954,
  " Give": 3978,
  " Gl": 8220,
  " Glow": 9345,
  " Go": 2604,
  " God": 5217,
  " Gogo": 5985,
  " Gold": 9125,
  " Good": 5095,
  " Goodbye": 6783,
  " Gr": 5485,
  " Gra": 1810,
  " Grace": 5034,
  " Gracie": 9321,
  " Grand": 9170,
  " Grandma": 2183,
  " Grandpa": 4337,
  " Granny": 7571,
  " Gray": 8438,
  " Green": 5888,
  " Greeny": 9628,
  " Grump": 9670,
  " Grumpy": 6709,
  " Gus": 9200,
  " H": 310,
  " Halloween": 8294,
  " Hannah": 6834,
  " Happy": 5671,
  " Har": 9309,
  " Harry": 5248,
  " Have": 4956,
  " He": 318,
  " Hel": 4510,
  " Helen": 9418,
  " Heli": 9535,
  " Hello": 8502,
  " Help": 4729,
  " Helping": 8768,
  " Henny": 6489,
  " Henry": 5250,
  " Her": 942,
  " Herb": 7801,
  " Here": 4157,
  " Hi": 9017,
  " Hippy": 6170,
  " His": 807,
  " Ho": 5728,
  " Hold": 6969,
  " Holly": 7594,
  " Honey": 8166,
  " Hoot": 6224,
  " Hop": 5585,
  " Hope": 5700,
  " Hopper": 8817,
  " Hoppy": 4825,
  " Hops": 9998,
  " Hor": 9969,
  " Horsie": 9520,
  " How": 2691,
  " However": 6327,
  " Hug": 7871,
  " Hurry": 9108,
  " I": 340,
  " Ice": 8833,
  " Icy": 9536,
  " If": 2560,
  " Im": 8341,
  " Immediately": 9477,
  " In": 967,
  " Inch": 9917,
  " Inky": 9171,
  " Inside": 1679,
  " Instead": 3042,
  " Iron": 9798,
  " Is": 5020,
  " Isn": 7720,
  " It": 431,
  " Its": 5439,
  " Izzy": 7248,
  " J": 607,
  " Jack": 1220,
  " Jackie": 8107,
  " Jacky": 8155,
  " Jacob": 6955,
  " Jake": 3450,
  " James": 5559,
  " Jamie": 6433,
  " Jan": 6253,
  " Jane": 1386,
  " Janey": 9114,
  " Janie": 7888,
  " Jason": 8963,
  " Jax": 8508,
  " Jay": 7071,
  " Jazz": 4558,
  " Je": 6085,
  " Jean": 9207,
  " Jeff": 6603,
  " Jelly": 9082,
  " Jen": 1986,
  " Jenn": 9331,
  " Jenna": 6695,
  " Jenny": 3265,
  " Jerry": 2405,
  " Jess": 6025,
  " Jessica": 6961,
  " Jessie": 6789,
  " Jet": 9991,
  " Jill": 2340,
  " Jilly": 6376,
  " Jim": 2174,
  " Jimmy": 2978,
  " Jo": 1183,
  " Joan": 8690,
  " Jody": 9697,
  " Joe": 1725,
  " Joey": 5087,
  " John": 1656,
  " Johnny": 4775,
  " Johnson": 9351,
  " Jojo": 7797,
  " Joke": 8773,
  " Jolly": 8476,
  " Jon": 6982,
  " Jones": 6534,
  " Jonny": 8726,
  " Josh": 6449,
  " Joy": 5924,
  " Ju": 5991,
  " Judge": 7907,
  " Judy": 7772,
  " Jul": 5483,
  " Julia": 7096,
  " Julie": 6259,
  " Jump": 7366,
  " Jumpy": 8776,
  " June": 7283,
  " Just": 2209,
  " K": 952,
  " Karen": 8097,
  " Kate": 5359,
  " Katie": 6064,
  " Katy": 8684,
  " Kay": 8727,
  " Kayla": 7073,
  " Keep": 5869,
  " Kelly": 8661,
  " Kevin": 8596,
  " Kids": 6464,
  " Kiki": 4742,
  " Kim": 4175,
  " King": 5306,
  " Kip": 7694,
  " Kit": 7408,
  " Kitty": 1059,
  " Kn": 9504,
  " L": 362,
  " Larry": 7147,
  " Laser": 6700,
  " Later": 5593,
  " Laura": 7427,
  " Law": 9782,
  " Le": 2104,
  " Leave": 6080,
  " Lee": 4389,
  " Lena": 6726,
  " Lenny": 7691,
  " Leo": 2240,
  " Let": 1050,
  " Li": 9455,
  " Lia": 7735,
  " Liam": 9894,
  " Life": 9078,
  " Light": 8639,
  " Lightning": 9678,
  " Like": 5822,
  " Lila": 1694,
  " Lilly": 4818,
  " Lily": 412,
  " Lina": 9010,
  " Linda": 6689,
  " Lion": 6599,
  " Lisa": 2160,
  " Listen": 6837,
  " Little": 3796,
  " Liz": 5313,
  " Liza": 9992,
  " Lizzie": 7263,
  " Lizzy": 5763,
  " Lola": 4817,
  " Look": 3922,
  " Looking": 9650,
  " Loop": 7957,
  " Lots": 9589,
  " Lou": 6156,
  " Louise": 8411,
  " Love": 6234,
  " Lu": 9718,
  " Luc": 8616,
  " Luckily": 7758,
  " Lucky": 4940,
  " Lucy": 694,
  " Luke": 6707,
  " Lulu": 3676,
  " Luna": 2290,
  " Lung": 9000,
  " M": 386,
  " Ma": 9986,
  " Mabel": 7861,
  " Mad": 6821,
  " Maddie": 8310,
  " Maddy": 8981,
  " Mae": 9185,
  " Mag": 9083,
  " Maggie": 5859,
  " Magic": 8550,
  " Maisy": 8472,
  " Make": 7942,
  " Mama": 2774,
  " Man": 8421,
  " Mandy": 4829,
  " Many": 2940,
  " Mar": 4209,
  " March": 9484,
  " Maria": 5213,
  " Marie": 7839,
  " Mark": 2154,
  " Martha": 7638,
  " Mary": 2470,
  " Mat": 5937,
  " Match": 9343,
  " Math": 9013,
  " Matilda": 9522,
  " Matt": 6582,
  " Max": 523,
  " May": 5417,
  " Maya": 7572,
  " Maybe": 1708,
  " Me": 5622,
  " Meg": 8013,
  " Megan": 8404,
  " Mel": 6983,
  " Melissa": 9496,
  " Mia": 652,
  " Mic": 7072,
  " Michael": 7981,
  " Microscope": 8736,
  " Mike": 4593,
  " Mikey": 7130,
  " Mila": 9938,
  " Millie": 5371,
  " Milly": 5956,
  " Milo": 6799,
  " Mimi": 1896,
  " Min": 8635,
  " Mina": 8396,
  " Mindy": 7992,
  " Mine": 8987,
  " Mint": 7821,
  " Mira": 6920,
  " Miss": 3845,
  " Missile": 8536,
  " Missy": 7160,
  " Mittens": 5051,
  " Mix": 6501,
  " Mixie": 9119,
  " Mixy": 7668,
  " Mo": 5676,
  " Mole": 9465,
  " Molly": 2335,
  " Mom": 731,
  " Momma": 8818,
  " Mommy": 1555,
  " Momo": 2445,
  " Mon": 6516,
  " Monkey": 8883,
  " Monster": 9023,
  " Moo": 6143,
  " Moon": 7140,
  " Moppy": 8647,
  " More": 8839,
  " Mother": 8606,
  " Mouse": 6303,
  " Mousy": 8061,
  " Mr": 1326,
  " Mrs": 4305,
  " Muffin": 8295,
  " Mum": 3727,
  " Mummy": 4821,
  " Mus": 9253,
  " My": 2489,
  " N": 2285,
  " Nana": 6848,
  " Nancy": 8718,
  " Navy": 7934,
  " Ne": 8258,
  " Near": 7491,
  " Never": 8351,
  " Next": 4563,
  " Nice": 7695,
  " Nick": 7451,
  " Nina": 6972,
  " No": 3107,
  " Nobody": 7648,
  " Nora": 9505,
  " Not": 5706,
  " Nothing": 6804,
  " Now": 1158,
  " Nurse": 8481,
  " Nut": 8056,
  " Nutty": 8515,
  " O": 1428,
  " OK": 3487,
  " Of": 9652,
  " Off": 9290,
  " Oh": 8424,
  " Okay": 7701,
  " Ol": 6237,
  " Old": 9813,
  " Olive": 4629,
  " Oliver": 6867,
  " Olivia": 9109,
  " Ollie": 2441,
  " Olly": 6029,
  " On": 2238,
  " Once": 6437,
  " One": 536,
  " Only": 7082,
  " Open": 9610,
  " Or": 4682,
  " Orange": 9768,
  " Ot": 8503,
  " Other": 7008,
  " Otherwise": 9935,
  " Otto": 9201,
  " Our": 6335,
  " Out": 5675,
  " Outside": 9708,
  " Over": 9963,
  " Ow": 4579,
  " Owl": 4992,
  " Oxy": 9367,
  " Oxygen": 9400,
  " P": 982,
  " Pam": 7249,
  " Pandy": 4359,
  " Papa": 5195,
  " Park": 9944,
  " Past": 9433,
  " Pat": 4638,
  " Patch": 7468,
  " Patty": 8603,
  " Paul": 4996,
  " Paws": 6602,
  " Pe": 2837,
  " Peace": 9273,
  " Peanut": 6944,
  " Peep": 9055,
  " Peggy": 9423,
  " Pen": 7884,
  " Penelope": 9276,
  " Penny": 5096,
  " People": 3831,
  " Pepper": 5564,
  " Per": 9686,
  " Pet": 9387,
  " Pete": 3936,
  " Peter": 3682,
  " Ph": 7756,
  " Phil": 8712,
  " Pick": 8703,
  " Pig": 8988,
  " Piggy": 8592,
  " Pinch": 9018,
  " Pinchy": 9954,
  " Pine": 8698,
  " Pink": 9637,
  " Pinky": 5155,
  " Pip": 5129,
  " Pipp": 3530,
  " Pippa": 5901,
  " Pippin": 4026,
  " Pl": 8128,
  " Play": 7316,
  " Playing": 8414,
  " Please": 2589,
  " Po": 6537,
  " Polly": 3694,
  " Poor": 7909,
  " Pop": 8311,
  " Poppy": 3658,
  " Pot": 9497,
  " Pr": 6729,
  " Pretty": 9466,
  " Prin": 6087,
  " Prince": 8088,
  " Princess": 6296,
  " Puff": 9874,
  " Puffy": 8974,
  " Pup": 6875,
  " Puppy": 7634,
  " Put": 6133,
  " Q": 6863,
  " Qu": 5429,
  " Quack": 6568,
  " Quacky": 8523,
  " Queen": 7083,
  " Quick": 6435,
  " Quickly": 9906,
  " R": 1079,
  " Rabbit": 5683,
  " Race": 9907,
  " Rachel": 5886,
  " Rain": 6901,
  " Rainbow": 9008,
  " Ralph": 8119,
  " Rara": 9945,
  " Ratty": 9258,
  " Raven": 9799,
  " Ravi": 9406,
  " Ray": 5812,
  " Razor": 7862,
  " Re": 6994,
  " Ready": 8121,
  " Rebecca": 9231,
  " Red": 4513,
  " Reddy": 9999,
  " Rel": 8630,
  " Reliable": 9621,
  " Remember": 6013,
  " Remy": 2094,
  " Res": 9446,
  " Rex": 2922,
  " Rh": 9671,
  " Ria": 8140,
  " Rich": 7149,
  " Ricky": 8519,
  " Right": 9377,
  " Ring": 9407,
  " Riri": 8923,
  " Rita": 8357,
  " Ro": 5192,
  " Roar": 9833,
  " Rob": 4036,
  " Robbie": 7891,
  " Robby": 5978,
  " Robert": 7302,
  " Robo": 7102,
  " Rock": 5099,
  " Rocky": 5496,
  " Roger": 9093,
  " Rollie": 7061,
  " Rolly": 6770,
  " Ron": 7383,
  " Roo": 7615,
  " Ros": 5133,
  " Rosa": 9776,
  " Rose": 3916,
  " Rosie": 5319,
  " Rover": 6575,
  " Ru": 4784,
  " Rub": 8651,
  " Ruby": 5377,
  " Rudy": 7289,
  " Ruff": 8120,
  " Rufus": 9143,
  " Run": 9498,
  " Rusty": 9993,
  " Ruth": 8301,
  " Ryan": 7411,
  " S": 298,
  " Sad": 6357,
  " Sadie": 8216,
  " Sadly": 7413,
  " Sal": 8688,
  " Sally": 1051,
  " Sam": 555,
  " Samantha": 8365,
  " Sammy": 3093,
  " Sandy": 5342,
  " Santa": 6442,
  " Sara": 943,
  " Sarah": 1714,
  " Sasha": 9120,
  " Saturday": 8381,
  " Say": 7849,
  " Sc": 6558,
  " Scissors": 9545,
  " Se": 8032,
  " See": 4886,
  " Seeing": 9328,
  " Settle": 9827,
  " Sh": 3625,
  " Shadow": 7971,
  " Share": 8022,
  " Sharing": 5064,
  " Shark": 9084,
  " Sharp": 9939,
  " She": 341,
  " Shelly": 8254,
  " Show": 7659,
  " Sil": 8709,
  " Silver": 9073,
  " Simon": 7722,
  " Since": 9243,
  " Sing": 9537,
  " Sir": 9506,
  " Sk": 4917,
  " Skelly": 6475,
  " Skip": 6720,
  " Sky": 5547,
  " Sl": 7412,
  " Sleep": 7464,
  " Sleepy": 9526,
  " Slinky": 9216,
  " Slow": 5493,
  " Slowly": 5751,
  " Sm": 4802,
  " Smith": 5304,
  " Smo": 9964,
  " Smoke": 9152,
  " Sn": 3251,
  " Snake": 9162,
  " Snap": 6896,
  " Snow": 4030,
  " Snowman": 7172,
  " Snowy": 4894,
  " Snuggles": 6634,
  " So": 723,
  " Socky": 9846,
  " Sofia": 8477,
  " Soft": 7685,
  " Softy": 8405,
  " Some": 2777,
  " Someone": 5553,
  " Somet": 2516,
  " Something": 5650,
  " Sometimes": 2687,
  " Soon": 1728,
  " Sophia": 7231,
  " Sophie": 5085,
  " Sorry": 6307,
  " Sp": 2619,
  " Spark": 5272,
  " Sparkle": 7631,
  " Sparky": 7133,
  " Spe": 4483,
  " Speed": 8321,
  " Speedy": 4637,
  " Spicy": 9428,
  " Spidey": 9121,
  " Spike": 4101,
  " Spin": 9882,
  " Spirit": 7243,
  " Splash": 6033,
  " Spot": 602,
  " Spring": 6076,
  " Squ": 5778,
  " Sque": 4819,
  " Squeak": 9217,
  " Squeaky": 5032,
  " Squee": 9987,
  " Squirrel": 6293,
  " St": 2550,
  " Stan": 8235,
  " Star": 5702,
  " Startled": 9509,
  " Stay": 6458,
  " Ste": 7866,
  " Stella": 7272,
  " Step": 9033,
  " Steve": 5837,
  " Steven": 9754,
  " Still": 8993,
  " Stitch": 5876,
  " Stop": 5786,
  " Stretch": 7284,
  " Su": 4982,
  " Suddenly": 1335,
  " Sue": 517,
  " Sugar": 9747,
  " Sun": 6255,
  " Sunday": 4990,
  " Sundays": 9679,
  " Sunny": 4005,
  " Super": 8927,
  " Sure": 6422,
  " Susan": 6570,
  " Susie": 4169,
  " Suzie": 6879,
  " Suzy": 5482,
  " Sw": 7215,
  " Sweet": 8685,
  " Swim": 8946,
  " T": 271,
  " TV": 2556,
  " Take": 7173,
  " Taking": 8192,
  " Tammy": 9005,
  " Tara": 7089,
  " Te": 7759,
  " Tears": 9965,
  " Ted": 4794,
  " Teddy": 4318,
  " Tell": 9129,
  " Terry": 8915,
  " Tess": 7715,
  " Tessa": 9332,
  " Th": 856,
  " Thank": 2050,
  " Thanks": 7575,
  " That": 1362,
  " The": 285,
  " Their": 2487,
  " Then": 879,
  " There": 1531,
  " These": 5411,
  " They": 314,
  " Things": 9988,
  " This": 1276,
  " Thomas": 6334,
  " Those": 6756,
  " Thunder": 8516,
  " Tia": 7334,
  " Tiger": 9024,
  " Tilly": 5033,
  " Tim": 343,
  " Time": 8050,
  " Timmy": 1396,
  " Tina": 3873,
  " Tiny": 2596,
  " Tip": 9266,
  " Tippy": 8734,
  " Titi": 7335,
  " To": 1707,
  " Toby": 4179,
  " Today": 3476,
  " Todd": 7968,
  " Together": 2527,
  " Tom": 422,
  " Tommy": 1854,
  " Tomorrow": 8746,
  " Tony": 5285,
  " Too": 9424,
  " Toot": 7346,
  " Tooth": 9062,
  " Toto": 5457,
  " Toys": 8110,
  " Tr": 2942,
  " Tra": 9447,
  " Tre": 8678,
  " Tree": 6767,
  " Tri": 8133,
  " Triangle": 9499,
  " Truck": 8390,
  " Trucky": 9513,
  " True": 3379,
  " Trust": 6826,
  " Try": 6835,
  " Tuesday": 5116,
  " Tuna": 5374,
  " Turt": 7352,
  " Turtle": 7493,
  " Tw": 5237,
  " Tweet": 3880,
  " Tweetie": 7512,
  " Tweety": 8686,
  " Twinkle": 6915,
  " Twist": 8783,
  " Two": 6423,
  " Tyler": 9138,
  " U": 2921,
  " Un": 4470,
  " Uncle": 5384,
  " Under": 4832,
  " Unfortunately": 6506,
  " Uni": 9821,
  " University": 7490,
  " Until": 7918,
  " Up": 7074,
  " Use": 8982,
  " V": 4495,
  " Velvet": 5835,
  " Vicky": 8553,
  " Violet": 9807,
  " Vivi": 8353,
  " Vroom": 8115,
  " W": 545,
  " Waffle": 9282,
  " Wait": 8094,
  " Wally": 5345,
  " Want": 6453,
  " Watch": 5987,
  " Water": 5957,
  " We": 805,
  " Wednesday": 4975,
  " Welcome": 6419,
  " Well": 7633,
  " Wendy": 7744,
  " Wh": 1057,
  " Whale": 9955,
  " What": 1616,
  " Whee": 9761,
  " When": 944,
  " Whenever": 5035,
  " Where": 4404,
  " Which": 9664,
  " While": 3038,
  " Whiskers": 2013,
  " Whistle": 6561,
  " White": 9478,
  " Who": 4988,
  " Whoever": 8297,
  " Why": 2469,
  " Wiggly": 5311,
  " Wil": 9047,
  " Will": 3048,
  " William": 9011,
  " Willy": 7577,
  " Win": 7697,
  " Wink": 6614,
  " Winky": 9814,
  " Wisdom": 6078,
  " Wise": 7563,
  " With": 2440,
  " Without": 7048,
  " Wo": 7433,
  " Wolf": 8583,
  " Wonder": 9492,
  " Woo": 7203,
  " Woof": 7001,
  " Woolly": 9297,
  " Wooly": 8255,
  " Working": 9655,
  " Would": 4641,
  " X": 6058,
  " Y": 4721,
  " Yawn": 8422,
  " Yellow": 9214,
  " Yes": 6345,
  " Yesterday": 7050,
  " Yet": 7595,
  " Yoga": 7941,
  " You": 624,
  " Your": 3065,
  " Yummy": 9122,
  " Z": 1795,
  " Zack": 8605,
  " Zara": 5108,
  " Zee": 7435,
  " Zero": 6089,
  " Ziggy": 6652,
  " Zigzag": 5621,
  " Zip": 4092,
  " Zipper": 8288,
  " Zippy": 8062,
  " Zoe": 5845,
  " Zoey": 7581,
  " Zog": 8940,
  " Zoom": 4007,
  " Zoomy": 4751,
  " a": 259,
  " ab": 651,
  " ability": 9368,
  " able": 2020,
  " abo": 9783,
  " aboard": 9800,
  " about": 674,
  " above": 4406,
  " ac": 1417,
  " acce": 3446,
  " accept": 4363,
  " accepted": 5127,
  " accident": 3338,
  " accidentally": 4366,
  " accidents": 8054,
  " accom": 6179,
  " accompl": 6222,
  " accomplish": 6750,
  " accomplished": 8819,
  " accomplishment": 7166,
  " ache": 6945,
  " achie": 5540,
  " achieve": 6181,
  " achieved": 7267,
  " acorn": 2962,
  " acorns": 5025,
  " across": 2277,
  " act": 2356,
  " acted": 5337,
  " acting": 5756,
  " action": 7987,
  " actions": 6088,
  " activ": 6204,
  " active": 8588,
  " activities": 6831,
  " activity": 8665,
  " actor": 9009,
  " acts": 8941,
  " actually": 6016,
  " ad": 1032,
  " add": 2888,
  " added": 3754,
  " adding": 6399,
  " address": 7951,
  " adds": 8172,
  " adm": 2722,
  " admir": 5565,
  " admiration": 8406,
  " admire": 4364,
  " admired": 4496,
  " admiring": 5832,
  " admit": 9863,
  " ador": 3549,
  " adorable": 3563,
  " adult": 7242,
  " adults": 7804,
  " advent": 1223,
  " adventur": 2952,
  " adventure": 1328,
  " adventures": 2264,
  " adventurous": 2964,
  " advice": 4273,
  " aeropl": 3274,
  " aeroplane": 3424,
  " aeroplanes": 7675,
  " af": 2458,
  " afar": 8901,
  " aff": 7059,
  " affect": 8870,
  " afford": 8345,
  " afraid": 2495,
  " after": 897,
  " afternoon": 4881,
  " afterwards": 7329,
  " ag": 566,
  " again": 609,
  " against": 4223,
  " age": 6935,
  " ago": 5454,
  " agre": 5044,
  " agree": 4261,
  " agreed": 1267,
  " agreement": 5777,
  " agrees": 6192,
  " ahead": 4309,
  " aim": 8266,
  " aimed": 7014,
  " air": 1484,
  " airpl": 6007,
  " airplane": 6216,
  " airport": 4294,
  " ais": 7448,
  " aisle": 8184,
  " al": 561,
  " alarm": 4251,
  " alert": 3469,
  " alien": 6249,
  " aliens": 8316,
  " alive": 4702,
  " all": 439,
  " alley": 9607,
  " alligator": 3580,
  " alligators": 9801,
  " allow": 5176,
  " allowed": 4044,
  " allowing": 9895,
  " almost": 3082,
  " alone": 1569,
  " along": 2378,
  " aloud": 9977,
  " already": 4047,
  " alright": 5511,
  " also": 1068,
  " although": 8261,
  " always": 711,
  " am": 750,
  " amaz": 1391,
  " amazed": 2118,
  " amazement": 5602,
  " amazing": 1791,
  " ambulance": 3666,
  " among": 7326,
  " amount": 7543,
  " amused": 9175,
  " an": 427,
  " anchor": 3979,
  " ancient": 2804,
  " and": 267,
  " ang": 3108,
  " angel": 3240,
  " angels": 7279,
  " anger": 7652,
  " angrier": 9336,
  " angrily": 8840,
  " angry": 1038,
  " animal": 777,
  " animals": 816,
  " ank": 9739,
  " ann": 5979,
  " announced": 8924,
  " annoy": 6753,
  " annoyed": 7802,
  " annoying": 8691,
  " another": 1363,
  " answ": 1938,
  " answer": 2538,
  " answered": 3301,
  " answering": 9163,
  " answers": 5575,
  " ant": 1413,
  " antic": 7960,
  " anticip": 8117,
  " anticipation": 8231,
  " ants": 2493,
  " anx": 3245,
  " anxious": 3257,
  " any": 678,
  " anymore": 855,
  " anyone": 2402,
  " anything": 1572,
  " anytime": 5766,
  " anyway": 4202,
  " anywhere": 4383,
  " ap": 2607,
  " apart": 4976,
  " apolog": 4543,
  " apologised": 7892,
  " apologize": 5915,
  " apologized": 5710,
  " apology": 9072,
  " app": 1003,
  " appear": 5187,
  " appearance": 9838,
  " appeared": 2544,
  " appl": 4525,
  " applaud": 4655,
  " applauded": 6106,
  " applauding": 8644,
  " applause": 9180,
  " apple": 1455,
  " apples": 1844,
  " appreci": 5084,
  " appreciate": 5566,
  " appreciated": 8699,
  " appreciation": 8143,
  " appro": 5412,
  " approach": 9139,
  " approached": 5682,
  " apron": 4413,
  " aprons": 8185,
  " ar": 1434,
  " are": 491,
  " area": 5571,
  " aren": 7673,
  " arg": 3822,
  " argu": 5990,
  " argue": 4494,
  " argued": 5955,
  " arguing": 5997,
  " argum": 8456,
  " argument": 8766,
  " arm": 1588,
  " armchair": 3640,
  " arms": 2371,
  " around": 633,
  " arr": 7564,
  " arranged": 8670,
  " arrest": 9172,
  " arri": 1949,
  " arrive": 6175,
  " arrived": 2014,
  " arrives": 9709,
  " arrow": 3190,
  " arrows": 6560,
  " art": 4468,
  " artist": 7181,
  " artwork": 9159,
  " as": 455,
  " ash": 2232,
  " ashamed": 2541,
  " ashtray": 4098,
  " aside": 7252,
  " ask": 1172,
  " asked": 550,
  " asking": 2869,
  " asks": 1821,
  " asleep": 2988,
  " ass": 9079,
  " ast": 6414,
  " aston": 9401,
  " astonished": 9701,
  " astron": 6991,
  " astronaut": 7002,
  " astronauts": 8044,
  " at": 456,
  " ate": 1058,
  " att": 1813,
  " attach": 4185,
  " attached": 5283,
  " attaching": 9557,
  " attack": 8213,
  " attacked": 9196,
  " attem": 8385,
  " attempt": 8715,
  " attempts": 9946,
  " attention": 5037,
  " attic": 3715,
  " attitude": 8882,
  " attract": 3474,
  " attractive": 3505,
  " aud": 7382,
  " audience": 7440,
  " aunt": 3180,
  " aut": 3736,
  " automobile": 3772,
  " automobiles": 8460,
  " av": 2426,
  " available": 4048,
  " avo": 6590,
  " avoc": 3353,
  " avocado": 3616,
  " avocados": 6687,
  " avoid": 6962,
  " aw": 4538,
  " awake": 6131,
  " aware": 8135,
  " away": 582,
  " awe": 5752,
  " awesome": 6321,
  " awful": 8439,
  " awh": 9762,
  " awhile": 9763,
  " awoke": 8444,
  " ax": 4125,
  " axe": 4163,
  " b": 265,
  " ba": 2355,
  " baa": 9284,
  " babies": 5568,
  " baby": 1437,
  " back": 521,
  " backed": 6739,
  " backpack": 4913,
  " backpacks": 7749,
  " backs": 7995,
  " backward": 6934,
  " backwards": 7307,
  " backyard": 2359,
  " bad": 895,
  " badge": 6535,
  " badger": 8654,
  " badly": 4786,
  " bag": 1248,
  " bags": 3638,
  " bak": 6665,
  " bake": 2718,
  " baked": 5227,
  " baker": 6121,
  " bakery": 6797,
  " baking": 4860,
  " bal": 2483,
  " balan": 5107,
  " balance": 2760,
  " balanced": 6313,
  " balancing": 5816,
  " bald": 2611,
  " ball": 483,
  " balloon": 1430,
  " balloons": 2598,
  " balls": 2105,
  " bamboo": 7778,
  " ban": 2296,
  " banan": 2352,
  " banana": 2989,
  " bananas": 3903,
  " band": 2066,
  " bandage": 3621,
  " bandages": 7298,
  " bang": 5356,
  " banged": 7726,
  " banging": 9616,
  " bank": 6039,
  " bar": 1452,
  " barber": 3360,
  " bare": 6404,
  " barely": 6615,
  " bark": 2260,
  " barked": 1811,
  " barking": 3893,
  " barks": 4616,
  " barn": 2813,
  " barrel": 3522,
  " bars": 6890,
  " bas": 9673,
  " base": 3507,
  " baseball": 3950,
  " basement": 6676,
  " basket": 1881,
  " basketball": 3874,
  " baskets": 7698,
  " bat": 1903,
  " bath": 1792,
  " bathe": 4050,
  " bathed": 8731,
  " bathing": 7582,
  " bathrobe": 4153,
  " bathroom": 2860,
  " baths": 6881,
  " bathtub": 3784,
  " bats": 9719,
  " batter": 3056,
  " batteries": 6190,
  " battery": 3962,
  " battle": 8262,
  " be": 324,
  " beach": 1709,
  " bead": 6065,
  " beads": 6228,
  " beak": 2303,
  " beaks": 8524,
  " beam": 7212,
  " beamed": 5630,
  " beaming": 8578,
  " bean": 2726,
  " beans": 4928,
  " beanstalk": 8457,
  " bear": 800,
  " beard": 5973,
  " bears": 4796,
  " beast": 8762,
  " beat": 5690,
  " beating": 9001,
  " beaut": 987,
  " beautiful": 1002,
  " beautifully": 9205,
  " beauty": 4869,
  " beaver": 8291,
  " bec": 529,
  " became": 699,
  " because": 721,
  " become": 2724,
  " becomes": 8207,
  " becoming": 6339,
  " bed": 1049,
  " bedroom": 3098,
  " beds": 5321,
  " bedtime": 6077,
  " bee": 1632,
  " beef": 4274,
  " beeh": 7492,
  " beehive": 7553,
  " been": 1415,
  " beep": 4248,
  " beeped": 7741,
  " bees": 3304,
  " beet": 3202,
  " beetle": 3296,
  " beetles": 8461,
  " before": 1094,
  " beg": 4588,
  " began": 1246,
  " begged": 5399,
  " begin": 6140,
  " beginning": 7054,
  " beh": 1167,
  " behave": 3618,
  " behaved": 5789,
  " behavi": 6923,
  " behaving": 6617,
  " behavior": 7904,
  " behaviour": 8894,
  " behind": 1275,
  " being": 1021,
  " bel": 1263,
  " belie": 1897,
  " believe": 2073,
  " believed": 4823,
  " believing": 7708,
  " bell": 2022,
  " bellies": 7929,
  " bells": 7136,
  " belly": 5910,
  " belong": 1943,
  " belonged": 3113,
  " belongings": 8232,
  " belongs": 4235,
  " beloved": 7549,
  " below": 4954,
  " belt": 3267,
  " belts": 7167,
  " ben": 1933,
  " bench": 2000,
  " benches": 7763,
  " bend": 4620,
  " bending": 9540,
  " bends": 8558,
  " beneath": 6297,
  " bent": 4428,
  " berries": 2713,
  " berry": 4489,
  " beside": 5855,
  " best": 700,
  " bet": 4374,
  " better": 832,
  " between": 4845,
  " bey": 7079,
  " beyond": 7080,
  " bicy": 3380,
  " bicycle": 3535,
  " bicycles": 7649,
  " big": 347,
  " bigger": 1520,
  " biggest": 3615,
  " bike": 1589,
  " bikes": 4207,
  " bill": 4122,
  " billboard": 4246,
  " bin": 3609,
  " binoc": 9156,
  " binocular": 9160,
  " binoculars": 9337,
  " bird": 425,
  " birdc": 4336,
  " birdcage": 4343,
  " birdhouse": 7799,
  " birds": 1118,
  " birthday": 2035,
  " biscuit": 8969,
  " bit": 1450,
  " bite": 1753,
  " bites": 5247,
  " biting": 6504,
  " bits": 7463,
  " bitten": 7897,
  " bitter": 2872,
  " bl": 637,
  " black": 1618,
  " blackboard": 4012,
  " blame": 9864,
  " blamed": 9264,
  " blank": 1765,
  " blanket": 1771,
  " blankets": 5225,
  " blast": 7702,
  " ble": 5066,
  " bleed": 5258,
  " bleeding": 5688,
  " bless": 8415,
  " blew": 1553,
  " blin": 4146,
  " blink": 5131,
  " blinked": 4379,
  " blinking": 7281,
  " block": 1270,
  " blocked": 7043,
  " blocking": 6666,
  " blocks": 1394,
  " blond": 8759,
  " blonde": 9582,
  " blood": 5052,
  " bloom": 2883,
  " bloomed": 5841,
  " blooming": 6352,
  " blooms": 9839,
  " blouse": 4227,
  " blow": 2706,
  " blowing": 4864,
  " blown": 7328,
  " blows": 6207,
  " blue": 934,
  " blueberries": 4280,
  " blueberry": 4844,
  " bluebird": 8884,
  " blushed": 9429,
  " bo": 410,
  " board": 2866,
  " boards": 8953,
  " boat": 992,
  " boats": 3157,
  " bodies": 6764,
  " body": 2941,
  " boil": 9369,
  " bomb": 8494,
  " bond": 8679,
  " bone": 2180,
  " bones": 5201,
  " boo": 5848,
  " book": 891,
  " bookcase": 4214,
  " books": 1469,
  " bookshe": 4287,
  " bookshelf": 4297,
  " boom": 5872,
  " boot": 2660,
  " boots": 4141,
  " bor": 1662,
  " bored": 2958,
  " boring": 2514,
  " born": 8452,
  " borrow": 3118,
  " borrowed": 7063,
  " boss": 2219,
  " bossy": 2415,
  " both": 729,
  " bother": 4871,
  " bothered": 8064,
  " bothering": 7830,
  " bott": 1581,
  " bottle": 1798,
  " bottles": 5992,
  " bottom": 3161,
  " bou": 8482,
  " bought": 2291,
  " boun": 1784,
  " bounce": 2505,
  " bounced": 3593,
  " bounces": 8217,
  " bouncing": 4782,
  " bouncy": 4997,
  " bound": 9590,
  " bouquet": 8483,
  " bow": 1979,
  " bowed": 5300,
  " bowing": 9338,
  " bowl": 1658,
  " bowls": 6229,
  " bows": 6721,
  " box": 627,
  " boxes": 3427,
  " boy": 504,
  " boys": 3278,
  " br": 570,
  " bra": 980,
  " brace": 3124,
  " bracelet": 3289,
  " bracelets": 7003,
  " brain": 4875,
  " brains": 8666,
  " brakes": 9629,
  " bran": 1485,
  " branch": 1693,
  " branches": 2766,
  " brand": 6246,
  " brave": 1055,
  " bravely": 5516,
  " braver": 7626,
  " bravery": 6632,
  " bravest": 7876,
  " bre": 1140,
  " bread": 2055,
  " break": 1617,
  " breakfast": 4284,
  " breaking": 5389,
  " breaks": 4703,
  " breat": 4601,
  " breath": 2826,
  " breathe": 5072,
  " breathed": 7601,
  " breathing": 7945,
  " breaths": 8804,
  " breeze": 5361,
  " bri": 3452,
  " brick": 4407,
  " bricks": 5113,
  " brid": 5499,
  " bride": 8428,
  " bridge": 2678,
  " bridges": 5533,
  " bright": 1229,
  " brighter": 4664,
  " brightest": 8416,
  " brightly": 4462,
  " brilliant": 2979,
  " bring": 1912,
  " bringing": 5642,
  " brings": 5166,
  " bro": 984,
  " broccoli": 3441,
  " broke": 1549,
  " broken": 1357,
  " broom": 5560,
  " brother": 1493,
  " brothers": 3726,
  " brought": 1668,
  " brown": 1818,
  " bru": 7419,
  " bruises": 8614,
  " brus": 5352,
  " brush": 2671,
  " brushed": 5839,
  " brushes": 5646,
  " brushing": 7855,
  " bu": 867,
  " bubb": 2163,
  " bubble": 3524,
  " bubbles": 2855,
  " bubbling": 9642,
  " bubbly": 8871,
  " buck": 1873,
  " bucket": 2115,
  " buckets": 5970,
  " buckle": 4243,
  " buckled": 8371,
  " buckles": 9956,
  " bud": 8492,
  " buddy": 8366,
  " budge": 6861,
  " bug": 834,
  " bugs": 2040,
  " build": 1459,
  " builder": 9295,
  " builders": 9918,
  " building": 2498,
  " buildings": 5971,
  " built": 3150,
  " bulb": 3539,
  " bulbs": 7608,
  " bull": 3273,
  " bully": 7588,
  " bump": 3664,
  " bumped": 4755,
  " bumping": 9538,
  " bumps": 6736,
  " bumpy": 6518,
  " bunch": 6238,
  " bund": 9786,
  " bunnies": 5764,
  " bunny": 1143,
  " bur": 5184,
  " burger": 9559,
  " burgers": 9883,
  " buried": 4961,
  " burn": 2785,
  " burned": 4895,
  " burning": 5528,
  " burns": 8225,
  " burnt": 7824,
  " burrow": 7277,
  " burst": 6659,
  " bury": 4171,
  " burying": 7670,
  " bus": 1146,
  " buses": 6888,
  " bush": 1946,
  " bushes": 3557,
  " bushy": 9333,
  " business": 7873,
  " busy": 2044,
  " but": 415,
  " butter": 1298,
  " butterf": 1399,
  " butterflies": 4238,
  " butterfly": 1472,
  " button": 1692,
  " buttons": 3678,
  " buy": 1441,
  " buying": 6768,
  " buzz": 4798,
  " buzzed": 6513,
  " buzzing": 5830,
  " by": 863,
  " bye": 5305,
  " c": 278,
  " ca": 2185,
  " cab": 2811,
  " cabin": 2848,
  " cabinet": 4096,
  " cable": 3741,
  " cact": 3293,
  " cactus": 3346,
  " cafe": 8286,
  " cage": 2717,
  " cages": 8784,
  " cake": 889,
  " cakes": 5168,
  " calend": 4161,
  " calendar": 4183,
  " call": 938,
  " called": 1029,
  " calling": 3743,
  " calls": 4890,
  " calm": 2342,
  " calmed": 6973,
  " calmer": 9680,
  " calmly": 8358,
  " cam": 3119,
  " came": 559,
  " camel": 7627,
  " camera": 3254,
  " camp": 3862,
  " campfire": 8486,
  " camping": 6919,
  " can": 475,
  " cand": 2602,
  " candies": 6193,
  " candle": 3294,
  " candles": 4968,
  " candy": 1827,
  " cane": 4027,
  " cannot": 2193,
  " cans": 6263,
  " cap": 2692,
  " cape": 5023,
  " capes": 9707,
  " caps": 8394,
  " capt": 9521,
  " captain": 5151,
  " car": 533,
  " card": 2195,
  " cardboard": 3992,
  " cards": 4259,
  " care": 688,
  " cared": 4566,
  " careful": 845,
  " carefully": 1756,
  " careless": 3067,
  " cares": 8030,
  " caring": 4393,
  " carp": 3410,
  " carpet": 3428,
  " carried": 2605,
  " carries": 8267,
  " carrot": 1948,
  " carrots": 3074,
  " carry": 2024,
  " carrying": 4348,
  " cars": 1312,
  " cart": 2231,
  " cartoon": 3776,
  " cartoons": 5450,
  " carts": 9370,
  " case": 3579,
  " cash": 6937,
  " cashier": 7145,
  " cast": 1552,
  " castle": 1634,
  " castles": 4684,
  " cat": 467,
  " catch": 1129,
  " catches": 5896,
  " catching": 5190,
  " caterp": 3028,
  " caterpill": 3029,
  " caterpillar": 3094,
  " caterpillars": 9256,
  " cats": 2908,
  " caught": 1866,
  " caulif": 3453,
  " cauliflower": 3495,
  " cause": 6328,
  " caused": 6377,
  " causing": 8069,
  " caut": 6067,
  " caution": 9816,
  " cautious": 6324,
  " cautiously": 6745,
  " cave": 2067,
  " caw": 8378,
  " ce": 2281,
  " ceiling": 4391,
  " celebr": 2702,
  " celebrate": 3498,
  " celebrated": 5251,
  " celebrating": 6943,
  " celebration": 6928,
  " celery": 3570,
  " cell": 3998,
  " cells": 7803,
  " cent": 6583,
  " center": 7396,
  " centre": 9884,
  " cere": 3280,
  " cereal": 3319,
  " certain": 7867,
  " certainly": 9566,
  " ch": 648,
  " chain": 3594,
  " chair": 1498,
  " chairs": 4480,
  " chalk": 3564,
  " challen": 5604,
  " challenge": 6030,
  " challenges": 9583,
  " chamber": 4452,
  " chance": 4314,
  " change": 2251,
  " changed": 2936,
  " changes": 7642,
  " changing": 6922,
  " char": 8116,
  " charac": 7223,
  " characters": 7863,
  " charge": 8156,
  " charm": 3325,
  " charming": 3408,
  " chase": 2553,
  " chased": 2255,
  " chases": 5932,
  " chasing": 4412,
  " chat": 6643,
  " chatted": 9546,
  " chatting": 9722,
  " che": 924,
  " cheap": 2947,
  " cheaper": 8777,
  " cheat": 8382,
  " cheated": 8253,
  " cheating": 8958,
  " check": 4023,
  " checked": 4826,
  " checking": 9208,
  " checkout": 9186,
  " checks": 8149,
  " chee": 1876,
  " cheek": 4830,
  " cheeks": 6779,
  " cheer": 2467,
  " cheered": 1983,
  " cheerful": 3163,
  " cheerfully": 9236,
  " cheering": 6256,
  " cheers": 7805,
  " cheese": 2007,
  " cheetah": 8756,
  " chef": 5758,
  " chefs": 6663,
  " cher": 2915,
  " cherries": 4074,
  " cherry": 4658,
  " chess": 3799,
  " chest": 2801,
  " chew": 2481,
  " chewed": 5000,
  " chewing": 5578,
  " chews": 8760,
  " chick": 2341,
  " chicken": 2898,
  " chickens": 4597,
  " chicks": 9791,
  " child": 1432,
  " children": 1726,
  " chill": 9002,
  " chilly": 8872,
  " chimney": 4061,
  " chin": 9244,
  " chip": 7361,
  " chipmunk": 8729,
  " chips": 6153,
  " chirp": 4746,
  " chirped": 5798,
  " chirping": 6196,
  " cho": 1926,
  " chocol": 2559,
  " chocolate": 2588,
  " chocolates": 8177,
  " choice": 4465,
  " choices": 6572,
  " choo": 6495,
  " choose": 3136,
  " chooses": 9929,
  " choosing": 8662,
  " chop": 6912,
  " chopped": 8577,
  " chopping": 9900,
  " chores": 5018,
  " chos": 7384,
  " chose": 4198,
  " chosen": 7385,
  " chubby": 3429,
  " chuck": 6626,
  " chuckled": 6803,
  " church": 3935,
  " cir": 2106,
  " circ": 9571,
  " circle": 2582,
  " circles": 4283,
  " circus": 5880,
  " city": 3686,
  " cl": 509,
  " cla": 1251,
  " clap": 2677,
  " clapped": 1504,
  " clapping": 4676,
  " claps": 5805,
  " class": 2586,
  " classmates": 8916,
  " classroom": 4392,
  " claw": 4602,
  " claws": 4797,
  " clay": 2834,
  " cle": 795,
  " clean": 872,
  " cleaned": 2496,
  " cleaner": 7544,
  " cleaning": 3596,
  " cleans": 8566,
  " clear": 2749,
  " cleared": 8529,
  " clearing": 6003,
  " clearly": 9561,
  " clerk": 8713,
  " clever": 2333,
  " click": 6699,
  " clicked": 8289,
  " cliff": 4356,
  " climb": 920,
  " climbed": 1368,
  " climbing": 4145,
  " climbs": 5222,
  " clip": 8454,
  " clips": 9622,
  " clo": 798,
  " clock": 2746,
  " clos": 1008,
  " close": 1387,
  " closed": 1823,
  " closely": 4986,
  " closer": 1310,
  " closes": 6298,
  " closet": 2681,
  " closing": 8228,
  " clot": 1540,
  " cloth": 2159,
  " clothes": 1542,
  " cloths": 9025,
  " cloud": 1513,
  " clouds": 2351,
  " cloudy": 7444,
  " clown": 2552,
  " clowns": 6499,
  " club": 3647,
  " cluck": 9957,
  " clue": 7709,
  " clues": 7039,
  " clum": 2842,
  " clumsy": 2852,
  " clut": 9510,
  " co": 594,
  " coach": 8386,
  " coal": 3762,
  " coat": 1908,
  " coats": 4764,
  " cob": 3851,
  " cobweb": 3878,
  " cobwebs": 6661,
  " cocoa": 3392,
  " cocoon": 8948,
  " coffee": 4016,
  " coin": 2170,
  " coins": 3417,
  " col": 892,
  " cold": 1201,
  " colder": 7114,
  " coll": 1958,
  " collap": 8150,
  " collapsed": 8841,
  " collar": 3303,
  " collect": 2984,
  " collected": 5259,
  " collecting": 5669,
  " collection": 5327,
  " color": 933,
  " colored": 6849,
  " colorful": 1518,
  " coloring": 7938,
  " colors": 1303,
  " colour": 3867,
  " coloured": 7445,
  " colourful": 4600,
  " colours": 5452,
  " com": 860,
  " comb": 3043,
  " combed": 7948,
  " come": 910,
  " comes": 2220,
  " comet": 3330,
  " comets": 9080,
  " comf": 4962,
  " comfort": 4211,
  " comfortable": 2815,
  " comforted": 5917,
  " comforting": 8544,
  " comfy": 5847,
  " coming": 1451,
  " comm": 6478,
  " common": 8747,
  " commun": 9730,
  " comp": 1607,
  " compan": 9567,
  " companion": 9731,
  " company": 6071,
  " compass": 3339,
  " compassion": 3383,
  " compassionate": 3521,
  " compet": 3112,
  " compete": 9038,
  " competing": 9936,
  " competit": 3212,
  " competition": 6635,
  " competitive": 3496,
  " compl": 3659,
  " complain": 3773,
  " complained": 6517,
  " complaining": 6291,
  " comple": 5856,
  " complet": 3748,
  " complete": 4079,
  " completed": 6079,
  " completely": 6840,
  " comput": 3321,
  " computer": 3395,
  " computers": 9723,
  " con": 1198,
  " conc": 8270,
  " concentr": 9479,
  " concer": 8949,
  " concerned": 9562,
  " cond": 8263,
  " cone": 2754,
  " cones": 5486,
  " conf": 4980,
  " confidence": 9456,
  " confident": 6451,
  " confl": 6279,
  " conflict": 6325,
  " confused": 2249,
  " congratul": 8312,
  " congratulated": 8704,
  " conn": 6806,
  " connect": 8547,
  " connected": 8017,
  " conqu": 8856,
  " conquered": 9595,
  " cons": 8108,
  " consequ": 6667,
  " consequences": 6723,
  " consider": 9209,
  " cont": 1541,
  " contain": 5806,
  " container": 9937,
  " content": 4741,
  " contest": 5448,
  " contin": 1703,
  " continue": 6018,
  " continued": 1752,
  " contro": 5993,
  " control": 6127,
  " convers": 8391,
  " conversation": 9089,
  " convin": 8302,
  " convinced": 8655,
  " coo": 3396,
  " cooed": 9958,
  " cook": 1115,
  " cooked": 3562,
  " cookie": 2150,
  " cookies": 1667,
  " cooking": 3937,
  " cooks": 9896,
  " cool": 1410,
  " cooler": 3914,
  " coolest": 9687,
  " coop": 7244,
  " cooper": 8278,
  " cooperate": 9144,
  " cop": 3302,
  " copied": 9681,
  " copper": 4642,
  " cops": 9067,
  " copy": 6254,
  " cor": 7447,
  " coral": 8593,
  " cord": 3708,
  " corn": 2018,
  " corner": 2750,
  " corners": 7224,
  " correct": 7773,
  " correctly": 8522,
  " cost": 2971,
  " costs": 8933,
  " costume": 3816,
  " costumes": 5396,
  " cosy": 8425,
  " cott": 6762,
  " cottage": 8051,
  " cotton": 8236,
  " cou": 2198,
  " couch": 2482,
  " coug": 7614,
  " cough": 6239,
  " coughed": 8671,
  " could": 474,
  " couldn": 1065,
  " count": 1475,
  " counted": 2987,
  " counter": 5093,
  " counting": 3591,
  " countries": 9322,
  " country": 4549,
  " countryside": 7065,
  " counts": 6894,
  " coup": 7299,
  " couple": 7390,
  " cour": 1967,
  " courage": 4705,
  " courageous": 9970,
  " course": 1982,
  " court": 8875,
  " cous": 6559,
  " cousin": 7046,
  " cousins": 9702,
  " cover": 2091,
  " covered": 2886,
  " covering": 7760,
  " covers": 6547,
  " cow": 1763,
  " cowb": 6905,
  " cowboy": 8111,
  " cowboys": 8531,
  " cows": 4100,
  " cozy": 2447,
  " cr": 1332,
  " cra": 1137,
  " crab": 1786,
  " crabs": 5984,
  " crack": 3178,
  " cracked": 5873,
  " cracker": 9397,
  " crackers": 6759,
  " cracks": 7930,
  " craft": 8525,
  " crane": 3021,
  " cras": 5330,
  " crash": 4927,
  " crashed": 5735,
  " crashing": 7729,
  " craw": 2178,
  " crawl": 3439,
  " crawled": 3155,
  " crawling": 5648,
  " crawls": 7993,
  " cray": 1918,
  " crayon": 3131,
  " crayons": 2391,
  " crazy": 2870,
  " cre": 1527,
  " creak": 9527,
  " cream": 1409,
  " creams": 7800,
  " creamy": 7417,
  " creat": 1853,
  " create": 3359,
  " created": 5293,
  " creating": 6580,
  " creation": 6154,
  " creations": 7112,
  " creative": 2561,
  " creativity": 7127,
  " creature": 2800,
  " creatures": 5047,
  " creek": 4180,
  " creep": 9808,
  " crept": 6112,
  " crew": 7597,
  " cri": 2628,
  " crib": 4281,
  " cricket": 3545,
  " crickets": 9748,
  " cried": 1319,
  " cries": 3072,
  " crisp": 9764,
  " cro": 3045,
  " croak": 9809,
  " croaked": 9197,
  " crocodile": 3219,
  " crocodiles": 8714,
  " crops": 9323,
  " cross": 2465,
  " crossed": 4778,
  " crossing": 7441,
  " crouched": 9834,
  " crow": 5241,
  " crowd": 6505,
  " crowded": 9352,
  " crown": 2682,
  " crowns": 7461,
  " crumb": 5936,
  " crumbs": 6230,
  " crunch": 5469,
  " crunchy": 5685,
  " crushed": 9643,
  " cry": 1046,
  " crying": 1770,
  " cryst": 3209,
  " crystal": 3310,
  " crystals": 8367,
  " cu": 908,
  " cub": 5040,
  " cube": 3003,
  " cubes": 6026,
  " cubs": 9123,
  " cuc": 9815,
  " cudd": 4409,
  " cuddle": 6019,
  " cuddled": 5660,
  " cuddles": 8631,
  " cuddly": 6845,
  " cup": 1508,
  " cupboard": 3744,
  " cupcake": 9596,
  " cupcakes": 8372,
  " cups": 3800,
  " cur": 4497,
  " curi": 1212,
  " curiosity": 5881,
  " curious": 1231,
  " curiously": 7280,
  " curl": 8778,
  " curled": 5633,
  " curly": 6361,
  " curt": 3499,
  " curtain": 3506,
  " curtains": 6278,
  " cush": 3348,
  " cushion": 3559,
  " cushions": 7122,
  " cust": 7026,
  " custom": 7051,
  " customer": 8474,
  " customers": 8539,
  " cut": 1265,
  " cute": 2003,
  " cuts": 6038,
  " cutter": 9597,
  " cutting": 5238,
  " d": 277,
  " dad": 733,
  " daddy": 2237,
  " dads": 5572,
  " daisies": 6751,
  " daisy": 4850,
  " dam": 6102,
  " damage": 7084,
  " damaged": 7831,
  " dan": 866,
  " danc": 1372,
  " dance": 1366,
  " danced": 1648,
  " dancer": 4335,
  " dancers": 7019,
  " dances": 6644,
  " dancing": 2672,
  " danger": 1723,
  " dangerous": 1840,
  " dangers": 8632,
  " dar": 6428,
  " dare": 4701,
  " dared": 5246,
  " daring": 7442,
  " dark": 1285,
  " darker": 6054,
  " darkness": 6658,
  " darl": 7500,
  " darling": 6819,
  " darlings": 7501,
  " date": 9402,
  " daughter": 2522,
  " day": 329,
  " days": 1911,
  " de": 1061,
  " dead": 2838,
  " deaf": 3290,
  " deal": 6540,
  " dear": 4645,
  " dears": 8098,
  " dec": 677,
  " decid": 712,
  " decide": 3488,
  " decided": 719,
  " decides": 5788,
  " decision": 5920,
  " decisions": 7899,
  " decl": 8349,
  " declared": 8521,
  " decor": 2680,
  " decorate": 3687,
  " decorated": 5775,
  " decorating": 6740,
  " decoration": 8487,
  " decorations": 5473,
  " dedic": 9971,
  " deed": 8221,
  " deep": 1624,
  " deeper": 5028,
  " deeply": 9875,
  " deer": 2480,
  " def": 7438,
  " defe": 8329,
  " defeated": 9919,
  " defin": 8373,
  " definitely": 8462,
  " del": 1322,
  " delay": 4454,
  " delayed": 7753,
  " delic": 1628,
  " delicate": 2981,
  " delicious": 1891,
  " delight": 3373,
  " delighted": 4591,
  " deliver": 3444,
  " delivered": 6512,
  " delivering": 7270,
  " delivery": 7198,
  " dem": 4691,
  " demand": 4709,
  " demanded": 5883,
  " demanding": 8193,
  " den": 6866,
  " dent": 6211,
  " dentist": 6744,
  " dep": 9167,
  " depend": 3064,
  " dependable": 3146,
  " des": 2032,
  " desc": 9523,
  " deser": 5926,
  " desert": 6407,
  " deserve": 6654,
  " deserved": 9115,
  " deserves": 9978,
  " design": 3117,
  " designed": 6886,
  " designing": 8292,
  " designs": 7391,
  " desk": 3404,
  " desks": 9393,
  " desper": 7905,
  " desperate": 9732,
  " desperately": 9674,
  " despite": 7949,
  " dess": 3817,
  " dessert": 3928,
  " desserts": 8983,
  " dest": 3115,
  " destination": 6099,
  " destro": 3483,
  " destroy": 3619,
  " destroyed": 5173,
  " destroying": 7856,
  " det": 7285,
  " details": 9304,
  " detect": 9598,
  " deter": 3520,
  " determ": 3532,
  " determination": 6883,
  " determined": 3758,
  " dev": 9026,
  " di": 2189,
  " dial": 8719,
  " diamond": 3253,
  " diamonds": 8429,
  " diary": 3634,
  " dictionary": 4194,
  " did": 459,
  " didn": 814,
  " die": 7228,
  " died": 6171,
  " dif": 1178,
  " differe": 1294,
  " difference": 5230,
  " differences": 9126,
  " different": 1320,
  " differently": 9591,
  " diffic": 2879,
  " difficult": 2887,
  " dig": 2567,
  " digg": 4995,
  " digging": 5001,
  " digs": 8751,
  " din": 1464,
  " ding": 9095,
  " dinner": 1699,
  " dinosaur": 2593,
  " dinosaurs": 5616,
  " dip": 7341,
  " dipped": 5946,
  " dir": 1234,
  " dire": 5610,
  " direction": 6523,
  " directions": 7031,
  " dirt": 2110,
  " dirtier": 9388,
  " dirty": 1466,
  " dis": 1242,
  " disag": 4232,
  " disagre": 9524,
  " disagree": 5188,
  " disagreed": 5404,
  " disagreeing": 9044,
  " disagreement": 9755,
  " disapp": 2096,
  " disappear": 4338,
  " disappeared": 3722,
  " disappearing": 9409,
  " disappoin": 3250,
  " disappoint": 8641,
  " disappointed": 3344,
  " disappointment": 9153,
  " disaster": 9440,
  " disc": 8141,
  " disco": 2647,
  " discouraged": 9034,
  " discover": 2835,
  " discovered": 4112,
  " discoveries": 8844,
  " discovering": 6594,
  " discovery": 5959,
  " discuss": 4544,
  " discussed": 7567,
  " discussing": 8201,
  " disg": 2948,
  " disgust": 2983,
  " disgusting": 3012,
  " dish": 2494,
  " dishes": 4650,
  " dishwasher": 3953,
  " disob": 7462,
  " disobey": 7975,
  " disobeyed": 9756,
  " display": 4090,
  " displayed": 7919,
  " dist": 2109,
  " distance": 4257,
  " distant": 3581,
  " disturb": 3643,
  " disturbed": 5693,
  " disturbing": 7353,
  " dive": 3630,
  " dived": 6524,
  " diving": 5939,
  " dizzy": 2641,
  " do": 381,
  " dock": 9058,
  " doctor": 1816,
  " doctors": 6336,
  " dod": 7047,
  " dodged": 8178,
  " does": 1330,
  " doesn": 4271,
  " dog": 473,
  " doggy": 5753,
  " dogs": 2362,
  " doing": 1460,
  " doll": 1063,
  " dollar": 8594,
  " dollars": 7137,
  " dollhouse": 6931,
  " dolls": 2043,
  " dolph": 3184,
  " dolphin": 3508,
  " dolphins": 6240,
  " don": 870,
  " done": 1438,
  " donkey": 7676,
  " door": 913,
  " doorbell": 8026,
  " doors": 4569,
  " doorstep": 9410,
  " doorway": 7965,
  " dot": 5661,
  " dots": 6402,
  " dou": 9740,
  " dough": 2993,
  " dove": 2913,
  " doves": 9856,
  " down": 614,
  " downstairs": 5654,
  " dr": 1168,
  " dra": 1006,
  " drag": 1766,
  " dragged": 5999,
  " dragon": 1883,
  " dragonfly": 8448,
  " dragons": 5969,
  " drain": 4304,
  " drank": 2585,
  " draw": 1252,
  " drawer": 3783,
  " drawers": 7434,
  " drawing": 2723,
  " drawings": 3810,
  " drawn": 7217,
  " draws": 5742,
  " dream": 1465,
  " dreamed": 4037,
  " dreaming": 4386,
  " dreams": 3434,
  " dreamt": 7853,
  " dress": 1228,
  " dressed": 5059,
  " dresser": 8072,
  " dresses": 5004,
  " dressing": 7754,
  " drew": 2293,
  " dri": 1408,
  " dried": 5076,
  " drift": 8950,
  " drifted": 7826,
  " drink": 1781,
  " drinking": 5383,
  " drinks": 5370,
  " drip": 8838,
  " dripped": 9039,
  " dripping": 7710,
  " drive": 2230,
  " driver": 2113,
  " drivers": 7232,
  " drives": 6022,
  " driveway": 8205,
  " driving": 3740,
  " dro": 1482,
  " drop": 2895,
  " dropped": 1956,
  " dropping": 6975,
  " drops": 4745,
  " drove": 2166,
  " drown": 8299,
  " drowned": 9339,
  " drum": 2320,
  " drums": 6299,
  " dry": 1665,
  " drying": 9227,
  " duck": 1215,
  " duckling": 8282,
  " ducks": 2307,
  " dug": 2833,
  " dull": 2851,
  " dumb": 9749,
  " dump": 7682,
  " during": 5157,
  " dust": 3376,
  " dusty": 6045,
  " e": 382,
  " each": 766,
  " eag": 2539,
  " eager": 3099,
  " eagerly": 5088,
  " eagle": 5944,
  " ear": 1759,
  " earlier": 5864,
  " early": 3918,
  " earn": 7138,
  " earned": 8771,
  " ears": 3409,
  " earth": 3651,
  " earthquake": 4892,
  " eas": 2029,
  " ease": 7838,
  " easier": 5219,
  " easily": 4834,
  " east": 5459,
  " easy": 2383,
  " eat": 724,
  " eaten": 4723,
  " eating": 1744,
  " eats": 5638,
  " echo": 7265,
  " echoed": 7966,
  " ed": 3595,
  " edge": 3755,
  " edges": 7969,
  " eff": 5761,
  " effort": 5829,
  " efforts": 8129,
  " egg": 1867,
  " eggs": 2810,
  " eight": 5860,
  " either": 3945,
  " el": 1712,
  " elbow": 7534,
  " eld": 2700,
  " elderly": 2748,
  " ele": 1705,
  " electric": 9068,
  " electricity": 9885,
  " elephant": 1955,
  " elephants": 5074,
  " elevator": 3627,
  " elf": 7565,
  " else": 1732,
  " em": 1637,
  " emb": 2398,
  " embarrass": 2428,
  " embarrassed": 2655,
  " embra": 9644,
  " emer": 5270,
  " emerged": 8705,
  " emergen": 5476,
  " emergency": 5573,
  " emp": 2313,
  " empty": 2316,
  " en": 844,
  " enc": 3652,
  " encou": 3855,
  " encount": 8014,
  " encountered": 8346,
  " encourag": 7177,
  " encourage": 4991,
  " encouraged": 5338,
  " encouragement": 7764,
  " encouraging": 7381,
  " end": 878,
  " ended": 4623,
  " ending": 2909,
  " endings": 9359,
  " ends": 7168,
  " enem": 8397,
  " enemies": 8398,
  " enemy": 9310,
  " ener": 4704,
  " energetic": 9920,
  " energy": 4841,
  " eng": 3179,
  " engine": 3315,
  " engines": 7877,
  " enjoy": 1227,
  " enjoyable": 8589,
  " enjoyed": 1557,
  " enjoying": 4080,
  " enormous": 2954,
  " enough": 1772,
  " ent": 2278,
  " enter": 4646,
  " entered": 4866,
  " enth": 3592,
  " enthusia": 3605,
  " enthusiasm": 7502,
  " enthusiastic": 3774,
  " entire": 6677,
  " entrance": 6836,
  " env": 3270,
  " envel": 3393,
  " envelope": 3523,
  " envelopes": 8112,
  " envious": 3412,
  " environ": 8595,
  " environment": 8609,
  " equ": 4766,
  " equipment": 4883,
  " er": 3152,
  " erase": 8237,
  " eraser": 3480,
  " erasers": 8745,
  " esc": 5413,
  " escap": 9828,
  " escape": 3092,
  " escaped": 5556,
  " especially": 4882,
  " ev": 7474,
  " even": 881,
  " evening": 4533,
  " event": 4670,
  " eventually": 3470,
  " ever": 936,
  " every": 596,
  " everybody": 7109,
  " everyday": 6392,
  " everyone": 1024,
  " everything": 1720,
  " everywhere": 1591,
  " evil": 7669,
  " ex": 585,
  " exact": 6200,
  " exactly": 6337,
  " exam": 2843,
  " examine": 4719,
  " examined": 6217,
  " examining": 8463,
  " examp": 8607,
  " example": 8720,
  " exams": 9223,
  " exc": 704,
  " except": 8153,
  " exch": 8534,
  " exchange": 9901,
  " excite": 3471,
  " excited": 739,
  " excitedly": 4501,
  " excitement": 4015,
  " exciting": 2938,
  " exclaimed": 4959,
  " exerc": 4773,
  " exercise": 5039,
  " exercises": 8626,
  " exha": 6722,
  " exhausted": 6809,
  " exit": 5140,
  " exp": 2280,
  " expect": 4791,
  " expected": 5927,
  " expecting": 8251,
  " expensive": 2614,
  " exper": 5031,
  " experien": 8590,
  " experience": 5373,
  " experienced": 8779,
  " experiences": 8845,
  " expert": 8922,
  " expl": 1113,
  " explain": 2381,
  " explained": 3009,
  " explaining": 8966,
  " explains": 7857,
  " explo": 7535,
  " exploded": 8672,
  " explor": 2450,
  " exploration": 9547,
  " explore": 1433,
  " explored": 4810,
  " explorer": 8118,
  " explorers": 6588,
  " exploring": 2829,
  " express": 7439,
  " expression": 8867,
  " ext": 4220,
  " extra": 4322,
  " extraordinary": 8879,
  " ey": 1127,
  " eye": 3886,
  " eyes": 1187,
  " f": 269,
  " fa": 542,
  " fab": 6673,
  " fabric": 6674,
  " face": 1072,
  " faced": 6310,
  " faces": 2354,
  " facing": 9298,
  " fact": 6787,
  " factory": 3986,
  " facts": 9552,
  " fade": 9063,
  " faded": 7792,
  " failed": 7939,
  " faint": 8857,
  " fair": 1423,
  " fairies": 6347,
  " fairy": 1789,
  " faith": 8769,
  " fake": 2390,
  " fall": 1454,
  " fallen": 5077,
  " falling": 4108,
  " falls": 3692,
  " fam": 894,
  " famil": 5297,
  " familiar": 7428,
  " families": 5672,
  " family": 955,
  " famous": 2725,
  " fan": 1879,
  " fancy": 2368,
  " fans": 9324,
  " fantastic": 8559,
  " far": 940,
  " faraway": 6415,
  " farm": 1291,
  " farmer": 1898,
  " farmers": 8834,
  " fart": 7086,
  " farther": 6354,
  " farthest": 7126,
  " fasc": 5981,
  " fascin": 6036,
  " fascinated": 6366,
  " fascinating": 9265,
  " fash": 5143,
  " fashion": 5170,
  " fast": 740,
  " faster": 1666,
  " fastest": 4093,
  " fat": 2663,
  " father": 3669,
  " faucet": 4033,
  " fault": 6107,
  " fav": 1191,
  " favor": 1238,
  " favorite": 1244,
  " favour": 4471,
  " favourite": 4498,
  " fe": 642,
  " fear": 2545,
  " fearful": 3087,
  " fears": 6098,
  " feast": 6818,
  " feather": 2318,
  " feathers": 3397,
  " fed": 5464,
  " feed": 2776,
  " feeding": 6877,
  " feel": 743,
  " feeling": 1337,
  " feelings": 4677,
  " feels": 2051,
  " feet": 2639,
  " fell": 1070,
  " felt": 543,
  " fence": 2002,
  " fest": 4252,
  " festival": 4290,
  " fet": 8748,
  " fetch": 5402,
  " fetched": 9572,
  " fever": 6916,
  " few": 2023,
  " fi": 828,
  " field": 1729,
  " fields": 5510,
  " fier": 2807,
  " fierce": 2809,
  " fif": 8861,
  " fig": 3137,
  " fight": 1418,
  " fighting": 2172,
  " fights": 8335,
  " figure": 3350,
  " figured": 6765,
  " figures": 7293,
  " fil": 2311,
  " file": 3871,
  " files": 7851,
  " fill": 1512,
  " filled": 1730,
  " filling": 6304,
  " fills": 7524,
  " film": 3598,
  " films": 6880,
  " filthy": 3116,
  " fin": 1138,
  " final": 8283,
  " finally": 1916,
  " find": 580,
  " finding": 2839,
  " finds": 4455,
  " fine": 2743,
  " fing": 2328,
  " finger": 2890,
  " fingers": 4053,
  " finish": 2376,
  " finished": 1696,
  " finishes": 8749,
  " finishing": 8173,
  " fins": 7120,
  " fire": 1329,
  " firef": 5376,
  " firefight": 6164,
  " firefighter": 7409,
  " firefighters": 7355,
  " fireflies": 9576,
  " firefly": 7021,
  " fireman": 3946,
  " firemen": 5701,
  " fireplace": 4087,
  " fires": 6913,
  " firework": 3526,
  " fireworks": 5121,
  " firm": 6374,
  " firmly": 7425,
  " first": 1184,
  " fis": 3266,
  " fish": 796,
  " fisher": 4064,
  " fisherman": 4133,
  " fishes": 8780,
  " fishing": 5415,
  " fist": 9623,
  " fit": 1914,
  " fits": 7134,
  " five": 3939,
  " fix": 1141,
  " fixed": 2214,
  " fixer": 9507,
  " fixing": 4451,
  " fl": 615,
  " flag": 2548,
  " flags": 6083,
  " flame": 3794,
  " flames": 6705,
  " flap": 5126,
  " flapped": 4744,
  " flapping": 7097,
  " flaps": 7988,
  " flash": 3015,
  " flashed": 8359,
  " flashes": 9362,
  " flashing": 9027,
  " flashlight": 3309,
  " flat": 5397,
  " flav": 5653,
  " flavor": 6780,
  " flavors": 7190,
  " fle": 2267,
  " flea": 3780,
  " fleas": 7517,
  " flew": 853,
  " flexible": 2970,
  " flick": 9462,
  " flies": 4696,
  " flight": 7761,
  " flip": 7526,
  " flipped": 7363,
  " flips": 8100,
  " flo": 1177,
  " float": 4556,
  " floated": 4929,
  " floating": 5302,
  " floats": 7810,
  " flock": 9311,
  " flood": 4780,
  " floor": 1290,
  " floors": 8130,
  " flour": 3924,
  " flow": 811,
  " flower": 1197,
  " flowers": 1076,
  " flowing": 9285,
  " flown": 7817,
  " fluffy": 3286,
  " flute": 3201,
  " flutter": 5976,
  " fluttered": 7406,
  " fluttering": 8158,
  " fly": 850,
  " flying": 1701,
  " fo": 868,
  " foam": 8789,
  " focus": 7770,
  " focused": 7622,
  " fog": 4123,
  " foggy": 9110,
  " fold": 2139,
  " folded": 4983,
  " folder": 3673,
  " folding": 5871,
  " folds": 9381,
  " follow": 1261,
  " followed": 1597,
  " following": 4949,
  " follows": 4963,
  " fond": 9371,
  " food": 812,
  " foods": 5615,
  " fool": 2773,
  " fooled": 9560,
  " foolish": 2827,
  " foot": 2202,
  " football": 3730,
  " footprints": 8136,
  " footsteps": 7618,
  " for": 394,
  " force": 7731,
  " fore": 887,
  " forehead": 6791,
  " foreshadow": 9014,
  " forest": 977,
  " forests": 8846,
  " forever": 2021,
  " forg": 1307,
  " forgave": 4534,
  " forget": 2187,
  " forgets": 6865,
  " forgetting": 7049,
  " forgi": 6162,
  " forgive": 2431,
  " forgiven": 7561,
  " forgiveness": 8774,
  " forgives": 8242,
  " forgiving": 7202,
  " forgot": 1631,
  " forgotten": 5226,
  " fork": 3130,
  " forks": 6424,
  " form": 8238,
  " formed": 9059,
  " fort": 4365,
  " forth": 3590,
  " forts": 9040,
  " forward": 3387,
  " fought": 4460,
  " found": 513,
  " fountain": 3106,
  " four": 3032,
  " fox": 1687,
  " foxes": 8279,
  " fr": 494,
  " fragile": 2784,
  " frame": 3853,
  " fre": 4565,
  " free": 1751,
  " freed": 6800,
  " freedom": 7785,
  " freez": 4042,
  " freeze": 4639,
  " freezer": 4197,
  " freezing": 8417,
  " fresh": 4631,
  " fridge": 3017,
  " friend": 358,
  " friendly": 1348,
  " friends": 418,
  " friendship": 3435,
  " friendships": 8226,
  " fries": 9259,
  " fright": 2765,
  " frightened": 2818,
  " fro": 5218,
  " frog": 983,
  " frogs": 4298,
  " from": 588,
  " front": 2406,
  " frost": 5780,
  " frosting": 5828,
  " frown": 2982,
  " frowned": 4424,
  " frowning": 7075,
  " frowns": 7404,
  " froze": 6584,
  " frozen": 5827,
  " fruit": 1355,
  " fruits": 2256,
  " frustr": 2751,
  " frustrated": 2790,
  " frustration": 9267,
  " fu": 3696,
  " fuel": 4165,
  " full": 1339,
  " fun": 450,
  " funn": 9035,
  " funny": 1121,
  " fur": 1731,
  " furious": 9921,
  " furniture": 4423,
  " furry": 2529,
  " furt": 4966,
  " further": 4999,
  " fut": 5663,
  " future": 5667,
  " fuzzy": 6823,
  " g": 296,
  " gain": 4084,
  " gained": 5733,
  " gall": 9750,
  " game": 1034,
  " games": 1551,
  " gap": 7976,
  " gar": 3070,
  " garage": 3149,
  " garbage": 8430,
  " garden": 914,
  " gardener": 7397,
  " gardens": 8842,
  " gas": 4293,
  " gasp": 3888,
  " gasped": 4186,
  " gasps": 8807,
  " gate": 2630,
  " gates": 9757,
  " gather": 2512,
  " gathered": 3648,
  " gathering": 6006,
  " gave": 767,
  " gaz": 4911,
  " gaze": 5891,
  " gazed": 5206,
  " gazing": 7703,
  " gear": 3840,
  " gears": 6633,
  " geese": 7216,
  " gem": 3055,
  " gems": 6465,
  " gen": 2537,
  " gener": 2592,
  " generosity": 8785,
  " generous": 2643,
  " genie": 6871,
  " gent": 1554,
  " gentle": 1913,
  " gently": 2446,
  " germ": 7850,
  " germs": 8181,
  " gest": 7733,
  " gesture": 8025,
  " get": 654,
  " gets": 3101,
  " getting": 1822,
  " ghost": 3258,
  " ghosts": 8252,
  " gi": 1740,
  " giant": 2215,
  " gif": 1570,
  " gift": 1800,
  " gifted": 3370,
  " gifts": 5057,
  " gigg": 2703,
  " giggle": 4643,
  " giggled": 3907,
  " giggles": 7422,
  " giggling": 6490,
  " gir": 480,
  " giraffe": 4288,
  " giraffes": 5815,
  " girl": 485,
  " girls": 5502,
  " give": 928,
  " given": 4752,
  " gives": 2408,
  " giving": 3351,
  " gl": 923,
  " glad": 1411,
  " glared": 9378,
  " glass": 2744,
  " glasses": 6416,
  " glee": 7336,
  " glided": 9675,
  " glimmering": 9048,
  " glitt": 8144,
  " glitter": 6173,
  " glittered": 9911,
  " glittering": 8920,
  " glo": 5114,
  " glob": 9698,
  " globe": 9835,
  " gloomy": 2899,
  " glove": 3399,
  " gloves": 5150,
  " glow": 2126,
  " glowed": 5626,
  " glowing": 3802,
  " glows": 9563,
  " glue": 2674,
  " glued": 7110,
  " go": 488,
  " goal": 4351,
  " goals": 5958,
  " goat": 2823,
  " goats": 8091,
  " gobbled": 7996,
  " god": 9979,
  " goes": 2525,
  " goggles": 9922,
  " going": 1120,
  " gold": 2599,
  " golden": 5234,
  " golf": 3787,
  " gone": 1376,
  " gonna": 7660,
  " goo": 8037,
  " good": 567,
  " goodbye": 1416,
  " goodbyes": 8387,
  " goodies": 9315,
  " goodness": 9724,
  " goodnight": 5796,
  " gooey": 9710,
  " goose": 3044,
  " gor": 3795,
  " gorilla": 3913,
  " got": 666,
  " gotten": 6091,
  " gr": 874,
  " gra": 769,
  " grab": 2234,
  " grabbed": 1535,
  " grabbing": 6763,
  " grabs": 4502,
  " grace": 3243,
  " graceful": 3484,
  " gracefully": 7455,
  " grand": 4395,
  " grandchild": 7533,
  " grandd": 8792,
  " granddaughter": 9111,
  " grandfather": 8347,
  " grandma": 1801,
  " grandmother": 6032,
  " grandpa": 3948,
  " grandparent": 7558,
  " grandparents": 7931,
  " grandson": 8033,
  " grant": 5316,
  " granted": 5935,
  " grape": 4443,
  " grapes": 3870,
  " grass": 1283,
  " grassho": 8820,
  " grasshopper": 8895,
  " grassy": 7609,
  " grat": 8617,
  " grate": 2306,
  " grateful": 2327,
  " gratitude": 8645,
  " gray": 2108,
  " gre": 703,
  " great": 968,
  " greedy": 4700,
  " green": 1071,
  " greet": 6628,
  " greeted": 7636,
  " grew": 1985,
  " grey": 5704,
  " gri": 6774,
  " grill": 3960,
  " grin": 5325,
  " grinned": 5750,
  " grip": 7229,
  " gro": 4592,
  " groan": 8512,
  " groaned": 9206,
  " grocer": 7245,
  " groceries": 7320,
  " grocery": 5009,
  " groom": 9218,
  " gross": 7189,
  " ground": 916,
  " group": 2740,
  " groups": 6790,
  " grow": 1491,
  " growing": 4242,
  " growl": 3778,
  " growled": 4977,
  " growling": 6444,
  " growls": 6757,
  " grown": 3561,
  " grows": 6777,
  " grumbled": 9291,
  " grumpy": 2227,
  " gu": 1727,
  " guard": 3705,
  " guardian": 9847,
  " guarding": 8732,
  " guards": 9299,
  " guess": 2772,
  " guessed": 5291,
  " guesses": 9711,
  " guessing": 6565,
  " guest": 6241,
  " guests": 7162,
  " guide": 7596,
  " guilty": 3272,
  " guit": 2910,
  " guitar": 2949,
  " guitars": 9792,
  " gum": 3197,
  " gun": 2612,
  " guns": 6169,
  " gust": 5649,
  " guy": 5645,
  " guys": 6326,
  " gym": 4239,
  " h": 268,
  " ha": 295,
  " habit": 8897,
  " had": 366,
  " hadn": 5178,
  " hair": 1334,
  " haircut": 3465,
  " haircuts": 7458,
  " haird": 8208,
  " hairdress": 8484,
  " hairdresser": 8563,
  " hairy": 2955,
  " half": 3436,
  " hall": 3788,
  " hallway": 7235,
  " halves": 9630,
  " ham": 2891,
  " hammer": 3160,
  " hand": 803,
  " handed": 4456,
  " handful": 6868,
  " handing": 7847,
  " handle": 3834,
  " hands": 1116,
  " handsome": 7818,
  " hang": 2549,
  " hanger": 4055,
  " hangers": 7466,
  " hanging": 4003,
  " hangs": 9249,
  " happ": 356,
  " happen": 1691,
  " happened": 809,
  " happening": 3485,
  " happens": 4330,
  " happier": 4129,
  " happiest": 5757,
  " happily": 995,
  " happiness": 3276,
  " happy": 383,
  " har": 2623,
  " harb": 4523,
  " harbor": 4547,
  " hard": 884,
  " harder": 3311,
  " hardest": 8862,
  " hardly": 5894,
  " harm": 3036,
  " harmless": 3298,
  " harsh": 3375,
  " has": 1162,
  " hat": 1028,
  " hatch": 8813,
  " hatched": 9848,
  " hate": 4266,
  " hated": 5634,
  " hates": 9608,
  " hats": 2967,
  " have": 507,
  " haven": 9382,
  " having": 1122,
  " hawk": 7379,
  " hay": 3123,
  " he": 286,
  " head": 1181,
  " headed": 5460,
  " heading": 7354,
  " heads": 4656,
  " heal": 2997,
  " healed": 6134,
  " healing": 7674,
  " health": 7091,
  " healthier": 9250,
  " healthy": 2373,
  " hear": 1100,
  " heard": 835,
  " hearing": 7113,
  " hears": 2847,
  " heart": 2065,
  " heartbroken": 8706,
  " hearts": 4903,
  " heat": 4807,
  " heav": 6168,
  " heaven": 9132,
  " heavier": 6683,
  " heavy": 1567,
  " hedge": 3841,
  " hedgehog": 7060,
  " heel": 4989,
  " heels": 9237,
  " height": 7832,
  " hel": 436,
  " held": 1467,
  " helicopter": 3213,
  " helicopters": 9959,
  " hello": 2568,
  " helmet": 3104,
  " helmets": 6145,
  " help": 440,
  " helped": 1005,
  " helper": 4204,
  " helpers": 6370,
  " helpful": 2070,
  " helping": 1407,
  " helpless": 3275,
  " helps": 3252,
  " hen": 5595,
  " her": 338,
  " herb": 3701,
  " herbs": 5433,
  " here": 1254,
  " hero": 2621,
  " heroes": 5945,
  " hers": 5196,
  " herself": 1936,
  " hesit": 5605,
  " hesitant": 7629,
  " hesitated": 6754,
  " hesitation": 9363,
  " hi": 5631,
  " hid": 1237,
  " hidden": 2243,
  " hide": 1425,
  " hider": 6607,
  " hides": 6573,
  " hiding": 1966,
  " hig": 817,
  " high": 907,
  " higher": 1834,
  " highest": 5418,
  " hill": 1249,
  " hills": 4879,
  " him": 482,
  " himself": 1596,
  " hipp": 3735,
  " hippo": 3811,
  " hippos": 9624,
  " hips": 9703,
  " his": 344,
  " hiss": 7864,
  " hissed": 5825,
  " hisses": 8619,
  " hissing": 9028,
  " hist": 4805,
  " history": 4815,
  " hit": 1640,
  " hits": 5183,
  " hitting": 6136,
  " hive": 4008,
  " ho": 720,
  " hoc": 3908,
  " hockey": 3910,
  " hol": 4610,
  " hold": 1393,
  " holding": 2083,
  " holds": 4046,
  " hole": 1092,
  " holes": 4139,
  " holiday": 4612,
  " home": 592,
  " homes": 3546,
  " homework": 6456,
  " hon": 5043,
  " honest": 2425,
  " honesty": 8493,
  " honey": 2099,
  " honk": 5892,
  " honked": 6904,
  " honking": 8431,
  " honks": 9238,
  " hoo": 7940,
  " hood": 8942,
  " hook": 3552,
  " hooks": 8728,
  " hoop": 2892,
  " hoops": 7536,
  " hooves": 9500,
  " hop": 1235,
  " hope": 2315,
  " hoped": 1937,
  " hopeful": 7170,
  " hopes": 4984,
  " hoping": 4582,
  " hopped": 1575,
  " hopping": 3192,
  " hops": 6911,
  " hor": 1942,
  " horiz": 7261,
  " horizon": 7269,
  " horn": 2779,
  " horns": 5776,
  " horri": 8885,
  " horse": 2144,
  " horses": 4824,
  " hose": 2793,
  " hoses": 9765,
  " hosp": 3473,
  " hospital": 3481,
  " hot": 1280,
  " hotel": 3925,
  " hotter": 7273,
  " hour": 7308,
  " hours": 3973,
  " house": 613,
  " houses": 3121,
  " how": 773,
  " however": 6655,
  " hudd": 9947,
  " hug": 693,
  " huge": 2169,
  " hugged": 937,
  " hugging": 5874,
  " hugs": 2153,
  " hum": 2518,
  " human": 4507,
  " humans": 7730,
  " humble": 3228,
  " hummed": 9972,
  " humming": 8245,
  " hun": 1271,
  " hundred": 7734,
  " hung": 4255,
  " hungry": 1333,
  " hunt": 3317,
  " hunter": 3793,
  " hunters": 8179,
  " hunting": 9340,
  " hur": 2675,
  " hurricane": 4657,
  " hurried": 5391,
  " hurry": 4095,
  " hurt": 909,
  " hurting": 5056,
  " hurts": 3175,
  " hus": 6957,
  " husband": 7034,
  " hut": 4127,
  " ice": 1221,
  " icing": 7327,
  " icky": 8912,
  " icy": 2625,
  " ide": 821,
  " idea": 831,
  " ideas": 5117,
  " if": 847,
  " ig": 4032,
  " igloo": 4038,
  " ign": 2349,
  " ignor": 2745,
  " ignorant": 3515,
  " ignore": 4548,
  " ignored": 4893,
  " ignoring": 7420,
  " ill": 8612,
  " im": 926,
  " imag": 2336,
  " image": 5005,
  " images": 6612,
  " imagination": 4843,
  " imaginations": 9372,
  " imagine": 4088,
  " imagined": 4385,
  " imagining": 7236,
  " immediately": 5432,
  " imp": 1010,
  " impatient": 3569,
  " import": 1189,
  " importance": 5581,
  " important": 1214,
  " impossible": 6882,
  " impress": 2590,
  " impressed": 4781,
  " impressive": 3135,
  " impro": 3617,
  " improve": 4104,
  " improved": 6245,
  " in": 315,
  " inc": 2036,
  " inch": 5620,
  " inches": 8113,
  " inchworm": 9135,
  " inclu": 4241,
  " include": 4937,
  " included": 6359,
  " including": 7148,
  " incre": 4486,
  " increase": 4909,
  " increased": 7042,
  " increasing": 8504,
  " incred": 2735,
  " incredible": 2755,
  " ind": 2877,
  " indeed": 7158,
  " independ": 3052,
  " independent": 3086,
  " inf": 4500,
  " infant": 4624,
  " ing": 4876,
  " ingred": 4889,
  " ingredient": 4891,
  " ingredients": 4964,
  " inj": 7972,
  " injured": 9471,
  " ink": 3681,
  " ins": 4331,
  " inse": 3406,
  " insect": 3461,
  " insects": 6436,
  " inside": 753,
  " insist": 6351,
  " insisted": 4863,
  " insisting": 8560,
  " insp": 7928,
  " inspired": 8509,
  " inst": 5119,
  " instantly": 8781,
  " instead": 2162,
  " instr": 5481,
  " instruct": 6132,
  " instructions": 6187,
  " instrum": 7070,
  " instrument": 9514,
  " instruments": 7834,
  " int": 673,
  " intellig": 3361,
  " intelligence": 9802,
  " intelligent": 3431,
  " intently": 9682,
  " inter": 9140,
  " interest": 2254,
  " interested": 6798,
  " interesting": 2338,
  " into": 722,
  " intrigued": 7372,
  " introd": 4490,
  " introduc": 6331,
  " introduce": 4925,
  " introduced": 6579,
  " inv": 2181,
  " invent": 9221,
  " invest": 5521,
  " investig": 5526,
  " investigate": 5557,
  " invisible": 9712,
  " invit": 4706,
  " invitation": 5060,
  " invitations": 8268,
  " invite": 4349,
  " invited": 3320,
  " invites": 8233,
  " inviting": 6389,
  " iron": 3967,
  " is": 438,
  " island": 3034,
  " isn": 5273,
  " it": 311,
  " itch": 3728,
  " itchy": 6471,
  " item": 5611,
  " items": 6163,
  " its": 837,
  " itself": 3809,
  " j": 458,
  " jack": 3088,
  " jacket": 3114,
  " jackets": 6473,
  " jail": 4438,
  " jam": 2763,
  " jar": 1761,
  " jars": 7401,
  " jazz": 5071,
  " je": 1604,
  " jealous": 2781,
  " jeep": 3078,
  " jelly": 2387,
  " jellyfish": 3655,
  " jet": 2893,
  " jets": 8293,
  " jewel": 2384,
  " jewelry": 4154,
  " jewels": 5320,
  " jing": 9688,
  " jo": 1161,
  " job": 1517,
  " jobs": 6702,
  " jog": 2305,
  " jogged": 4732,
  " jogging": 5267,
  " join": 1526,
  " joined": 2914,
  " joining": 7635,
  " joins": 7748,
  " joke": 2222,
  " joked": 6586,
  " jokes": 4158,
  " joking": 6130,
  " jolly": 3014,
  " journ": 2138,
  " journal": 3670,
  " journey": 2656,
  " journeys": 8445,
  " joy": 2012,
  " joyful": 8087,
  " joyfully": 9689,
  " ju": 1602,
  " jud": 8656,
  " judge": 3538,
  " judges": 9690,
  " jug": 3195,
  " jugg": 8835,
  " juice": 1992,
  " juicy": 4043,
  " jump": 726,
  " jumped": 953,
  " jumper": 8943,
  " jumping": 2462,
  " jumps": 4164,
  " jungle": 3004,
  " junk": 4301,
  " just": 810,
  " k": 404,
  " kangaroo": 4065,
  " kangaroos": 9050,
  " kay": 3725,
  " kayak": 3751,
  " ke": 735,
  " keep": 1044,
  " keeper": 5797,
  " keeping": 4640,
  " keeps": 5603,
  " kept": 1105,
  " ketchup": 8887,
  " key": 1608,
  " keyhole": 9187,
  " keys": 5577,
  " kick": 2437,
  " kicked": 2731,
  " kicking": 5310,
  " kicks": 6469,
  " kid": 958,
  " kids": 998,
  " killed": 8206,
  " kind": 806,
  " kinder": 8757,
  " kindly": 5817,
  " kindness": 3771,
  " kinds": 4576,
  " king": 1713,
  " kingdom": 5307,
  " kings": 6947,
  " kiss": 2063,
  " kissed": 3230,
  " kisses": 5111,
  " kissing": 9584,
  " kit": 1159,
  " kitchen": 1175,
  " kite": 1921,
  " kites": 6096,
  " kitten": 2092,
  " kittens": 6951,
  " kitty": 5236,
  " kn": 496,
  " kne": 669,
  " knee": 2591,
  " kneel": 4626,
  " kneeled": 5445,
  " kneeling": 8925,
  " knees": 6604,
  " knelt": 5769,
  " knew": 682,
  " knife": 2973,
  " knight": 3850,
  " knights": 6081,
  " knit": 9383,
  " knives": 7667,
  " knob": 4316,
  " knobs": 9329,
  " knock": 3958,
  " knocked": 2727,
  " knocking": 8131,
  " knocks": 6553,
  " knot": 3413,
  " knots": 7256,
  " know": 664,
  " knowing": 2951,
  " knowled": 6470,
  " knowledge": 6472,
  " known": 5474,
  " knows": 3707,
  " l": 276,
  " la": 541,
  " lab": 3013,
  " label": 4414,
  " labels": 7196,
  " lace": 7573,
  " laces": 8696,
  " lad": 2457,
  " ladder": 2490,
  " lady": 1305,
  " ladyb": 5465,
  " ladybug": 5562,
  " laid": 5484,
  " lake": 1871,
  " lamb": 6902,
  " lamp": 2693,
  " land": 1486,
  " landed": 2248,
  " landing": 9056,
  " lands": 5506,
  " landscape": 5078,
  " langu": 4370,
  " language": 4551,
  " languages": 7784,
  " lap": 6300,
  " lapt": 8154,
  " laptop": 8209,
  " lar": 9902,
  " large": 2475,
  " larger": 9949,
  " laser": 3968,
  " last": 2221,
  " late": 2112,
  " later": 2282,
  " laug": 611,
  " laugh": 1321,
  " laughed": 709,
  " laughing": 1787,
  " laughs": 3622,
  " laught": 4673,
  " laughter": 4675,
  " laund": 4058,
  " laundry": 4062,
  " lava": 9568,
  " law": 2526,
  " lawn": 4358,
  " laws": 9441,
  " lawy": 4416,
  " lawyer": 4461,
  " lay": 2301,
  " laying": 7103,
  " lazy": 2536,
  " le": 493,
  " lead": 2652,
  " leader": 5694,
  " leading": 6625,
  " leads": 7041,
  " leaf": 1652,
  " leak": 4522,
  " leaking": 9849,
  " lean": 3203,
  " leaned": 4360,
  " leaning": 6531,
  " leans": 9019,
  " leap": 6850,
  " leapt": 8073,
  " lear": 4905,
  " learn": 623,
  " learned": 695,
  " learner": 9817,
  " learning": 3489,
  " learns": 6090,
  " learnt": 4906,
  " leash": 3887,
  " least": 6678,
  " leather": 4789,
  " leave": 1067,
  " leaves": 1309,
  " leaving": 4311,
  " lecture": 5054,
  " lectures": 9699,
  " led": 3737,
  " left": 1473,
  " leg": 1670,
  " legs": 2309,
  " lem": 2129,
  " lemon": 2330,
  " lemonade": 4907,
  " lemons": 4926,
  " lend": 4059,
  " lending": 7141,
  " lent": 7548,
  " leop": 3494,
  " leopard": 3541,
  " less": 1414,
  " lesson": 1525,
  " lessons": 7525,
  " let": 839,
  " lets": 5427,
  " letter": 1874,
  " letters": 4196,
  " letting": 4671,
  " lettuce": 6566,
  " level": 9741,
  " lever": 9553,
  " levers": 9136,
  " li": 368,
  " libr": 3367,
  " librarian": 6463,
  " library": 3677,
  " lic": 4344,
  " license": 4398,
  " lick": 5467,
  " licked": 3345,
  " licking": 7630,
  " licks": 5062,
  " lid": 4419,
  " lie": 4208,
  " lied": 5948,
  " lies": 7539,
  " lif": 2927,
  " life": 2204,
  " lift": 2429,
  " lifted": 3141,
  " lifting": 6748,
  " lifts": 7020,
  " light": 1364,
  " lighter": 6718,
  " lighting": 9865,
  " lightning": 4254,
  " lights": 3683,
  " like": 525,
  " liked": 537,
  " likes": 1562,
  " lily": 5480,
  " lim": 9489,
  " lime": 3663,
  " limes": 6012,
  " limp": 8799,
  " line": 2353,
  " lined": 5335,
  " lines": 5478,
  " lion": 1292,
  " lions": 4453,
  " lip": 4253,
  " lips": 5444,
  " lipstick": 7775,
  " liqu": 6929,
  " liquid": 6996,
  " list": 813,
  " listen": 996,
  " listened": 1370,
  " listener": 9425,
  " listening": 4152,
  " listens": 6233,
  " lit": 3328,
  " little": 397,
  " live": 2081,
  " lived": 641,
  " lively": 3578,
  " lives": 4571,
  " living": 1843,
  " liz": 3220,
  " lizard": 3277,
  " lizards": 9656,
  " lo": 443,
  " load": 3368,
  " loaded": 5902,
  " loading": 6432,
  " loc": 8597,
  " local": 9334,
  " lock": 2466,
  " locked": 3224,
  " locks": 8089,
  " log": 2705,
  " logs": 6182,
  " lollipop": 3226,
  " lollipops": 6165,
  " lon": 1832,
  " lonely": 1841,
  " long": 747,
  " longer": 2401,
  " longest": 7545,
  " loo": 442,
  " look": 710,
  " looked": 511,
  " looking": 1145,
  " looks": 1458,
  " loop": 3440,
  " loops": 7007,
  " loose": 5717,
  " lose": 2736,
  " loses": 7696,
  " losing": 6692,
  " lost": 1048,
  " lot": 659,
  " lotion": 3994,
  " lots": 861,
  " loud": 919,
  " louder": 3460,
  " loudest": 8510,
  " loudly": 3671,
  " love": 875,
  " loved": 510,
  " lovely": 2476,
  " loves": 2533,
  " loving": 5878,
  " low": 3232,
  " lower": 6921,
  " lowered": 8105,
  " loyal": 2900,
  " loyalty": 9769,
  " luck": 4947,
  " luckiest": 9742,
  " luckily": 8975,
  " lucky": 2176,
  " luggage": 4429,
  " lull": 9948,
  " lumber": 4320,
  " lump": 9232,
  " lunch": 1978,
  " lunchtime": 8972,
  " lung": 5249,
  " lungs": 6794,
  " luxu": 5232,
  " luxury": 5287,
  " lying": 3525,
  " m": 281,
  " ma": 6110,
  " mach": 2140,
  " machine": 2226,
  " machines": 5861,
  " mad": 1878,
  " made": 589,
  " mag": 883,
  " magaz": 3866,
  " magazine": 4094,
  " magazines": 7562,
  " magic": 947,
  " magical": 2123,
  " magician": 7503,
  " magn": 3084,
  " magnet": 3172,
  " magnets": 6616,
  " magnif": 7982,
  " magnifying": 9260,
  " mail": 1809,
  " mailbox": 2991,
  " mailed": 6842,
  " mailing": 9472,
  " mailman": 4914,
  " majest": 9683,
  " make": 539,
  " maker": 7373,
  " makes": 1615,
  " makeup": 3827,
  " making": 1230,
  " mall": 4519,
  " mama": 4952,
  " man": 508,
  " manag": 7895,
  " manage": 5164,
  " managed": 3854,
  " manager": 8735,
  " mane": 6042,
  " manners": 7586,
  " many": 671,
  " map": 2584,
  " maps": 9344,
  " mar": 1470,
  " marble": 3710,
  " marbles": 4969,
  " march": 2622,
  " marched": 3919,
  " marching": 5286,
  " mark": 2137,
  " marked": 6619,
  " marker": 7078,
  " markers": 7399,
  " market": 3001,
  " marking": 8928,
  " marks": 5658,
  " marriage": 5067,
  " married": 5138,
  " marry": 3602,
  " marshmallow": 7927,
  " marshmallows": 8287,
  " marve": 9325,
  " marvel": 9994,
  " mask": 2932,
  " masks": 6160,
  " mass": 4659,
  " massage": 4858,
  " massages": 8246,
  " mast": 7653,
  " master": 7787,
  " masterpiece": 8741,
  " mat": 1500,
  " match": 2508,
  " matched": 5541,
  " matches": 4535,
  " matching": 5907,
  " mate": 7349,
  " mater": 6766,
  " material": 6771,
  " materials": 7643,
  " matey": 7923,
  " math": 3791,
  " mats": 8824,
  " matt": 3803,
  " matter": 2565,
  " mattered": 8796,
  " matters": 6656,
  " mattress": 3842,
  " may": 3988,
  " maybe": 2393,
  " mayor": 9463,
  " maze": 3836,
  " me": 528,
  " meadow": 3781,
  " meal": 3080,
  " meals": 6838,
  " mean": 1164,
  " meaning": 8858,
  " means": 3789,
  " meant": 3284,
  " meas": 4560,
  " measure": 2822,
  " measured": 5329,
  " measuring": 5670,
  " meat": 3586,
  " mechanic": 4667,
  " med": 2343,
  " medal": 3944,
  " medals": 8852,
  " medic": 3041,
  " medicine": 3063,
  " meet": 2116,
  " meeting": 4463,
  " meets": 9995,
  " mel": 2670,
  " melody": 9923,
  " melon": 3181,
  " melons": 7528,
  " melt": 3324,
  " melted": 5322,
  " melting": 5475,
  " melts": 9924,
  " mem": 4013,
  " memb": 8752,
  " member": 9403,
  " members": 8753,
  " memories": 5193,
  " memory": 5137,
  " men": 4066,
  " mention": 4727,
  " mentioned": 5398,
  " menu": 4661,
  " meow": 5347,
  " meowed": 4660,
  " meowing": 8790,
  " meows": 8195,
  " mer": 6869,
  " merma": 7310,
  " mermaid": 7530,
  " merry": 7348,
  " mes": 6340,
  " mesmer": 7066,
  " mesmerized": 7628,
  " mess": 1199,
  " message": 3995,
  " messages": 8996,
  " messed": 8721,
  " messes": 8388,
  " messy": 2276,
  " met": 1030,
  " metal": 3606,
  " mic": 2653,
  " mice": 5082,
  " microphone": 3884,
  " microscope": 4081,
  " microw": 9384,
  " microwave": 9394,
  " middle": 3083,
  " might": 1445,
  " mighty": 2752,
  " mild": 3756,
  " miles": 7678,
  " milk": 2058,
  " mill": 3468,
  " miller": 9100,
  " min": 1971,
  " mind": 2439,
  " minded": 7481,
  " mindful": 9353,
  " minding": 8202,
  " minds": 7885,
  " mine": 1906,
  " miner": 4120,
  " mineral": 4532,
  " minerals": 6410,
  " mint": 3921,
  " mints": 6685,
  " minute": 4795,
  " minutes": 3826,
  " mirac": 8995,
  " miracle": 9631,
  " mirr": 2595,
  " mirror": 2609,
  " mis": 2787,
  " mischie": 8782,
  " mischievous": 8786,
  " miserable": 3126,
  " miss": 1574,
  " missed": 2271,
  " misses": 6276,
  " missile": 3852,
  " missing": 4396,
  " mission": 6323,
  " mist": 2134,
  " mistake": 2452,
  " mistakes": 4430,
  " mister": 5518,
  " mitten": 3390,
  " mittens": 5643,
  " mix": 1587,
  " mixed": 2714,
  " mixer": 3660,
  " mixing": 5470,
  " mixture": 7453,
  " mo": 757,
  " moat": 8831,
  " model": 4278,
  " models": 8244,
  " moder": 3167,
  " modern": 3183,
  " modest": 3704,
  " mold": 9876,
  " mole": 3154,
  " mom": 393,
  " moment": 1426,
  " moments": 5508,
  " momma": 8902,
  " mommies": 8264,
  " mommy": 1186,
  " moms": 2759,
  " mon": 1247,
  " money": 1806,
  " monkey": 1815,
  " monkeys": 4400,
  " monster": 1653,
  " monsters": 5668,
  " month": 6862,
  " months": 7780,
  " moo": 7233,
  " mood": 8057,
  " mooed": 9676,
  " moon": 2223,
  " moonlight": 9346,
  " moons": 8579,
  " mop": 3297,
  " mor": 1027,
  " moral": 1216,
  " more": 685,
  " morning": 1829,
  " mos": 3706,
  " mosquito": 3712,
  " mosquitoes": 7881,
  " most": 2025,
  " mot": 2367,
  " mother": 1833,
  " motion": 5705,
  " motor": 2554,
  " motorcycle": 3585,
  " motorcycles": 9573,
  " mountain": 2721,
  " mountains": 6108,
  " mouse": 1056,
  " mouth": 1522,
  " mouths": 5354,
  " mov": 2917,
  " move": 1262,
  " moved": 1819,
  " movements": 8868,
  " moves": 4924,
  " movie": 3199,
  " movies": 6004,
  " moving": 2937,
  " mu": 598,
  " much": 768,
  " mud": 1769,
  " muddy": 5135,
  " muff": 3247,
  " muffin": 3821,
  " muffins": 5554,
  " mug": 3333,
  " mugs": 8298,
  " mule": 4073,
  " mum": 1673,
  " mummy": 4071,
  " munch": 8101,
  " munched": 9617,
  " mus": 1568,
  " muscle": 6645,
  " muscles": 5318,
  " museum": 3999,
  " mush": 3151,
  " mushroom": 3194,
  " mushrooms": 6601,
  " music": 1626,
  " musician": 4272,
  " must": 1424,
  " mustache": 4247,
  " muster": 9980,
  " my": 632,
  " myself": 4760,
  " myster": 2259,
  " mysteries": 9305,
  " mysterious": 2616,
  " mystery": 4570,
  " n": 289,
  " nail": 3288,
  " nails": 5551,
  " nam": 401,
  " name": 1447,
  " named": 408,
  " names": 4143,
  " nap": 1654,
  " napkin": 4020,
  " napkins": 6543,
  " napped": 7478,
  " napping": 5656,
  " naps": 5716,
  " nasty": 7946,
  " nation": 4800,
  " natur": 9419,
  " natural": 9592,
  " nature": 4233,
  " naughty": 1954,
  " navy": 4690,
  " ne": 413,
  " near": 819,
  " nearby": 2546,
  " neare": 7610,
  " nearest": 8667,
  " nearly": 8138,
  " neat": 4178,
  " neatly": 7924,
  " neck": 2057,
  " necklace": 2850,
  " necklaces": 6706,
  " necks": 8151,
  " nect": 6814,
  " nectar": 6815,
  " need": 779,
  " needed": 1314,
  " needle": 3537,
  " needles": 6746,
  " needs": 3215,
  " neigh": 2422,
  " neighb": 2442,
  " neighbor": 2995,
  " neighborhood": 5703,
  " neighbors": 5931,
  " neighbour": 5081,
  " neighbourhood": 6393,
  " neighbours": 7494,
  " neither": 6273,
  " ner": 2569,
  " nervous": 2574,
  " nervously": 7467,
  " nest": 1521,
  " nests": 6843,
  " net": 2165,
  " nets": 9224,
  " network": 4827,
  " never": 862,
  " new": 552,
  " newfound": 8248,
  " news": 4792,
  " newsp": 4056,
  " newspaper": 4226,
  " newspapers": 8006,
  " next": 991,
  " nibb": 7092,
  " nibble": 9283,
  " nibbled": 8754,
  " nice": 741,
  " nicely": 3492,
  " nicer": 5691,
  " niece": 9347,
  " night": 1266,
  " nightmare": 4861,
  " nightmares": 7576,
  " nights": 8657,
  " nine": 6629,
  " no": 553,
  " nobody": 4896,
  " nod": 2218,
  " nodded": 1112,
  " nodding": 7822,
  " nods": 2976,
  " noise": 1081,
  " noises": 2103,
  " noisy": 2564,
  " none": 5379,
  " nood": 7583,
  " noodles": 7790,
  " noon": 5707,
  " norm": 2728,
  " normal": 2737,
  " nose": 1892,
  " noses": 6447,
  " nosy": 2856,
  " not": 367,
  " note": 2620,
  " notebook": 3610,
  " notes": 7264,
  " nothing": 2396,
  " notice": 4075,
  " noticed": 1558,
  " noticing": 9434,
  " novel": 4069,
  " novels": 8190,
  " now": 965,
  " nowhere": 5242,
  " number": 2540,
  " numbered": 9277,
  " numbers": 3462,
  " nur": 7589,
  " nurse": 3649,
  " nurses": 8198,
  " nut": 2006,
  " nuts": 2925,
  " nuzz": 7661,
  " nuzzled": 8533,
  " o": 463,
  " oak": 4063,
  " oasis": 4307,
  " oat": 5679,
  " oats": 4132,
  " ob": 2079,
  " obe": 5737,
  " obedient": 3081,
  " obey": 5782,
  " obeyed": 8540,
  " object": 4134,
  " objects": 7029,
  " obser": 4260,
  " observe": 4809,
  " observed": 6329,
  " observing": 8775,
  " occ": 8011,
  " occas": 8505,
  " occasion": 9787,
  " ocean": 3285,
  " octopus": 3752,
  " odd": 8440,
  " of": 372,
  " off": 946,
  " offer": 4833,
  " offered": 4140,
  " offering": 8500,
  " offic": 8700,
  " office": 3323,
  " officer": 5535,
  " officers": 9090,
  " oft": 3933,
  " often": 3934,
  " oh": 5109,
  " oil": 3970,
  " ok": 3857,
  " okay": 1222,
  " old": 789,
  " older": 4441,
  " oldest": 9577,
  " olive": 4295,
  " olives": 5309,
  " on": 354,
  " once": 3733,
  " one": 736,
  " ones": 3210,
  " onion": 3442,
  " onions": 6514,
  " only": 1374,
  " onto": 2461,
  " onward": 7874,
  " onwards": 6060,
  " op": 702,
  " open": 1042,
  " opened": 917,
  " opening": 5879,
  " opens": 3964,
  " opera": 4182,
  " operation": 5041,
  " opin": 5426,
  " opinion": 5747,
  " opinions": 7811,
  " opp": 6889,
  " opport": 8432,
  " opportunity": 9124,
  " oppos": 8303,
  " opposite": 8339,
  " or": 785,
  " orange": 1768,
  " oranges": 5198,
  " ord": 2816,
  " order": 3547,
  " ordered": 5507,
  " orders": 7786,
  " ordinary": 3300,
  " organ": 2145,
  " organize": 3955,
  " organized": 2767,
  " organizing": 5942,
  " original": 3068,
  " ornam": 3702,
  " ornament": 3703,
  " ornaments": 6395,
  " ostri": 4352,
  " ostrich": 4431,
  " ostriches": 9638,
  " other": 562,
  " others": 1171,
  " otherwise": 9645,
  " otter": 3949,
  " otters": 8859,
  " ouch": 8021,
  " our": 1152,
  " ours": 5265,
  " ourselves": 5813,
  " out": 492,
  " outdo": 6166,
  " outdoors": 6288,
  " outfit": 6637,
  " outfits": 9350,
  " outside": 708,
  " oven": 2269,
  " over": 888,
  " overcome": 7342,
  " overjoyed": 6015,
  " overw": 9060,
  " overwhel": 9101,
  " overwhelmed": 9459,
  " ow": 3965,
  " owl": 1507,
  " owls": 9473,
  " own": 1232,
  " owned": 5765,
  " owner": 1830,
  " owners": 6781,
  " owns": 8561,
  " oxygen": 5100,
  " oy": 3644,
  " oyster": 3804,
  " oysters": 7559,
  " p": 279,
  " pa": 1104,
  " pack": 2410,
  " package": 3843,
  " packages": 8383,
  " packed": 3828,
  " packing": 6105,
  " pad": 4887,
  " padd": 6000,
  " paddle": 6373,
  " paddled": 6510,
  " paddling": 9188,
  " page": 4328,
  " pages": 4426,
  " paid": 4769,
  " pain": 1119,
  " painful": 9866,
  " paint": 1538,
  " paintbrush": 7529,
  " painted": 2707,
  " painter": 4313,
  " painting": 3132,
  " paintings": 5887,
  " paints": 5390,
  " pair": 4464,
  " pajamas": 6286,
  " pal": 4072,
  " palace": 4103,
  " pale": 3347,
  " palm": 4868,
  " palms": 9431,
  " pan": 2325,
  " pancakes": 6959,
  " panda": 4373,
  " pandas": 7950,
  " panic": 4581,
  " panicked": 7542,
  " pans": 6438,
  " pant": 3158,
  " pants": 3249,
  " papa": 9091,
  " paper": 1336,
  " papers": 4190,
  " par": 956,
  " parade": 3503,
  " parent": 1633,
  " parents": 1755,
  " park": 530,
  " parked": 6201,
  " parks": 9733,
  " parrot": 3102,
  " part": 2142,
  " parted": 8513,
  " partic": 6733,
  " particular": 6841,
  " particularly": 8761,
  " parties": 5972,
  " parts": 4720,
  " party": 1200,
  " pass": 1869,
  " passed": 3283,
  " passen": 7290,
  " passenger": 9661,
  " passengers": 8182,
  " passes": 8800,
  " passing": 6277,
  " passport": 4034,
  " passports": 6878,
  " past": 1805,
  " pasta": 3110,
  " pastel": 4367,
  " pastels": 5949,
  " pastries": 6332,
  " pastry": 3823,
  " pat": 1582,
  " patch": 3972,
  " patches": 8898,
  " path": 2197,
  " paths": 6968,
  " patience": 6092,
  " patient": 2077,
  " patiently": 6203,
  " patients": 9981,
  " patted": 6285,
  " pattern": 3624,
  " patterns": 5349,
  " pause": 5774,
  " paused": 5091,
  " paw": 1856,
  " paws": 2861,
  " pay": 2710,
  " paying": 6605,
  " pays": 7471,
  " pe": 728,
  " peace": 2235,
  " peaceful": 2661,
  " peacefully": 7656,
  " peach": 3500,
  " peaches": 5360,
  " peacock": 8929,
  " peanut": 3096,
  " peanuts": 5011,
  " pear": 3835,
  " pearl": 5406,
  " pearls": 9766,
  " pears": 5199,
  " peas": 6124,
  " pebb": 3105,
  " pebble": 3472,
  " pebbles": 5893,
  " pec": 6548,
  " peck": 7473,
  " pecked": 6832,
  " pecks": 9528,
  " ped": 4231,
  " pedal": 4915,
  " pedaled": 7452,
  " pedals": 5768,
  " pee": 3956,
  " peek": 4377,
  " peeked": 4319,
  " peeking": 6852,
  " peeks": 9886,
  " peel": 5698,
  " peeled": 7911,
  " peep": 8680,
  " peeped": 9341,
  " peered": 5961,
  " pen": 1584,
  " pencil": 2889,
  " pencils": 6118,
  " pengu": 3573,
  " penguin": 4021,
  " penguins": 6072,
  " pennies": 7017,
  " penny": 3806,
  " pens": 6648,
  " people": 901,
  " pepper": 2959,
  " pepperoni": 9181,
  " peppers": 6040,
  " per": 1349,
  " perched": 6180,
  " perf": 1443,
  " perfect": 1718,
  " perfectly": 5430,
  " perform": 2974,
  " performance": 7185,
  " performed": 6679,
  " performing": 7446,
  " perfume": 4168,
  " perm": 3882,
  " permission": 5403,
  " permit": 4920,
  " permitted": 7781,
  " pers": 1981,
  " persist": 3316,
  " persistence": 9857,
  " persistent": 3388,
  " person": 2500,
  " pet": 1785,
  " petals": 5160,
  " pets": 5295,
  " petted": 5905,
  " petting": 9300,
  " ph": 1932,
  " phone": 2326,
  " phones": 9448,
  " phot": 6116,
  " photo": 3929,
  " photos": 6257,
  " pian": 3159,
  " piano": 3170,
  " pic": 690,
  " pick": 1268,
  " picked": 918,
  " picking": 4028,
  " picks": 3166,
  " picnic": 2651,
  " picnics": 8304,
  " picture": 1020,
  " pictures": 1563,
  " pie": 1180,
  " piece": 1323,
  " pieces": 1746,
  " pies": 5212,
  " pig": 1750,
  " pige": 3223,
  " pigeon": 3407,
  " pigeons": 7294,
  " piggy": 6522,
  " pigs": 4770,
  " pile": 1965,
  " piles": 5558,
  " pill": 1922,
  " pillow": 2206,
  " pillows": 5152,
  " pills": 8077,
  " pilot": 4017,
  " pilots": 8642,
  " pin": 2420,
  " pinch": 4199,
  " pinched": 5167,
  " pinching": 7713,
  " pine": 3838,
  " pink": 1503,
  " pins": 6737,
  " pipe": 3362,
  " pipes": 8567,
  " pir": 2875,
  " pirate": 3729,
  " pirates": 4738,
  " pistol": 3951,
  " pit": 3600,
  " pitch": 4953,
  " pizz": 2511,
  " pizza": 2542,
  " pizzas": 9102,
  " pl": 317,
  " place": 962,
  " placed": 4835,
  " places": 2488,
  " plain": 7009,
  " plan": 1375,
  " plane": 2026,
  " planes": 4619,
  " planet": 3475,
  " planets": 5977,
  " planned": 4934,
  " planning": 7012,
  " plans": 7176,
  " plant": 1505,
  " planted": 5036,
  " planting": 7926,
  " plants": 2443,
  " plastic": 4554,
  " plate": 2348,
  " plates": 4545,
  " play": 327,
  " playd": 8122,
  " playdate": 8464,
  " played": 481,
  " player": 4580,
  " players": 6859,
  " playful": 3227,
  " playground": 3679,
  " playhouse": 6985,
  " playing": 593,
  " playroom": 6086,
  " plays": 5115,
  " playtime": 5523,
  " ple": 3721,
  " pleaded": 7835,
  " pleas": 9278,
  " please": 1295,
  " pleased": 4303,
  " pleasure": 7274,
  " plenty": 6853,
  " plot": 8027,
  " plucked": 8018,
  " plug": 8157,
  " plugged": 8622,
  " po": 696,
  " pocket": 2068,
  " pockets": 5851,
  " poem": 3497,
  " poems": 5754,
  " poin": 1684,
  " point": 4333,
  " pointed": 2456,
  " pointing": 3685,
  " points": 4633,
  " pointy": 6387,
  " poison": 4737,
  " poke": 3797,
  " poked": 4317,
  " pokes": 8903,
  " poking": 5726,
  " pol": 1627,
  " polar": 7637,
  " pole": 3645,
  " police": 2840,
  " policeman": 6341,
  " polish": 3709,
  " polished": 5842,
  " polishing": 5980,
  " polite": 2594,
  " politely": 7663,
  " pond": 1165,
  " ponies": 7460,
  " pony": 3544,
  " pool": 2400,
  " poop": 9684,
  " poor": 2635,
  " pop": 2078,
  " popcorn": 3079,
  " popped": 4181,
  " poppies": 7788,
  " popping": 9319,
  " poppy": 4878,
  " pops": 7225,
  " popsic": 9770,
  " popular": 3206,
  " por": 4135,
  " porch": 4205,
  " port": 4608,
  " pos": 9145,
  " pose": 9154,
  " poses": 8568,
  " posit": 8214,
  " positive": 9036,
  " poss": 9274,
  " possess": 9146,
  " possible": 5708,
  " post": 3626,
  " poster": 7024,
  " postman": 7882,
  " pot": 1583,
  " potato": 2930,
  " potatoes": 5367,
  " potion": 7782,
  " pots": 5906,
  " pouch": 9395,
  " pounced": 9665,
  " pound": 7846,
  " pounds": 9734,
  " pour": 2302,
  " poured": 3312,
  " pouring": 6034,
  " pours": 7206,
  " pout": 6349,
  " pouted": 7056,
  " pow": 3377,
  " powder": 3849,
  " power": 2037,
  " powerful": 2547,
  " powers": 5899,
  " pr": 619,
  " pra": 5419,
  " pract": 2386,
  " practice": 4076,
  " practiced": 3372,
  " practicing": 6183,
  " praised": 5640,
  " prank": 9493,
  " pray": 2808,
  " prayed": 4777,
  " prayer": 6379,
  " prayers": 8084,
  " praying": 6593,
  " pre": 1860,
  " precious": 5800,
  " prep": 3691,
  " prepare": 4546,
  " prepared": 5749,
  " preparing": 7239,
  " pres": 2645,
  " present": 2780,
  " presented": 8271,
  " presents": 5375,
  " press": 3221,
  " pressed": 4174,
  " presses": 7081,
  " pressing": 9045,
  " pret": 676,
  " pretend": 1365,
  " pretended": 2504,
  " pretending": 3952,
  " pretends": 6037,
  " prett": 5280,
  " prettier": 6405,
  " prettiest": 6066,
  " pretty": 759,
  " prevent": 4427,
  " prevented": 8435,
  " pri": 2532,
  " price": 4950,
  " prick": 8174,
  " prickly": 8921,
  " pride": 5718,
  " prin": 1341,
  " prince": 2464,
  " princess": 2147,
  " princesses": 6480,
  " print": 2686,
  " printed": 5364,
  " printer": 5172,
  " printing": 6885,
  " prints": 5214,
  " priv": 9430,
  " prize": 3122,
  " prizes": 8535,
  " pro": 3391,
  " prob": 2008,
  " probably": 8007,
  " problem": 2034,
  " problems": 4410,
  " prod": 9578,
  " prog": 9840,
  " project": 6194,
  " prom": 1361,
  " promise": 2049,
  " promised": 1747,
  " promises": 6208,
  " prop": 5823,
  " proper": 8078,
  " properly": 6640,
  " property": 9364,
  " prot": 2365,
  " protect": 2601,
  " protected": 5930,
  " protecting": 6199,
  " protection": 9950,
  " proud": 902,
  " proudly": 4476,
  " prov": 4160,
  " prove": 7337,
  " provide": 4647,
  " provided": 6597,
  " providing": 8648,
  " prun": 3575,
  " prune": 4714,
  " prunes": 4873,
  " pu": 1403,
  " puck": 7812,
  " pudd": 1742,
  " puddle": 1893,
  " puddles": 4488,
  " puff": 7377,
  " pull": 1153,
  " pulled": 1489,
  " pulling": 4994,
  " pulls": 4553,
  " pump": 2618,
  " pumpkin": 2814,
  " pumpkins": 6188,
  " pun": 3824,
  " punish": 4765,
  " punished": 5312,
  " punishment": 7727,
  " pup": 4539,
  " pupil": 5368,
  " pupils": 7276,
  " pupp": 5576,
  " puppet": 6295,
  " puppets": 9189,
  " puppies": 6989,
  " puppy": 1972,
  " pur": 4943,
  " purp": 1777,
  " purple": 1794,
  " purpose": 7771,
  " purr": 6747,
  " purred": 5938,
  " purrs": 7915,
  " purse": 3566,
  " pus": 1096,
  " push": 1945,
  " pushed": 1421,
  " pushes": 4628,
  " pushing": 4511,
  " put": 584,
  " puts": 2435,
  " putting": 4530,
  " puzz": 2141,
  " puzzle": 2372,
  " puzzled": 7692,
  " puzzles": 5012,
  " qu": 970,
  " quack": 5632,
  " quacked": 6317,
  " quacking": 9130,
  " quacks": 9420,
  " quar": 3263,
  " quarrel": 3307,
  " quarreled": 7743,
  " quarreling": 6041,
  " que": 1710,
  " queen": 2468,
  " queens": 7226,
  " quest": 2370,
  " question": 3528,
  " questioned": 8318,
  " questions": 3394,
  " quick": 1453,
  " quickly": 1546,
  " quiet": 1644,
  " quieter": 8019,
  " quietly": 5068,
  " quilt": 9867,
  " quit": 4025,
  " quite": 5046,
  " quiz": 4324,
  " quizzes": 9348,
  " r": 336,
  " ra": 1858,
  " rabbit": 1091,
  " rabbits": 4785,
  " rac": 4503,
  " raccoon": 7204,
  " race": 1211,
  " raced": 3127,
  " racer": 9735,
  " racers": 9982,
  " races": 6734,
  " racing": 4939,
  " rack": 9064,
  " rad": 2261,
  " radio": 3308,
  " radish": 3582,
  " radishes": 5877,
  " raft": 3419,
  " rag": 3533,
  " rags": 9691,
  " rail": 4296,
  " rails": 8697,
  " rain": 1018,
  " rainbow": 1994,
  " rainbows": 6281,
  " rainco": 6696,
  " raincoat": 7150,
  " raindr": 6839,
  " raindrops": 7199,
  " rained": 4599,
  " raining": 4728,
  " rains": 7111,
  " rainy": 6662,
  " raise": 4562,
  " raised": 5208,
  " raising": 8352,
  " rake": 4106,
  " raked": 9292,
  " raking": 8964,
  " ramp": 7745,
  " ran": 603,
  " ranch": 4491,
  " rang": 5202,
  " ranger": 6653,
  " rare": 2600,
  " rat": 2926,
  " rather": 7311,
  " rats": 7716,
  " raven": 3109,
  " rays": 8240,
  " razor": 4216,
  " re": 461,
  " reach": 1478,
  " reached": 1401,
  " reaches": 5106,
  " reaching": 6247,
  " read": 1304,
  " reading": 3761,
  " reads": 6492,
  " ready": 1358,
  " real": 1182,
  " realise": 9611,
  " realised": 3966,
  " realize": 6070,
  " realized": 1745,
  " realizes": 8360,
  " realizing": 9897,
  " really": 1695,
  " reapp": 8433,
  " reappeared": 9736,
  " reason": 6827,
  " reass": 7574,
  " reassured": 8455,
  " rebu": 9411,
  " rebuild": 9803,
  " rec": 2060,
  " rece": 4177,
  " receive": 5153,
  " received": 5341,
  " recipe": 7213,
  " recogn": 4263,
  " recognize": 4965,
  " recognized": 5724,
  " recommend": 4521,
  " recommended": 7164,
  " record": 2944,
  " recorded": 5618,
  " recorder": 8580,
  " recording": 6380,
  " red": 679,
  " reef": 4346,
  " ref": 3177,
  " refle": 6598,
  " reflection": 7035,
  " refres": 6028,
  " refreshed": 6554,
  " refreshing": 8269,
  " refrigerator": 4382,
  " refuse": 6308,
  " refused": 4325,
  " reg": 2615,
  " regret": 4529,
  " regretted": 7101,
  " regular": 3352,
  " reind": 4078,
  " reindeer": 4107,
  " rel": 1690,
  " relax": 3030,
  " relaxed": 5386,
  " relaxing": 7739,
  " rele": 5833,
  " release": 5102,
  " released": 5983,
  " reliable": 3191,
  " relie": 2697,
  " relief": 6710,
  " relieved": 2802,
  " reluctantly": 6401,
  " rely": 8554,
  " rem": 1022,
  " remain": 3938,
  " remained": 5436,
  " remem": 5687,
  " remember": 1195,
  " remembered": 1519,
  " remembering": 6360,
  " remembers": 5689,
  " remind": 2960,
  " reminded": 4520,
  " reminder": 6126,
  " reminding": 7900,
  " reminds": 7513,
  " remote": 6244,
  " remove": 4387,
  " removed": 5890,
  " rep": 3334,
  " repa": 6796,
  " repair": 3812,
  " repaired": 6828,
  " repairing": 9653,
  " repe": 3820,
  " repeat": 4708,
  " repeated": 5804,
  " repeating": 7566,
  " repeats": 9182,
  " repl": 1397,
  " replace": 4559,
  " replaced": 6267,
  " replied": 1476,
  " reply": 6100,
  " request": 4758,
  " requested": 6242,
  " res": 1689,
  " resc": 3719,
  " rescue": 4310,
  " rescued": 6316,
  " rescuing": 8034,
  " resist": 4192,
  " resisted": 7742,
  " resp": 5154,
  " respect": 2626,
  " respected": 7479,
  " respectful": 4422,
  " respon": 8423,
  " respond": 7400,
  " responded": 8249,
  " respons": 5760,
  " response": 8426,
  " responsib": 8663,
  " responsibility": 9389,
  " responsible": 6097,
  " rest": 1253,
  " restaurant": 4225,
  " rested": 5477,
  " resting": 5529,
  " restless": 3430,
  " restore": 4572,
  " restored": 6624,
  " result": 5681,
  " results": 7854,
  " ret": 2479,
  " return": 2491,
  " returned": 3482,
  " returning": 8402,
  " reun": 9176,
  " reunited": 9713,
  " reveal": 4514,
  " revealed": 5607,
  " revealing": 9823,
  " rever": 3954,
  " reverse": 4300,
  " reversed": 7356,
  " reversing": 9569,
  " reward": 4024,
  " rewarded": 7030,
  " rewarding": 8674,
  " rewards": 8541,
  " rh": 3024,
  " rhin": 3985,
  " rhino": 9127,
  " rhinoceros": 4142,
  " rhythm": 4856,
  " ri": 1239,
  " ribb": 3785,
  " ribbit": 9177,
  " ribbon": 4440,
  " ribbons": 5921,
  " rice": 3402,
  " rich": 2509,
  " rid": 3235,
  " ride": 1599,
  " rider": 9777,
  " rides": 5617,
  " riding": 4302,
  " right": 1196,
  " rin": 8808,
  " ring": 2250,
  " ringing": 5422,
  " rings": 6061,
  " rins": 9822,
  " rinse": 9529,
  " rinsed": 9912,
  " rip": 6023,
  " ripe": 6569,
  " ripp": 9877,
  " ripped": 5525,
  " rips": 8763,
  " rise": 3974,
  " rising": 7044,
  " risk": 6544,
  " risks": 7789,
  " river": 1719,
  " riverbank": 9599,
  " rivers": 7398,
  " ro": 486,
  " road": 1851,
  " roads": 5951,
  " roar": 2768,
  " roared": 4115,
  " roaring": 6002,
  " roars": 7309,
  " rob": 2005,
  " robber": 7218,
  " robbers": 7961,
  " robe": 9632,
  " robin": 9168,
  " robot": 2059,
  " robots": 7303,
  " rock": 772,
  " rocked": 5918,
  " rocket": 2380,
  " rockets": 6343,
  " rocking": 5852,
  " rocks": 1682,
  " rod": 3514,
  " rode": 3363,
  " rods": 9554,
  " roll": 1327,
  " rolled": 1773,
  " rolling": 3825,
  " rolls": 6283,
  " roof": 3364,
  " room": 717,
  " rooms": 4695,
  " root": 3750,
  " roots": 5468,
  " rope": 1988,
  " ropes": 6502,
  " rose": 2880,
  " roses": 6220,
  " rot": 3861,
  " rotten": 6974,
  " rotting": 6711,
  " rough": 2676,
  " round": 1645,
  " rout": 8348,
  " routine": 9858,
  " row": 4694,
  " rowed": 8273,
  " rows": 8038,
  " ru": 1296,
  " rub": 2557,
  " rubb": 9600,
  " rubbed": 3554,
  " rubber": 4264,
  " rubbing": 5850,
  " rubbish": 9657,
  " rubs": 6282,
  " rude": 2168,
  " ruff": 9541,
  " rug": 3066,
  " ruin": 5278,
  " ruined": 3259,
  " ruining": 6664,
  " rul": 5515,
  " rule": 6338,
  " ruler": 5652,
  " rules": 4329,
  " rumble": 7330,
  " rumbling": 8814,
  " run": 746,
  " runner": 8085,
  " running": 1373,
  " runs": 1872,
  " rush": 4736,
  " rushed": 4540,
  " rushing": 7632,
  " rust": 5867,
  " rustling": 7920,
  " rusty": 7123,
  " s": 260,
  " sa": 292,
  " sack": 1980,
  " sacks": 8389,
  " sad": 502,
  " sadder": 8418,
  " sadly": 4484,
  " sadness": 5940,
  " saf": 2571,
  " safari": 4857,
  " safe": 896,
  " safely": 3895,
  " safer": 5952,
  " safety": 5584,
  " said": 326,
  " sail": 1776,
  " sailboat": 7230,
  " sailed": 3384,
  " sailing": 5089,
  " sailor": 3927,
  " sailors": 7250,
  " sails": 7506,
  " sal": 2191,
  " salad": 2923,
  " sale": 7129,
  " salon": 9570,
  " salt": 3714,
  " salty": 6649,
  " same": 1899,
  " san": 7125,
  " sand": 1207,
  " sandbox": 3971,
  " sandcast": 4666,
  " sandcastle": 4813,
  " sandcastles": 8161,
  " sandpit": 9548,
  " sandw": 2130,
  " sandwich": 2499,
  " sandwiches": 4219,
  " sandy": 7719,
  " sang": 1738,
  " sank": 7151,
  " sat": 1098,
  " satis": 6115,
  " satisf": 8821,
  " satisfaction": 9480,
  " satisfied": 6552,
  " sauce": 3077,
  " saus": 3502,
  " sausage": 3940,
  " sausages": 5989,
  " sav": 9085,
  " save": 2339,
  " saved": 2419,
  " saving": 4512,
  " saw": 389,
  " say": 572,
  " saying": 3583,
  " says": 665,
  " sc": 520,
  " scale": 3156,
  " scales": 6178,
  " scamp": 7935,
  " scampered": 8218,
  " scar": 2394,
  " scare": 2695,
  " scarecrow": 7665,
  " scared": 618,
  " scares": 7889,
  " scarf": 2524,
  " scaring": 5696,
  " scarves": 6452,
  " scary": 1457,
  " scatter": 3519,
  " scattered": 5191,
  " scattering": 7679,
  " scen": 7819,
  " scene": 9672,
  " scent": 8615,
  " school": 1828,
  " scient": 7833,
  " scientist": 7840,
  " scissors": 2665,
  " sco": 2708,
  " scold": 4759,
  " scolded": 5197,
  " scolds": 7989,
  " scoop": 4874,
  " scooped": 5744,
  " scoops": 8313,
  " scoot": 3329,
  " scooter": 3531,
  " scooters": 7547,
  " score": 4687,
  " scored": 7364,
  " scores": 8880,
  " scowl": 9164,
  " scr": 3075,
  " scra": 6864,
  " scram": 8716,
  " scrambled": 8836,
  " scraped": 7767,
  " scrat": 5016,
  " scratch": 4771,
  " scratched": 5522,
  " scratches": 6682,
  " scratching": 8196,
  " scream": 1920,
  " screamed": 2535,
  " screaming": 6139,
  " screams": 5504,
  " screen": 3490,
  " screw": 3656,
  " screwd": 7332,
  " screwdriver": 7392,
  " screws": 6992,
  " scri": 8908,
  " scru": 5953,
  " scrub": 8399,
  " scrubbed": 6109,
  " sculp": 9268,
  " sculpture": 9269,
  " scur": 6670,
  " scurried": 6693,
  " scurry": 8591,
  " scurrying": 9103,
  " se": 464,
  " sea": 1566,
  " seagull": 6509,
  " seagulls": 9147,
  " seal": 3577,
  " seals": 7680,
  " sear": 1907,
  " search": 2513,
  " searched": 2858,
  " searching": 4457,
  " seas": 6172,
  " seashe": 9804,
  " season": 5239,
  " seasons": 7171,
  " seat": 2114,
  " seats": 5203,
  " seaweed": 6976,
  " sec": 1685,
  " second": 4663,
  " seconds": 7237,
  " secret": 1711,
  " secrets": 5773,
  " secure": 7414,
  " security": 9887,
  " see": 547,
  " seed": 2015,
  " seeds": 2986,
  " seeing": 5125,
  " seek": 2127,
  " seeker": 6578,
  " seeking": 9006,
  " seem": 1974,
  " seemed": 2361,
  " seems": 5865,
  " seen": 1502,
  " sees": 1400,
  " seesaw": 5738,
  " sel": 2241,
  " self": 8623,
  " selfish": 2272,
  " sell": 2775,
  " seller": 7848,
  " selling": 5301,
  " sells": 9751,
  " send": 3587,
  " sending": 7257,
  " sends": 9612,
  " sens": 8145,
  " sensation": 9618,
  " sense": 6847,
  " sent": 4415,
  " separ": 3858,
  " separate": 4291,
  " separated": 6908,
  " separating": 9805,
  " ser": 2233,
  " serious": 3095,
  " seriously": 9951,
  " servant": 8956,
  " serve": 4275,
  " served": 5582,
  " serving": 8020,
  " set": 1561,
  " sets": 8187,
  " sett": 4049,
  " setting": 5491,
  " settle": 4812,
  " settled": 5539,
  " seven": 6312,
  " sever": 8003,
  " several": 8012,
  " sew": 4900,
  " sewed": 6712,
  " sewing": 6914,
  " sh": 395,
  " shade": 3340,
  " shadow": 2608,
  " shadows": 5431,
  " shady": 7498,
  " shake": 2074,
  " shakes": 4622,
  " shaking": 4213,
  " shall": 8247,
  " shallow": 9061,
  " shampoo": 4138,
  " shap": 1957,
  " shape": 3306,
  " shaped": 7119,
  " shapes": 1984,
  " share": 846,
  " shared": 1217,
  " shares": 8569,
  " sharing": 1686,
  " shark": 2733,
  " sharks": 7421,
  " sharp": 2095,
  " shattered": 9878,
  " shave": 9539,
  " she": 398,
  " shed": 5372,
  " sheep": 2274,
  " sheet": 3354,
  " sheets": 7616,
  " shelf": 2242,
  " shell": 1935,
  " shells": 3572,
  " shelter": 4292,
  " shelves": 6198,
  " shh": 9245,
  " shield": 3674,
  " shimmering": 9271,
  " shin": 1722,
  " shine": 3062,
  " shined": 5104,
  " shines": 7936,
  " shinier": 8008,
  " shining": 1850,
  " shiny": 885,
  " ship": 2395,
  " ships": 7657,
  " shirt": 2438,
  " shirts": 6005,
  " shiver": 3031,
  " shivered": 6043,
  " shivering": 4625,
  " sho": 1279,
  " shock": 5492,
  " shocked": 3846,
  " shoe": 2796,
  " shoes": 1859,
  " shone": 4585,
  " shoo": 7018,
  " shooed": 8610,
  " shook": 1998,
  " shoot": 2956,
  " shooting": 5655,
  " shoots": 9239,
  " shop": 1846,
  " shopkeeper": 4918,
  " shopping": 5637,
  " shops": 6952,
  " shore": 2977,
  " short": 3982,
  " shortcut": 9166,
  " shorter": 8045,
  " shorts": 8611,
  " shot": 5215,
  " should": 954,
  " shoulder": 4598,
  " shoulders": 6205,
  " shouldn": 5290,
  " shout": 1302,
  " shouted": 1474,
  " shouting": 5008,
  " shouts": 4442,
  " shovel": 4561,
  " shovels": 7345,
  " show": 713,
  " showed": 1007,
  " shower": 4390,
  " showing": 3646,
  " shown": 7429,
  " shows": 3168,
  " shr": 2089,
  " shrank": 8167,
  " shrimp": 3403,
  " shrink": 4097,
  " shrinking": 6946,
  " shrug": 6095,
  " shrugged": 4762,
  " shrugs": 9233,
  " shrunk": 8917,
  " shut": 3631,
  " shy": 2061,
  " shyly": 9240,
  " si": 5210,
  " siblings": 6910,
  " sick": 2196,
  " side": 1675,
  " sides": 5791,
  " sidewalk": 5451,
  " sigh": 4743,
  " sighed": 3057,
  " sighs": 6017,
  " sight": 3959,
  " sights": 6372,
  " sign": 1677,
  " signed": 6576,
  " signing": 8636,
  " signs": 5200,
  " sil": 3211,
  " silence": 5569,
  " silent": 6703,
  " sill": 7550,
  " silly": 1721,
  " silver": 4116,
  " simp": 5048,
  " simple": 5288,
  " simply": 8039,
  " since": 5279,
  " sincere": 8361,
  " sing": 1124,
  " singer": 6581,
  " singers": 7906,
  " singing": 1927,
  " single": 7163,
  " sings": 5594,
  " sink": 3198,
  " sip": 5405,
  " sipped": 9169,
  " sir": 4885,
  " siren": 5725,
  " sirens": 8545,
  " sister": 1700,
  " sisters": 5570,
  " sit": 1429,
  " sits": 5204,
  " sitting": 1835,
  " situ": 6027,
  " situation": 6390,
  " situations": 9092,
  " six": 5407,
  " size": 4057,
  " sizes": 5075,
  " sk": 749,
  " skeleton": 3790,
  " skies": 9515,
  " skill": 4718,
  " skills": 5220,
  " skin": 3567,
  " skip": 3611,
  " skipped": 3632,
  " skipping": 5414,
  " skirt": 4110,
  " skirts": 8944,
  " skull": 3662,
  " skunk": 7015,
  " sky": 824,
  " sl": 765,
  " slam": 6367,
  " slammed": 6858,
  " slap": 4938,
  " slapped": 5579,
  " slapping": 8229,
  " sle": 3449,
  " sled": 5998,
  " sleds": 9074,
  " sleep": 1241,
  " sleeping": 3467,
  " sleeps": 8802,
  " sleepy": 2319,
  " slept": 3599,
  " slice": 5324,
  " slices": 7347,
  " slid": 2317,
  " slide": 1090,
  " slides": 3898,
  " sliding": 5216,
  " slim": 5794,
  " slimy": 5838,
  " slip": 4482,
  " slipp": 4323,
  " slipped": 3142,
  " slippery": 4577,
  " slipping": 7393,
  " slips": 7093,
  " slither": 7836,
  " slithered": 8918,
  " slow": 1406,
  " slowed": 7186,
  " slower": 6577,
  " slowly": 2072,
  " sm": 409,
  " small": 568,
  " smaller": 2966,
  " smallest": 6021,
  " smart": 1678,
  " smarter": 6460,
  " smartest": 8825,
  " smashed": 7921,
  " smell": 1389,
  " smelled": 2418,
  " smelling": 7825,
  " smells": 4644,
  " smelly": 2334,
  " smelt": 9574,
  " smile": 959,
  " smiled": 571,
  " smiles": 1733,
  " smiley": 5933,
  " smiling": 2577,
  " smo": 1838,
  " smoke": 3165,
  " smooth": 2262,
  " sn": 826,
  " snack": 1743,
  " snacks": 2975,
  " snail": 5024,
  " snake": 1782,
  " snakes": 6195,
  " snap": 4184,
  " snapped": 5205,
  " snapping": 8863,
  " snaps": 8046,
  " snar": 9511,
  " snat": 6713,
  " snatched": 6936,
  " sne": 3969,
  " sneak": 5443,
  " sneaked": 5759,
  " sneaks": 9157,
  " sneaky": 5692,
  " snee": 2629,
  " sneeze": 3775,
  " sneezed": 4537,
  " sneezes": 7820,
  " sneezing": 6429,
  " sniff": 3574,
  " sniffed": 4557,
  " sniffing": 7806,
  " sniffled": 9930,
  " sniffs": 7152,
  " snip": 9685,
  " snort": 9312,
  " snorted": 9128,
  " snow": 1431,
  " snowball": 4838,
  " snowballs": 5807,
  " snowfl": 7064,
  " snowflake": 9727,
  " snowflakes": 7738,
  " snowman": 2203,
  " snowmen": 6408,
  " snowy": 8584,
  " snuck": 7898,
  " snug": 8722,
  " snugg": 4767,
  " snuggle": 8243,
  " snuggled": 5063,
  " so": 406,
  " soak": 4855,
  " soaked": 5612,
  " soaking": 7717,
  " soap": 2631,
  " soapy": 8693,
  " soar": 3565,
  " soared": 5591,
  " soaring": 6020,
  " sobbed": 6441,
  " sobbing": 9241,
  " soccer": 5245,
  " sock": 2761,
  " socks": 4567,
  " soda": 9771,
  " sof": 4267,
  " sofa": 4282,
  " soft": 1041,
  " softened": 9412,
  " softer": 7253,
  " softly": 4604,
  " soil": 4308,
  " sol": 2444,
  " sold": 2578,
  " soldier": 3501,
  " soldiers": 5365,
  " solut": 6431,
  " solution": 6724,
  " solve": 2969,
  " solved": 5061,
  " solving": 7617,
  " some": 610,
  " somebody": 6995,
  " someday": 5366,
  " someone": 1683,
  " somet": 565,
  " something": 587,
  " sometime": 9579,
  " sometimes": 1510,
  " somewhere": 4712,
  " son": 4215,
  " song": 1297,
  " songs": 2205,
  " soon": 1088,
  " sooner": 8896,
  " soot": 8733,
  " sor": 761,
  " sore": 5563,
  " sorry": 790,
  " sort": 3527,
  " sorted": 5421,
  " sorting": 5257,
  " sorts": 5194,
  " sou": 8074,
  " sound": 1160,
  " sounded": 4332,
  " sounds": 2030,
  " soup": 1775,
  " sour": 2257,
  " source": 7155,
  " souvenir": 9435,
  " sp": 514,
  " space": 2762,
  " spaces": 9385,
  " spaceship": 5647,
  " spade": 4542,
  " spaghetti": 3382,
  " spark": 2107,
  " sparkle": 5589,
  " sparkled": 4749,
  " sparkles": 6024,
  " sparkling": 5799,
  " sparkly": 4167,
  " sparks": 7022,
  " spat": 6963,
  " spe": 2308,
  " speak": 3584,
  " speaker": 9714,
  " speaking": 6564,
  " speaks": 9158,
  " spear": 3807,
  " spears": 8888,
  " spec": 857,
  " special": 858,
  " sped": 7338,
  " speed": 3389,
  " speeding": 7619,
  " spell": 3560,
  " spells": 7165,
  " spend": 3337,
  " spending": 5818,
  " spent": 2795,
  " spice": 7658,
  " spices": 8449,
  " spicy": 2175,
  " spid": 2121,
  " spider": 2199,
  " spiders": 6010,
  " spies": 7611,
  " spike": 5022,
  " spikes": 6897,
  " spiky": 9824,
  " spill": 3326,
  " spilled": 4077,
  " spilling": 8978,
  " spills": 7666,
  " spin": 1995,
  " spinning": 3589,
  " spins": 7191,
  " spirit": 3905,
  " spit": 5435,
  " spits": 7518,
  " spl": 1490,
  " splas": 2136,
  " splash": 2337,
  " splashed": 2531,
  " splashes": 5904,
  " splashing": 4680,
  " split": 3731,
  " spo": 2033,
  " spoil": 4449,
  " spoiled": 2803,
  " spoiling": 8564,
  " spoke": 4201,
  " spong": 6381,
  " sponge": 6434,
  " spooky": 9202,
  " spoon": 1999,
  " spoonful": 7579,
  " spoons": 5264,
  " sport": 4747,
  " sports": 7537,
  " spot": 1573,
  " spots": 4837,
  " spotted": 3140,
  " spr": 1749,
  " sprang": 7590,
  " spray": 2363,
  " sprayed": 4669,
  " spraying": 5884,
  " sprays": 8222,
  " spread": 2715,
  " spreading": 6898,
  " spring": 3054,
  " springing": 8239,
  " sprink": 5080,
  " sprinkle": 9306,
  " sprinkled": 7416,
  " sprinkles": 5659,
  " sprout": 8410,
  " spun": 3433,
  " spy": 8040,
  " squ": 989,
  " square": 2846,
  " squares": 6488,
  " squash": 3196,
  " squashes": 9868,
  " squaw": 8031,
  " sque": 2654,
  " squeak": 7271,
  " squeaked": 7912,
  " squeaky": 8951,
  " squeal": 6587,
  " squealed": 6932,
  " squee": 3007,
  " squeeze": 4315,
  " squeezed": 4779,
  " squeezes": 8919,
  " squeezing": 7367,
  " squinted": 9261,
  " squir": 8276,
  " squirrel": 1108,
  " squirrels": 4234,
  " squirted": 9888,
  " squish": 6998,
  " squished": 8637,
  " squishy": 7395,
  " st": 345,
  " stable": 4399,
  " stack": 3769,
  " stacked": 7693,
  " stacking": 9728,
  " stacks": 9326,
  " stadium": 4475,
  " staff": 3904,
  " stage": 3000,
  " stain": 6727,
  " stains": 9530,
  " stair": 4867,
  " stairs": 3859,
  " stall": 8458,
  " stamp": 3069,
  " stamped": 8160,
  " stamps": 5453,
  " stand": 1890,
  " standing": 3125,
  " stands": 7207,
  " star": 515,
  " stare": 5911,
  " stared": 4114,
  " starfish": 6384,
  " staring": 6135,
  " stars": 2171,
  " start": 1915,
  " started": 557,
  " starting": 4734,
  " startled": 6528,
  " starts": 4380,
  " stat": 3005,
  " station": 3688,
  " statue": 3103,
  " statues": 8163,
  " stay": 973,
  " stayed": 1536,
  " staying": 5849,
  " stays": 6403,
  " ste": 1440,
  " steady": 6409,
  " steak": 3623,
  " steal": 3147,
  " stealing": 5513,
  " steam": 4505,
  " steel": 4754,
  " steep": 5928,
  " steer": 6899,
  " steering": 8624,
  " stem": 6520,
  " step": 2292,
  " stepped": 2266,
  " stepping": 8106,
  " steps": 3900,
  " stern": 6270,
  " sternly": 7879,
  " steth": 8004,
  " stethoscope": 8067,
  " stew": 9342,
  " stick": 990,
  " sticker": 4573,
  " stickers": 4224,
  " sticking": 6120,
  " sticks": 2286,
  " sticky": 4692,
  " still": 935,
  " sting": 5897,
  " stings": 9633,
  " stir": 2683,
  " stirred": 4245,
  " stirring": 5509,
  " stirs": 9460,
  " stitch": 5266,
  " stitches": 7507,
  " sto": 975,
  " stole": 6176,
  " stolen": 6895,
  " stom": 4369,
  " stomach": 4859,
  " stomachs": 9752,
  " stomp": 7893,
  " stomped": 6761,
  " stone": 1888,
  " stones": 3059,
  " stood": 2459,
  " stool": 6873,
  " stop": 1274,
  " stopped": 1031,
  " stopping": 7153,
  " stops": 4162,
  " stor": 851,
  " store": 1114,
  " stored": 7650,
  " storekeeper": 7057,
  " stores": 8793,
  " stories": 2097,
  " storm": 2082,
  " storms": 8658,
  " story": 1011,
  " stove": 3049,
  " str": 774,
  " stra": 2528,
  " straight": 5253,
  " strang": 5463,
  " strange": 1848,
  " stranger": 3653,
  " strangers": 5495,
  " straw": 2831,
  " strawberries": 4808,
  " strawberry": 3724,
  " stre": 1863,
  " stream": 3405,
  " streamers": 8601,
  " street": 2001,
  " streets": 7121,
  " streng": 4753,
  " strength": 4761,
  " stret": 2484,
  " stretch": 3292,
  " stretched": 4149,
  " stretches": 8436,
  " stretching": 6050,
  " stretchy": 9658,
  " stri": 2985,
  " strike": 4935,
  " striking": 9190,
  " string": 2164,
  " strings": 5722,
  " strip": 4568,
  " stripes": 5900,
  " strips": 8322,
  " stro": 5409,
  " stroke": 7475,
  " stroked": 6978,
  " strokes": 9850,
  " stroll": 8180,
  " strong": 972,
  " stronger": 3415,
  " strongest": 7132,
  " struck": 5767,
  " structure": 4448,
  " structures": 9104,
  " strugg": 3868,
  " struggle": 5049,
  " struggled": 5831,
  " struggling": 5925,
  " strum": 8826,
  " stu": 1647,
  " stubb": 2788,
  " stubborn": 2798,
  " stuck": 1442,
  " stud": 4757,
  " student": 8028,
  " students": 6990,
  " studied": 5494,
  " study": 3085,
  " studying": 5644,
  " stuff": 2968,
  " stuffed": 5294,
  " stuffing": 8465,
  " stumble": 6375,
  " stumbled": 4035,
  " stun": 9793,
  " stung": 6613,
  " stupid": 3040,
  " sty": 4898,
  " style": 5112,
  " styles": 8847,
  " su": 1826,
  " sub": 4086,
  " subway": 4195,
  " suc": 2098,
  " succeed": 3759,
  " succeeded": 5487,
  " success": 2558,
  " successful": 3076,
  " successfully": 9715,
  " such": 2411,
  " suck": 9279,
  " sudden": 4574,
  " suddenly": 2245,
  " suff": 4372,
  " suffer": 4632,
  " suffered": 7182,
  " suffering": 6785,
  " sug": 2161,
  " sugar": 2657,
  " suggest": 3768,
  " suggested": 4434,
  " suggestion": 8227,
  " suit": 3023,
  " suitcase": 6891,
  " suits": 7415,
  " summer": 4405,
  " sun": 644,
  " sunf": 2873,
  " sunflower": 3026,
  " sunflowers": 6694,
  " sung": 3765,
  " sunglasses": 3814,
  " sunlight": 5947,
  " sunny": 1169,
  " sunrise": 4627,
  " suns": 9096,
  " sunscreen": 8681,
  " sunset": 4432,
  " sunshine": 2965,
  " super": 4203,
  " superhero": 4590,
  " superheroes": 6459,
  " supp": 2374,
  " supplied": 8223,
  " supplies": 6386,
  " supply": 4555,
  " support": 3742,
  " supported": 7179,
  " supporting": 8570,
  " supposed": 5466,
  " sur": 2478,
  " sure": 1496,
  " surely": 9784,
  " surf": 3601,
  " surface": 6476,
  " surfboard": 7344,
  " surfed": 9165,
  " surfing": 7495,
  " surpr": 756,
  " surprise": 1277,
  " surprised": 904,
  " surprises": 4466,
  " surprising": 7169,
  " surrender": 4524,
  " surrendered": 8571,
  " surround": 5378,
  " surrounded": 5882,
  " surroundings": 7519,
  " surv": 8873,
  " survive": 9639,
  " sus": 9758,
  " sw": 646,
  " swall": 7357,
  " swallow": 8403,
  " swallowed": 7360,
  " swam": 1515,
  " swamp": 4237,
  " swan": 2882,
  " swans": 6772,
  " swap": 7997,
  " swapped": 9404,
  " sway": 6940,
  " swayed": 9634,
  " swaying": 9301,
  " swe": 1204,
  " sweat": 6309,
  " sweater": 3654,
  " sweaters": 7967,
  " sweaty": 7868,
  " sweep": 7587,
  " sweet": 1300,
  " sweeter": 9913,
  " sweetest": 7568,
  " sweetheart": 4799,
  " sweetie": 4277,
  " sweeties": 5836,
  " sweetly": 9908,
  " sweets": 6778,
  " swept": 6807,
  " swim": 1377,
  " swimmer": 7737,
  " swimming": 2530,
  " swims": 5720,
  " swimsuit": 7094,
  " swimsuits": 9210,
  " swing": 1354,
  " swinging": 4230,
  " swings": 1940,
  " swir": 7115,
  " swirl": 9542,
  " swirls": 9613,
  " switch": 3813,
  " switched": 7901,
  " swo": 8055,
  " swollen": 8058,
  " swoop": 6191,
  " swooped": 6420,
  " sword": 2770,
  " swords": 6697,
  " swung": 4353,
  " sy": 7932,
  " sym": 4155,
  " symbol": 4187,
  " symbols": 7286,
  " syrup": 8843,
  " t": 257,
  " table": 1282,
  " tables": 6406,
  " tablet": 9316,
  " tag": 3322,
  " tail": 1299,
  " tails": 5988,
  " take": 763,
  " taken": 3128,
  " takes": 2270,
  " taking": 2155,
  " tal": 871,
  " tale": 9753,
  " talent": 6031,
  " talented": 7246,
  " talents": 7875,
  " talk": 1176,
  " talked": 1663,
  " talking": 1864,
  " talks": 6876,
  " tall": 1233,
  " taller": 4130,
  " tallest": 5781,
  " tangled": 6529,
  " tank": 3144,
  " tant": 9859,
  " tantrum": 9931,
  " tap": 3418,
  " tape": 2640,
  " taped": 7983,
  " tapped": 6812,
  " tapping": 8701,
  " taps": 9869,
  " tar": 7979,
  " target": 8093,
  " task": 3906,
  " tasks": 6223,
  " tast": 1315,
  " taste": 2224,
  " tasted": 2667,
  " tastes": 5657,
  " tasting": 7711,
  " tasty": 1931,
  " taught": 2797,
  " tax": 3200,
  " taxi": 3229,
  " te": 815,
  " tea": 2294,
  " teac": 1961,
  " teach": 1951,
  " teacher": 2017,
  " teachers": 8109,
  " teaches": 6011,
  " teaching": 4985,
  " team": 2747,
  " teams": 7522,
  " teamwork": 6364,
  " teapot": 9046,
  " tear": 3896,
  " tearing": 7837,
  " tears": 3260,
  " tease": 4262,
  " teased": 5995,
  " teasing": 5400,
  " teaspoon": 4299,
  " teddy": 1902,
  " teeth": 2517,
  " tele": 2701,
  " teleph": 3815,
  " telephone": 3837,
  " teles": 8801,
  " telescope": 8827,
  " television": 4159,
  " tell": 1256,
  " telling": 4067,
  " tells": 2849,
  " tem": 3542,
  " temp": 3657,
  " temper": 7515,
  " temperature": 7705,
  " temple": 3961,
  " tempt": 8224,
  " tempted": 9057,
  " tempting": 9879,
  " ten": 3942,
  " tent": 2662,
  " tents": 9651,
  " ter": 2789,
  " terri": 2812,
  " terrible": 2918,
  " terrified": 7662,
  " test": 2576,
  " tested": 7486,
  " testing": 7612,
  " tests": 8319,
  " text": 5534,
  " texture": 5542,
  " textures": 9317,
  " th": 312,
  " than": 780,
  " thank": 1444,
  " thanked": 932,
  " thankful": 2871,
  " thanking": 8585,
  " thanks": 4630,
  " that": 388,
  " the": 263,
  " theater": 4347,
  " their": 476,
  " theirs": 5500,
  " them": 498,
  " themselves": 3568,
  " then": 643,
  " there": 407,
  " thermometer": 4401,
  " these": 2636,
  " they": 363,
  " thick": 2741,
  " thicker": 8910,
  " thie": 8909,
  " thief": 3457,
  " thieves": 8935,
  " thin": 2229,
  " thing": 1245,
  " things": 634,
  " think": 1135,
  " thinking": 3963,
  " thinks": 1889,
  " third": 6117,
  " thirsty": 2980,
  " this": 738,
  " thorn": 6412,
  " thorns": 7431,
  " those": 3912,
  " though": 2357,
  " thought": 590,
  " thoughtful": 3145,
  " thoughts": 7509,
  " thr": 1155,
  " thread": 3365,
  " threads": 8702,
  " threat": 5567,
  " three": 1488,
  " threw": 1595,
  " thrill": 5677,
  " thrilled": 5854,
  " thro": 6388,
  " throat": 6445,
  " throne": 9889,
  " through": 1480,
  " throughout": 8081,
  " throw": 1788,
  " throwing": 4618,
  " thrown": 7004,
  " throws": 4731,
  " thu": 3534,
  " thud": 6810,
  " thumb": 4662,
  " thumbs": 8952,
  " thump": 8828,
  " thunder": 3770,
  " tick": 2669,
  " ticket": 3456,
  " tickets": 5714,
  " tickle": 5619,
  " tickled": 6545,
  " tickles": 8653,
  " tickling": 9829,
  " tid": 2389,
  " tide": 4793,
  " tidied": 8970,
  " tidy": 2432,
  " tidying": 9051,
  " tie": 2287,
  " tied": 3138,
  " ties": 6773,
  " tiger": 2929,
  " tigers": 7402,
  " tight": 1590,
  " tighter": 7423,
  " tightly": 4212,
  " til": 7456,
  " tilted": 7902,
  " tim": 5967,
  " time": 403,
  " timer": 6265,
  " times": 3027,
  " timid": 9461,
  " tin": 8710,
  " ting": 8652,
  " tiny": 1479,
  " tip": 4636,
  " tipped": 7258,
  " tips": 8750,
  " tipto": 6618,
  " tiptoed": 7100,
  " tire": 3305,
  " tired": 1142,
  " tires": 6728,
  " tiss": 7295,
  " tissue": 7424,
  " to": 266,
  " toast": 2943,
  " toaster": 6589,
  " today": 1717,
  " todd": 7465,
  " toddler": 7757,
  " toe": 4772,
  " toes": 5314,
  " together": 465,
  " toilet": 4144,
  " told": 748,
  " tom": 1894,
  " tomato": 2836,
  " tomatoes": 5139,
  " tomorrow": 2497,
  " tong": 5274,
  " tongue": 5395,
  " tongues": 9774,
  " tonight": 5424,
  " too": 429,
  " took": 617,
  " tool": 2570,
  " toolbox": 8210,
  " tools": 3943,
  " tooth": 3318,
  " toothbrush": 8881,
  " top": 1293,
  " topp": 8926,
  " toppings": 9625,
  " tops": 8730,
  " tor": 8853,
  " tore": 5328,
  " torn": 3244,
  " tornado": 4051,
  " torto": 9646,
  " tortoise": 9666,
  " toss": 5912,
  " tossed": 7305,
  " tossing": 9960,
  " touc": 1970,
  " touch": 1343,
  " touched": 2009,
  " touches": 6958,
  " touching": 5590,
  " toug": 2820,
  " tough": 2853,
  " tour": 4828,
  " tours": 9996,
  " tow": 784,
  " toward": 7768,
  " towards": 2085,
  " towel": 2637,
  " towels": 6151,
  " tower": 1594,
  " towers": 4010,
  " town": 1015,
  " towns": 8551,
  " toy": 452,
  " toys": 622,
  " tr": 755,
  " tra": 999,
  " track": 3451,
  " tracks": 4774,
  " tractor": 6353,
  " trade": 4355,
  " traded": 6385,
  " trading": 8965,
  " traffic": 4936,
  " trail": 4118,
  " train": 1381,
  " trains": 4321,
  " tramp": 7013,
  " trampoline": 7055,
  " trans": 8815,
  " transform": 8984,
  " trap": 3422,
  " trapped": 5332,
  " traps": 8450,
  " trash": 3980,
  " trave": 5275,
  " travel": 3513,
  " traveled": 5870,
  " traveling": 8259,
  " travelled": 7699,
  " travelling": 8478,
  " travels": 8317,
  " tray": 3571,
  " tre": 469,
  " treasure": 1836,
  " treasures": 5174,
  " treat": 1492,
  " treated": 7922,
  " treats": 2122,
  " tree": 505,
  " treehouse": 7262,
  " trees": 1286,
  " tremb": 5134,
  " tremble": 4921,
  " trembled": 7154,
  " trembling": 5549,
  " tri": 1185,
  " triang": 3133,
  " triangle": 3331,
  " triangles": 6752,
  " trick": 2994,
  " tricked": 5731,
  " tricks": 3225,
  " tricky": 6715,
  " tricycle": 8305,
  " tried": 662,
  " tries": 2587,
  " trigger": 8562,
  " trip": 2133,
  " tripped": 3749,
  " trips": 5625,
  " troll": 9581,
  " troph": 3801,
  " trophy": 3848,
  " trot": 8146,
  " trotted": 8755,
  " trou": 1934,
  " trouble": 2417,
  " troubled": 3222,
  " troubles": 8506,
  " truck": 1043,
  " trucks": 3680,
  " true": 2534,
  " truly": 6369,
  " trumpet": 3313,
  " trunk": 3425,
  " trust": 2562,
  " trusted": 4711,
  " trusting": 8070,
  " trusts": 9052,
  " truth": 3551,
  " try": 822,
  " trying": 1449,
  " tub": 4117,
  " tube": 3432,
  " tubes": 7578,
  " tuck": 7890,
  " tucked": 5527,
  " tug": 4901,
  " tugged": 5790,
  " tugging": 9467,
  " tumbled": 8488,
  " tummies": 7292,
  " tummy": 3684,
  " tuna": 4188,
  " tune": 6301,
  " tunes": 9580,
  " tunnel": 3188,
  " tunnels": 6824,
  " turkey": 3414,
  " turn": 893,
  " turned": 1313,
  " turning": 5545,
  " turns": 1577,
  " turt": 2088,
  " turtle": 2119,
  " turtles": 7208,
  " tutor": 4285,
  " tw": 838,
  " tweet": 7287,
  " twel": 9692,
  " twelve": 9720,
  " twenty": 8274,
  " twice": 6938,
  " twig": 3248,
  " twigs": 5498,
  " twin": 5606,
  " twink": 5394,
  " twinkle": 6917,
  " twinkled": 7783,
  " twinkling": 6813,
  " twins": 1976,
  " twir": 4371,
  " twirl": 6515,
  " twirled": 5223,
  " twirling": 6688,
  " twist": 2799,
  " twisted": 4870,
  " twisting": 6979,
  " twists": 8241,
  " twisty": 5010,
  " two": 1073,
  " ty": 6918,
  " tying": 7214,
  " type": 8514,
  " types": 8860,
  " u": 325,
  " ugly": 2084,
  " umbre": 3011,
  " umbrella": 3111,
  " umbrellas": 8159,
  " un": 714,
  " unable": 8412,
  " uncle": 3558,
  " uncomfortable": 3236,
  " und": 7712,
  " under": 787,
  " underground": 5042,
  " underneath": 6468,
  " underst": 1462,
  " understand": 1655,
  " understanding": 5326,
  " understands": 7580,
  " understood": 2786,
  " underwater": 9836,
  " undone": 9952,
  " unexpected": 922,
  " unf": 6421,
  " unfair": 8876,
  " unfamiliar": 9386,
  " unfortunately": 8638,
  " unh": 4654,
  " unhappy": 4698,
  " unicorn": 6147,
  " uniform": 4354,
  " uniforms": 8132,
  " unique": 2821,
  " unite": 4458,
  " united": 6062,
  " univer": 3477,
  " universe": 4688,
  " university": 4768,
  " unknown": 2884,
  " unl": 2907,
  " unless": 9373,
  " unlo": 9137,
  " unlock": 3633,
  " unlocked": 5255,
  " unlocking": 9593,
  " unp": 6538,
  " unpack": 4191,
  " unpacked": 6732,
  " unpacking": 8052,
  " uns": 6825,
  " unsure": 7259,
  " unt": 974,
  " untangle": 9474,
  " untie": 6477,
  " untied": 6984,
  " until": 985,
  " unus": 2825,
  " unusual": 2832,
  " unw": 7323,
  " unwra": 7809,
  " unwrapped": 9178,
  " unz": 9198,
  " up": 369,
  " upon": 446,
  " upset": 2086,
  " upside": 8354,
  " upstairs": 4776,
  " ur": 4001,
  " urge": 5029,
  " urged": 5299,
  " us": 830,
  " use": 1101,
  " used": 1144,
  " useful": 2828,
  " uses": 6125,
  " using": 3164,
  " usual": 6425,
  " usually": 6426,
  " v": 687,
  " vac": 4740,
  " vacation": 4806,
  " val": 2265,
  " valley": 4531,
  " valu": 3996,
  " valuable": 4137,
  " value": 2935,
  " valued": 6397,
  " van": 2430,
  " vanilla": 7209,
  " vanish": 5169,
  " vanished": 5058,
  " vase": 2694,
  " ve": 1641,
  " vegetable": 2729,
  " vegetables": 3058,
  " vegg": 8848,
  " veggies": 9053,
  " vehic": 3931,
  " vehicle": 4229,
  " vehicles": 7069,
  " veil": 3792,
  " vel": 5182,
  " velvet": 5186,
  " vend": 3911,
  " vendor": 3957,
  " vent": 6330,
  " ventured": 6642,
  " very": 385,
  " vest": 3716,
  " vests": 8877,
  " vet": 5624,
  " veterinarian": 4478,
  " vi": 3369,
  " vibr": 8886,
  " vibrant": 9667,
  " vict": 5308,
  " victory": 5387,
  " vide": 3447,
  " video": 3798,
  " videos": 6206,
  " view": 3897,
  " vill": 1925,
  " villag": 5962,
  " village": 1989,
  " villagers": 6048,
  " vine": 3454,
  " vinegar": 9659,
  " vines": 6672,
  " violin": 3509,
  " vis": 1649,
  " visit": 1706,
  " visited": 5263,
  " visiting": 6122,
  " visitor": 9191,
  " visitors": 8466,
  " visits": 8627,
  " vo": 1203,
  " voice": 1287,
  " voices": 5380,
  " volcano": 3448,
  " vowed": 6542,
  " vroom": 4854,
  " w": 262,
  " wa": 272,
  " wadd": 7569,
  " waddled": 8102,
  " waded": 9932,
  " waff": 3182,
  " waffle": 3832,
  " waffles": 5343,
  " wag": 1439,
  " wagged": 1812,
  " wagging": 5142,
  " wagon": 2824,
  " wags": 4944,
  " waist": 5298,
  " wait": 1157,
  " waited": 1545,
  " waiter": 6846,
  " waiting": 2463,
  " waits": 5546,
  " wake": 2805,
  " wakes": 6999,
  " waking": 7370,
  " wal": 597,
  " walk": 964,
  " walked": 797,
  " walking": 1288,
  " walks": 3281,
  " wall": 1402,
  " wallet": 3604,
  " walls": 3576,
  " wand": 2555,
  " wander": 3238,
  " wandered": 5146,
  " wandering": 6611,
  " want": 371,
  " wanted": 414,
  " wanting": 5736,
  " wants": 1651,
  " war": 2016,
  " ward": 3989,
  " wardrobe": 3997,
  " warm": 1052,
  " warmed": 9588,
  " warmer": 7098,
  " warmly": 8537,
  " warmth": 5434,
  " warn": 4790,
  " warned": 4403,
  " warning": 5070,
  " warnings": 6491,
  " warri": 7999,
  " warrior": 8625,
  " was": 283,
  " wash": 2300,
  " washed": 2859,
  " washes": 8470,
  " washing": 5055,
  " wasn": 2246,
  " waste": 4341,
  " wasted": 6157,
  " wasting": 7852,
  " wat": 820,
  " watch": 1066,
  " watched": 1259,
  " watches": 5420,
  " watching": 2345,
  " water": 697,
  " watered": 5162,
  " waterfall": 7952,
  " watering": 7255,
  " watermel": 8936,
  " watermelon": 9029,
  " waters": 9219,
  " wave": 2228,
  " waved": 1533,
  " waves": 2845,
  " waving": 4851,
  " way": 929,
  " ways": 3510,
  " we": 365,
  " weak": 2433,
  " weaker": 9355,
  " wealth": 8507,
  " wealthy": 2905,
  " weap": 4528,
  " weapon": 4672,
  " weapons": 8379,
  " wear": 1639,
  " wearing": 2563,
  " wears": 6511,
  " weather": 4342,
  " web": 5161,
  " webs": 9116,
  " wedding": 5974,
  " weeds": 8191,
  " week": 3443,
  " weekend": 7510,
  " weeks": 6052,
  " weep": 3892,
  " weeping": 5284,
  " weigh": 4222,
  " weighed": 5711,
  " weighing": 8707,
  " weighs": 8446,
  " weight": 4958,
  " weird": 2627,
  " welc": 1734,
  " welcome": 1825,
  " welcomed": 5261,
  " welcoming": 8501,
  " well": 1688,
  " went": 434,
  " wept": 7220,
  " were": 411,
  " weren": 6177,
  " west": 5346,
  " wet": 1347,
  " wh": 435,
  " whale": 2638,
  " whales": 8517,
  " what": 586,
  " whatever": 5916,
  " whe": 1824,
  " wheat": 3426,
  " wheel": 2157,
  " wheels": 3517,
  " when": 639,
  " whenever": 3717,
  " where": 1085,
  " wherever": 6055,
  " which": 2778,
  " while": 1014,
  " whimp": 8147,
  " whimpered": 9251,
  " whine": 9413,
  " whined": 8832,
  " whines": 9825,
  " whip": 3975,
  " whisp": 2704,
  " whisper": 5019,
  " whispered": 3355,
  " whispering": 8437,
  " whispers": 7095,
  " whist": 1917,
  " whistle": 2194,
  " whistled": 4916,
  " whistles": 8041,
  " whistling": 5401,
  " white": 1611,
  " who": 668,
  " whoever": 8441,
  " whole": 2366,
  " whoosh": 9356,
  " whose": 6186,
  " why": 1483,
  " wid": 6008,
  " wide": 2200,
  " widened": 7241,
  " wider": 7962,
  " wife": 3856,
  " wig": 9320,
  " wigg": 4446,
  " wiggle": 5488,
  " wiggled": 5994,
  " wiggling": 9619,
  " wiggly": 7613,
  " wild": 2146,
  " wildflowers": 9327,
  " will": 626,
  " willing": 7219,
  " win": 1461,
  " wind": 869,
  " winding": 9037,
  " window": 1427,
  " windows": 4435,
  " windowsill": 9003,
  " winds": 9759,
  " windy": 6462,
  " wine": 4439,
  " wing": 2471,
  " wings": 1875,
  " wink": 5635,
  " winked": 6430,
  " winner": 5276,
  " winners": 8374,
  " winning": 5002,
  " wins": 6119,
  " winter": 4334,
  " wip": 2506,
  " wipe": 4306,
  " wiped": 3612,
  " wipes": 6563,
  " wiping": 6900,
  " wire": 3287,
  " wires": 6101,
  " wis": 2712,
  " wisdom": 4942,
  " wise": 1494,
  " wisely": 7505,
  " wiser": 8475,
  " wish": 1736,
  " wished": 1436,
  " wishes": 3747,
  " wishing": 6641,
  " witch": 2894,
  " with": 330,
  " within": 7827,
  " without": 1796,
  " wiz": 5580,
  " wizard": 5623,
  " wo": 1036,
  " wob": 5120,
  " wobble": 7350,
  " wobbled": 6368,
  " wobbly": 7159,
  " woke": 1963,
  " woken": 9693,
  " wolf": 2358,
  " wolves": 8947,
  " woman": 2523,
  " won": 1593,
  " wonder": 1395,
  " wondered": 2392,
  " wonderful": 2042,
  " wondering": 6049,
  " wonders": 5734,
  " wood": 1318,
  " woodcut": 8954,
  " woodcutter": 9041,
  " wooden": 5641,
  " woods": 1495,
  " woof": 5792,
  " wool": 3883,
  " wor": 579,
  " word": 1548,
  " words": 1790,
  " wore": 1939,
  " work": 1149,
  " worked": 1224,
  " worker": 5739,
  " workers": 6268,
  " working": 2407,
  " works": 5471,
  " world": 1576,
  " worm": 2252,
  " worms": 5026,
  " worn": 7644,
  " worried": 1704,
  " worries": 6822,
  " worry": 1284,
  " worrying": 7686,
  " worse": 5179,
  " worst": 9069,
  " worth": 5097,
  " would": 538,
  " wouldn": 2716,
  " wound": 6123,
  " wounds": 7793,
  " wow": 6741,
  " wr": 1150,
  " wra": 2048,
  " wrap": 2738,
  " wrapped": 3246,
  " wrapping": 7010,
  " wraps": 6738,
  " wre": 4668,
  " wreck": 4716,
  " wrench": 9354,
  " wrigg": 8186,
  " wriggled": 9531,
  " wrink": 7591,
  " wrinkled": 8575,
  " wrist": 6103,
  " writ": 5614,
  " write": 2247,
  " writer": 9426,
  " writes": 5819,
  " writing": 4872,
  " written": 6595,
  " wrong": 1613,
  " wrote": 2841,
  " x": 4674,
  " y": 333,
  " yach": 3518,
  " yacht": 3543,
  " yard": 1255,
  " yarn": 2782,
  " yaw": 3464,
  " yawn": 4814,
  " yawned": 4756,
  " yawning": 8362,
  " year": 1579,
  " years": 1900,
  " yell": 1134,
  " yelled": 2668,
  " yelling": 5748,
  " yellow": 1338,
  " yells": 6550,
  " yelp": 7107,
  " yelped": 7933,
  " yes": 1779,
  " yesterday": 5866,
  " yet": 3720,
  " yield": 4515,
  " yielded": 7459,
  " yog": 2453,
  " yoga": 3777,
  " yogurt": 3336,
  " you": 350,
  " youn": 8664,
  " young": 2117,
  " younger": 6497,
  " youngest": 8668,
  " your": 635,
  " yours": 2919,
  " yourself": 2953,
  " yourselves": 6454,
  " youth": 5719,
  " yucky": 4922,
  " yum": 7282,
  " yumm": 7916,
  " yummiest": 8400,
  " yummy": 1047,
  " z": 1194,
  " zebra": 3637,
  " zebras": 7058,
  " zero": 5292,
  " zigzag": 4993,
  " zigzags": 8937,
  " zip": 2946,
  " zipp": 3818,
  " zipped": 5211,
  " zipper": 4151,
  " zipping": 7321,
  " zips": 9105,
  " zoo": 2324,
  " zookeeper": 5895,
  " zookeepers": 9860,
  " zoom": 2128,
  " zoomed": 4425,
  " zooming": 5746,
  " zooms": 7943,
  " –": 5086,
  " —": 8320,
  " ‘": 7062,
  " “": 1209,
  " �": 4615,
  "!": 33,
  "!\"": 420,
  "!\",": 5505,
  "!\".": 4384,
  "!'": 5520,
  "!'.": 9841,
  "!’": 9794,
  "!”": 1839,
  "!”.": 7331,
  "\"": 34,
  "\",": 5462,
  "\".": 1610,
  "#": 35,
  "$": 36,
  "%": 37,
  "&": 38,
  "'": 39,
  "',": 8380,
  "'.": 5673,
  "'.\"": 7776,
  "'d": 3976,
  "'ll": 1973,
  "'m": 931,
  "'re": 1497,
  "'s": 391,
  "'t": 500,
  "'ve": 5336,
  "(": 40,
  ")": 41,
  "*": 42,
  "+": 43,
  ",": 44,
  ",\"": 647,
  ",'": 8489,
  ",”": 3819,
  "-": 45,
  "--": 7639,
  ".": 46,
  ".\"": 402,
  ".'": 5745,
  ".'\"": 8189,
  "..": 4788,
  "...": 6311,
  "...\"": 6481,
  ".”": 1837,
  "/": 47,
  "0": 48,
  "1": 49,
  "2": 50,
  "3": 51,
  "4": 52,
  "5": 53,
  "6": 54,
  "7": 55,
  "8": 56,
  "9": 57,
  ":": 58,
  ";": 59,
  "<": 60,
  "<|": 375,
  "<|endoftext|>": 256,
  "=": 61,
  ">": 62,
  "?": 63,
  "?!\"": 7625,
  "?\"": 484,
  "?\",": 6620,
  "?\".": 3760,
  "?'": 6811,
  "?”": 2299,
  "?”.": 9148,
  "@": 64,
  "A": 65,
  "Ab": 6730,
  "Abby": 8669,
  "Abigail": 7963,
  "Abracadabra": 9601,
  "Achoo": 6063,
  "Adam": 8015,
  "After": 1281,
  "Afterwards": 7620,
  "Ah": 5858,
  "Ahh": 9880,
  "Ahoy": 8723,
  "Al": 3990,
  "Alex": 6704,
  "Alice": 4783,
  "All": 4717,
  "Alright": 7555,
  "Always": 7128,
  "Am": 7584,
  "Amy": 1764,
  "An": 6350,
  "And": 2472,
  "Andy": 5512,
  "Ann": 4750,
  "Anna": 1345,
  "Anne": 8764,
  "Annie": 6536,
  "Any": 9015,
  "Are": 3050,
  "Arrr": 8234,
  "As": 927,
  "At": 1226,
  "Aunt": 7973,
  "Ava": 9457,
  "B": 66,
  "Baa": 8791,
  "Baby": 7296,
  "Back": 7841,
  "Bad": 6260,
  "Ball": 8340,
  "Bang": 7476,
  "Be": 2173,
  "Bear": 7174,
  "Because": 5101,
  "Bee": 7687,
  "Beep": 6731,
  "Before": 4865,
  "Behind": 7869,
  "Being": 9449,
  "Bella": 5122,
  "Ben": 1139,
  "Benny": 6197,
  "Bessie": 7482,
  "Beth": 8581,
  "Betty": 7376,
  "Big": 6784,
  "Bill": 7187,
  "Billy": 3689,
  "Binky": 7728,
  "Bird": 5537,
  "Birdy": 7807,
  "Bl": 5209,
  "Bless": 9398,
  "Blue": 5446,
  "Bluey": 9020,
  "Bo": 8620,
  "Bob": 1603,
  "Bobby": 5438,
  "Bobo": 3401,
  "Boo": 5583,
  "Both": 8364,
  "Bounce": 9030,
  "Bow": 7774,
  "Boys": 7487,
  "Br": 8325,
  "Brrr": 8451,
  "Bu": 5586,
  "Bubbles": 9296,
  "Buddy": 4730,
  "Bug": 9086,
  "Bunny": 6227,
  "But": 781,
  "Buzz": 6574,
  "Buzzy": 7813,
  "By": 7750,
  "Bye": 3875,
  "C": 67,
  "Can": 1037,
  "Car": 7436,
  "Carl": 7858,
  "Cat": 5651,
  "Catch": 9818,
  "Ch": 4467,
  "Charlie": 6606,
  "Che": 9468,
  "Chicky": 9870,
  "Chirpy": 6280,
  "Chloe": 8332,
  "Choo": 8368,
  "Cindy": 8794,
  "Cl": 5715,
  "Claire": 8675,
  "Clara": 7275,
  "Climb": 9173,
  "Close": 9549,
  "Co": 7266,
  "Coco": 8230,
  "Come": 2364,
  "Cra": 9414,
  "Curious": 9973,
  "D": 68,
  "Dad": 2756,
  "Daddy": 4811,
  "Daisy": 4345,
  "Dan": 7016,
  "Danger": 8711,
  "Danny": 6500,
  "Dave": 6221,
  "David": 7684,
  "Days": 6466,
  "Deal": 9192,
  "Dear": 7508,
  "Did": 4459,
  "Dino": 9602,
  "Do": 1623,
  "Doctor": 9626,
  "Does": 8256,
  "Dog": 6439,
  "Doggy": 6219,
  "Dolly": 7318,
  "Don": 1250,
  "Dr": 8199,
  "Ducky": 5853,
  "During": 5934,
  "E": 69,
  "Each": 9203,
  "Eat": 9199,
  "Ella": 5596,
  "Ellie": 7278,
  "Elly": 8342,
  "Em": 4060,
  "Emily": 5695,
  "Emma": 4735,
  "Even": 7651,
  "Eventually": 5636,
  "Every": 2931,
  "Everyone": 5015,
  "Everything": 9966,
  "Ew": 6521,
  "Eww": 9716,
  "Ex": 5950,
  "Excited": 9516,
  "Excuse": 6600,
  "F": 70,
  "Fifi": 9133,
  "Fin": 1802,
  "Finally": 2056,
  "Find": 8343,
  "Fine": 6362,
  "Finn": 8123,
  "Finny": 8538,
  "Fire": 8985,
  "First": 5826,
  "Fish": 9640,
  "Fl": 8005,
  "Fluffy": 4018,
  "Fly": 9485,
  "Fo": 6209,
  "Follow": 6716,
  "For": 6805,
  "Found": 9810,
  "Fr": 6073,
  "Frank": 7358,
  "Fred": 4912,
  "Freddy": 7511,
  "Freeze": 9031,
  "Friends": 8737,
  "Frog": 8976,
  "From": 1672,
  "G": 71,
  "George": 6274,
  "Get": 7454,
  "Gigi": 8257,
  "Gina": 8837,
  "Give": 3661,
  "Go": 3511,
  "Good": 2019,
  "Goodbye": 5323,
  "Goodnight": 7844,
  "Got": 8816,
  "Gr": 8787,
  "Gra": 3667,
  "Grace": 6539,
  "Grandma": 4609,
  "Grandpa": 6128,
  "Great": 6358,
  "Grow": 8659,
  "Guess": 7540,
  "H": 72,
  "Ha": 5455,
  "Hannah": 8065,
  "Happy": 5544,
  "Harry": 6792,
  "Have": 5787,
  "He": 1033,
  "Hello": 1190,
  "Help": 2649,
  "Henry": 6371,
  "Her": 1586,
  "Here": 2903,
  "Hey": 2179,
  "Hi": 1103,
  "His": 1681,
  "Hmm": 8344,
  "Hold": 6483,
  "Honey": 8555,
  "Hop": 8453,
  "Hope": 9635,
  "Hoppy": 8168,
  "How": 3060,
  "However": 6686,
  "Hurry": 7706,
  "I": 73,
  "If": 3047,
  "Im": 9365,
  "In": 1471,
  "Inside": 3071,
  "Instead": 7814,
  "Is": 4119,
  "Isn": 9620,
  "It": 1023,
  "J": 74,
  "Jack": 1997,
  "Jacob": 8907,
  "Jake": 5678,
  "James": 6440,
  "Jamie": 8079,
  "Jan": 9842,
  "Jane": 3349,
  "Jazz": 7602,
  "Je": 8587,
  "Jeff": 9486,
  "Jen": 5441,
  "Jenny": 4908,
  "Jerry": 6708,
  "Jess": 8336,
  "Jessica": 9843,
  "Jessie": 8957,
  "Jill": 3909,
  "Jim": 3006,
  "Jimmy": 3869,
  "Jo": 1556,
  "Joe": 4082,
  "Joey": 6457,
  "John": 1715,
  "Johnny": 6047,
  "Jon": 8904,
  "Josh": 8376,
  "Joy": 8649,
  "Jul": 7351,
  "Julia": 9609,
  "Julie": 8565,
  "Jump": 7067,
  "Just": 1760,
  "K": 75,
  "Karen": 8899,
  "Kate": 7045,
  "Katie": 7520,
  "Kayla": 9585,
  "Keep": 7570,
  "Kids": 7794,
  "Kiki": 7645,
  "Kim": 7484,
  "Kitty": 2519,
  "L": 76,
  "Later": 2210,
  "Le": 4957,
  "Leave": 7654,
  "Lena": 8016,
  "Leo": 5416,
  "Let": 906,
  "Lia": 9193,
  "Like": 7374,
  "Lila": 2201,
  "Lilly": 6795,
  "Lily": 675,
  "Linda": 9772,
  "Lisa": 4710,
  "Listen": 6717,
  "Little": 4249,
  "Liz": 7977,
  "Lizzie": 9961,
  "Lizzy": 8767,
  "Lola": 6289,
  "Look": 1117,
  "Lou": 9743,
  "Luckily": 7011,
  "Lucky": 8197,
  "Lucy": 1592,
  "Luke": 9225,
  "Lulu": 7260,
  "Luna": 6075,
  "M": 77,
  "Mabel": 9487,
  "Mad": 8071,
  "Maddy": 9983,
  "Maggie": 6555,
  "Magic": 8047,
  "Make": 9555,
  "Mama": 3314,
  "Mandy": 5472,
  "Many": 9668,
  "Mar": 6150,
  "Maria": 7300,
  "Mark": 4763,
  "Mary": 4611,
  "Mat": 8068,
  "Matt": 9871,
  "Max": 1301,
  "May": 6884,
  "Maya": 9564,
  "Maybe": 1762,
  "Me": 2896,
  "Meanwhile": 8355,
  "Meow": 5358,
  "Mia": 1420,
  "Michael": 9627,
  "Mike": 6266,
  "Mikey": 9704,
  "Millie": 6977,
  "Milly": 7144,
  "Milo": 9254,
  "Mimi": 4970,
  "Mine": 7240,
  "Mira": 7845,
  "Miss": 6305,
  "Mittens": 9490,
  "Mmm": 5629,
  "Mo": 8889,
  "Molly": 3216,
  "Mom": 849,
  "Momma": 8724,
  "Mommy": 1885,
  "Momo": 5600,
  "Mon": 8676,
  "Moo": 7317,
  "Moral": 5282,
  "More": 9767,
  "Mother": 8890,
  "Mouse": 8326,
  "Mr": 4189,
  "Mrs": 6519,
  "Mum": 3051,
  "Mummy": 4170,
  "My": 2520,
  "N": 78,
  "Near": 8323,
  "Never": 8874,
  "Next": 4653,
  "Nice": 8124,
  "Nick": 9737,
  "Nina": 7180,
  "No": 945,
  "Not": 5103,
  "Nothing": 9065,
  "Now": 1035,
  "O": 79,
  "OK": 1996,
  "OO": 9357,
  "Of": 2177,
  "Oh": 1537,
  "Ok": 5281,
  "Okay": 1524,
  "Ol": 9744,
  "Olive": 8086,
  "Ollie": 5770,
  "On": 332,
  "Once": 437,
  "One": 390,
  "Only": 8495,
  "Ooh": 9781,
  "Oops": 6356,
  "Open": 7765,
  "Or": 5697,
  "Ouch": 4270,
  "Our": 6496,
  "Out": 7124,
  "Outside": 8572,
  "Ow": 4148,
  "Owl": 9087,
  "P": 80,
  "Pandy": 7870,
  "Papa": 8938,
  "Pat": 7068,
  "Paul": 6314,
  "Pe": 6562,
  "Penny": 7689,
  "People": 8758,
  "Pepper": 9293,
  "Pete": 6232,
  "Peter": 5543,
  "Pinky": 8878,
  "Pip": 8284,
  "Pipp": 6980,
  "Pippin": 7554,
  "Play": 7964,
  "Playing": 9543,
  "Please": 1944,
  "Polly": 6427,
  "Poppy": 6225,
  "Put": 7322,
  "Q": 81,
  "Qu": 4748,
  "Quack": 7197,
  "Quick": 7343,
  "R": 82,
  "Rabbit": 9117,
  "Rachel": 8467,
  "Rain": 9094,
  "Ralph": 9890,
  "Ray": 8643,
  "Re": 3879,
  "Ready": 4707,
  "Really": 5497,
  "Red": 8103,
  "Remember": 5783,
  "Remy": 5144,
  "Rex": 5975,
  "Ribbit": 7410,
  "Ring": 9586,
  "Ro": 5963,
  "Roar": 6526,
  "Rob": 6137,
  "Robbie": 8811,
  "Robby": 9450,
  "Rock": 8009,
  "Ros": 7994,
  "Rose": 6949,
  "Rosie": 8788,
  "Ru": 6808,
  "Ruby": 7340,
  "Run": 6294,
  "S": 83,
  "Sad": 7368,
  "Sadly": 8307,
  "Sally": 2501,
  "Sam": 1344,
  "Sammy": 5524,
  "Sandy": 6966,
  "Sara": 1384,
  "Sarah": 3548,
  "Sc": 9481,
  "See": 3881,
  "Sh": 4803,
  "Share": 9909,
  "Sharing": 9275,
  "She": 1383,
  "Shh": 6549,
  "Shoo": 9962,
  "Should": 8542,
  "Shrink": 8048,
  "Silly": 6152,
  "Since": 8407,
  "Sleep": 9872,
  "Slow": 8000,
  "Slowly": 9257,
  "Sm": 9550,
  "Sn": 6681,
  "Snap": 9873,
  "Snow": 7664,
  "Snowy": 8742,
  "So": 1392,
  "Some": 6400,
  "Someone": 8139,
  "Somet": 5709,
  "Something": 9819,
  "Sometimes": 5903,
  "Soon": 2344,
  "Sophia": 9891,
  "Sophie": 6591,
  "Sorry": 3091,
  "Sp": 5868,
  "Spe": 7777,
  "Speedy": 8215,
  "Spike": 7432,
  "Splash": 8694,
  "Spot": 1622,
  "Squ": 9360,
  "Sque": 8803,
  "Squeaky": 9974,
  "St": 2288,
  "Stay": 6189,
  "Steve": 8035,
  "Still": 9975,
  "Stop": 2603,
  "Su": 7362,
  "Suddenly": 1379,
  "Sue": 1342,
  "Sun": 8573,
  "Sunny": 6933,
  "Sure": 2151,
  "Surpr": 5181,
  "Surprise": 5268,
  "Susan": 9532,
  "Susie": 5840,
  "Suzie": 9662,
  "Suzy": 8602,
  "Sw": 9925,
  "Sweet": 9967,
  "T": 84,
  "Take": 7037,
  "Tara": 9594,
  "Ted": 8010,
  "Teddy": 6630,
  "Th": 658,
  "Thank": 848,
  "Thanks": 5908,
  "That": 1107,
  "The": 417,
  "Their": 3204,
  "Then": 1109,
  "There": 3097,
  "These": 5136,
  "They": 732,
  "This": 1539,
  "Thomas": 8080,
  "Those": 6482,
  "Three": 9892,
  "Tilly": 7958,
  "Tim": 656,
  "Time": 6262,
  "Timmy": 3193,
  "Tina": 6461,
  "Tiny": 6056,
  "To": 2275,
  "Toby": 6498,
  "Today": 5130,
  "Together": 2854,
  "Tom": 744,
  "Tommy": 2666,
  "Tony": 7769,
  "Too": 8029,
  "Toys": 9881,
  "Tr": 5803,
  "Tree": 8613,
  "True": 6507,
  "Trust": 8369,
  "Try": 7878,
  "Tuna": 9390,
  "Tw": 6801,
  "Tweet": 6698,
  "Two": 7751,
  "U": 85,
  "Uh": 6113,
  "Un": 5686,
  "Uncle": 7592,
  "Under": 7076,
  "Unfortunately": 6567,
  "Use": 9989,
  "V": 86,
  "Very": 7324,
  "Vroom": 7221,
  "W": 87,
  "Wait": 4099,
  "Wake": 7984,
  "Wally": 9565,
  "Want": 9415,
  "Watch": 6167,
  "We": 1154,
  "Welcome": 4933,
  "Well": 3764,
  "Wh": 762,
  "What": 1078,
  "Whee": 6906,
  "When": 1045,
  "Whenever": 8829,
  "Where": 2791,
  "Which": 7646,
  "While": 1737,
  "Whiskers": 5941,
  "Who": 2998,
  "Whose": 9482,
  "Why": 1316,
  "Wiggly": 9501,
  "Will": 4678,
  "With": 4998,
  "Woof": 5003,
  "Would": 5588,
  "Wow": 1243,
  "X": 88,
  "Y": 89,
  "Yay": 4594,
  "Yeah": 6486,
  "Yes": 745,
  "Yesterday": 9307,
  "You": 544,
  "Your": 4499,
  "Yuck": 4605,
  "Yum": 5229,
  "Yummy": 5913,
  "Z": 90,
  "Zara": 8066,
  "Zero": 9926,
  "Zigzag": 9745,
  "Zip": 7104,
  "Zoe": 9112,
  "Zoom": 6363,
  "Zoomy": 7472,
  "[": 91,
  "\\": 92,
  "]": 93,
  "^": 94,
  "_": 95,
  "`": 96,
  "a": 97,
  "aa": 6646,
  "ab": 630,
  "abbit": 1082,
  "abby": 7752,
  "abel": 6675,
  "abelle": 8063,
  "abies": 5538,
  "able": 842,
  "ably": 7485,
  "abra": 8822,
  "aby": 1390,
  "ac": 1208,
  "ace": 683,
  "aced": 2521,
  "ach": 600,
  "ache": 3486,
  "ached": 1353,
  "achel": 5608,
  "aches": 4105,
  "acing": 8830,
  "ack": 466,
  "acked": 4683,
  "acles": 9021,
  "acob": 6378,
  "acock": 8864,
  "act": 5684,
  "action": 8496,
  "acy": 8162,
  "ad": 373,
  "adabra": 8865,
  "ade": 574,
  "aded": 5362,
  "ades": 7108,
  "ading": 7488,
  "adium": 4473,
  "ado": 2573,
  "ados": 6631,
  "adow": 2090,
  "adually": 9525,
  "ady": 898,
  "ae": 7449,
  "ael": 7117,
  "af": 1412,
  "aff": 3264,
  "affe": 4206,
  "affes": 5808,
  "affle": 8959,
  "ag": 551,
  "age": 950,
  "aged": 3641,
  "ages": 3129,
  "aggie": 5240,
  "aghett": 3342,
  "aghetti": 3343,
  "agic": 6701,
  "agine": 9234,
  "agull": 6455,
  "ah": 5243,
  "ai": 9075,
  "aid": 4113,
  "aids": 9820,
  "ail": 930,
  "ailable": 4006,
  "ails": 8169,
  "ain": 495,
  "aint": 8075,
  "air": 1148,
  "airs": 2689,
  "airy": 6960,
  "ais": 6383,
  "aisies": 6742,
  "aisy": 1463,
  "ait": 3839,
  "ak": 890,
  "ake": 428,
  "aked": 4397,
  "aken": 3100,
  "aker": 5331,
  "akes": 5408,
  "aking": 997,
  "aky": 3745,
  "al": 426,
  "ala": 9458,
  "ale": 1780,
  "alend": 4156,
  "ales": 5665,
  "alf": 8650,
  "alk": 2878,
  "all": 359,
  "allen": 5597,
  "alley": 4516,
  "allow": 5814,
  "alloween": 8265,
  "ally": 689,
  "alm": 2120,
  "alous": 2771,
  "alph": 7306,
  "als": 2902,
  "alth": 8447,
  "althy": 1865,
  "am": 308,
  "ama": 1977,
  "amb": 6650,
  "amber": 4411,
  "amboo": 7683,
  "ame": 454,
  "amed": 2321,
  "ames": 1468,
  "amie": 5889,
  "amil": 9286,
  "amiliar": 9374,
  "amma": 8997,
  "ammy": 7000,
  "amond": 3234,
  "amp": 1605,
  "ampoo": 4085,
  "an": 302,
  "ana": 5966,
  "ance": 1646,
  "anced": 8977,
  "ancy": 7598,
  "and": 799,
  "anda": 4089,
  "andas": 7816,
  "andra": 9155,
  "andy": 1511,
  "ane": 979,
  "anes": 6546,
  "ang": 1657,
  "angaroo": 4041,
  "ange": 1147,
  "anged": 2865,
  "anger": 3445,
  "anges": 4923,
  "anging": 6592,
  "angle": 7142,
  "angled": 6306,
  "angu": 4362,
  "ani": 9654,
  "anie": 8060,
  "anish": 9252,
  "ank": 653,
  "anna": 5609,
  "annah": 6074,
  "anny": 5244,
  "ans": 7131,
  "ant": 715,
  "anta": 6248,
  "antastic": 8442,
  "anted": 5846,
  "antha": 7521,
  "antly": 5599,
  "anut": 2916,
  "anwhile": 7723,
  "any": 2699,
  "ap": 663,
  "apa": 4899,
  "ape": 1606,
  "aped": 5260,
  "aper": 1272,
  "apers": 4000,
  "app": 1884,
  "apped": 2901,
  "apping": 4689,
  "appy": 3231,
  "aps": 9990,
  "aptain": 8633,
  "ar": 288,
  "ara": 775,
  "arac": 7200,
  "araway": 6411,
  "ard": 477,
  "arden": 912,
  "ards": 1698,
  "are": 524,
  "ared": 558,
  "aren": 7005,
  "arent": 1619,
  "arge": 2427,
  "ari": 4575,
  "arian": 4083,
  "aring": 1317,
  "ark": 479,
  "arky": 6851,
  "arl": 2624,
  "arlie": 4713,
  "arlotte": 8280,
  "arm": 1924,
  "armer": 7099,
  "arn": 601,
  "arning": 9861,
  "aroo": 4040,
  "arp": 2080,
  "arrass": 2423,
  "arrow": 7497,
  "arry": 4193,
  "ars": 2322,
  "art": 1532,
  "arted": 9940,
  "arter": 6446,
  "arth": 5844,
  "artin": 9235,
  "artled": 8104,
  "ary": 1025,
  "as": 645,
  "ase": 801,
  "ased": 1847,
  "aser": 3214,
  "asers": 8687,
  "ash": 1456,
  "asha": 8401,
  "ashed": 6129,
  "ashes": 7418,
  "ashing": 7908,
  "asing": 3463,
  "asis": 4286,
  "ask": 1514,
  "asket": 1880,
  "asmine": 9469,
  "ason": 4617,
  "asp": 2730,
  "aspoon": 4276,
  "ass": 1882,
  "asses": 3378,
  "ast": 802,
  "aste": 9669,
  "aster": 6275,
  "astic": 4402,
  "asty": 7585,
  "asure": 1571,
  "asy": 9933,
  "at": 297,
  "atch": 3239,
  "ate": 841,
  "ated": 1757,
  "ately": 3991,
  "ater": 1367,
  "ates": 3010,
  "ath": 1192,
  "athan": 8530,
  "ather": 1419,
  "athy": 6269,
  "atie": 5552,
  "atient": 3504,
  "ating": 3639,
  "ation": 1560,
  "ations": 4437,
  "ative": 8770,
  "ato": 2045,
  "ator": 2125,
  "ats": 3512,
  "atter": 3255,
  "attered": 7903,
  "atty": 8327,
  "atur": 7314,
  "aturday": 8370,
  "ature": 3894,
  "aty": 7371,
  "au": 691,
  "aud": 4595,
  "aug": 1128,
  "aught": 1130,
  "aughter": 2485,
  "aughty": 1950,
  "aul": 4527,
  "aur": 2190,
  "aura": 6956,
  "aurant": 4217,
  "ause": 701,
  "aut": 976,
  "av": 1388,
  "ave": 608,
  "aved": 5666,
  "aven": 7480,
  "aver": 7937,
  "avi": 6355,
  "avid": 5517,
  "aving": 3844,
  "avy": 1477,
  "aw": 2543,
  "awn": 7378,
  "aws": 6104,
  "ax": 501,
  "ay": 280,
  "aybe": 1125,
  "aye": 9097,
  "ayla": 6250,
  "ays": 5820,
  "az": 1086,
  "aze": 3356,
  "azor": 4031,
  "azz": 3381,
  "b": 98,
  "bage": 7828,
  "ball": 1964,
  "band": 6854,
  "bang": 9941,
  "bank": 9396,
  "bb": 915,
  "bbed": 1378,
  "bbers": 7910,
  "bbie": 6533,
  "bbing": 5013,
  "bble": 8485,
  "bbled": 7469,
  "bbles": 4368,
  "bby": 2862,
  "be": 1009,
  "bed": 9746,
  "bee": 8640,
  "beep": 7690,
  "bell": 7859,
  "ber": 877,
  "berries": 3169,
  "berry": 2876,
  "bers": 5598,
  "bert": 9647,
  "bie": 6158,
  "bird": 7407,
  "bit": 1077,
  "bl": 6315,
  "ble": 1080,
  "bled": 2911,
  "bles": 4715,
  "bling": 9517,
  "blings": 6909,
  "bly": 6793,
  "bo": 1340,
  "board": 1901,
  "boards": 8708,
  "boat": 6887,
  "body": 4070,
  "bol": 4172,
  "boo": 5503,
  "bow": 1952,
  "box": 2298,
  "br": 2038,
  "broken": 8471,
  "brush": 6621,
  "bu": 8960,
  "bul": 3650,
  "bulance": 3665,
  "but": 6924,
  "by": 1053,
  "bye": 1359,
  "byes": 8375,
  "c": 99,
  "ca": 7672,
  "cake": 7886,
  "cakes": 6243,
  "case": 3833,
  "cast": 4648,
  "cat": 8967,
  "cc": 7959,
  "ccer": 5224,
  "ccol": 3371,
  "ccoli": 3374,
  "ce": 339,
  "cean": 3282,
  "ced": 2739,
  "ceed": 3723,
  "cept": 7623,
  "cer": 4685,
  "cery": 5007,
  "cess": 1629,
  "cessary": 9551,
  "ch": 399,
  "chair": 3614,
  "chan": 4596,
  "chanic": 4649,
  "ched": 823,
  "chen": 1174,
  "cher": 6743,
  "ches": 1909,
  "chie": 5254,
  "chief": 9806,
  "child": 7437,
  "ching": 9270,
  "cho": 7194,
  "choo": 5252,
  "chool": 1814,
  "chor": 3947,
  "cident": 3261,
  "cidents": 9211,
  "cie": 8473,
  "cient": 2794,
  "cil": 2881,
  "cing": 3917,
  "cious": 5729,
  "cited": 7312,
  "ck": 349,
  "cked": 1352,
  "cker": 9903,
  "cket": 1774,
  "cks": 1887,
  "cky": 6970,
  "cl": 6987,
  "cle": 1547,
  "cles": 3242,
  "co": 1269,
  "coa": 3327,
  "codile": 3174,
  "col": 2011,
  "colored": 9788,
  "com": 2904,
  "come": 4121,
  "comfortable": 3233,
  "con": 9898,
  "cond": 4652,
  "coon": 6487,
  "cope": 6953,
  "corn": 3022,
  "covered": 8330,
  "cream": 3186,
  "creams": 9076,
  "crow": 7593,
  "ct": 966,
  "ction": 5296,
  "ctions": 6844,
  "ctop": 3718,
  "ctopus": 3739,
  "ctor": 1612,
  "ctory": 3977,
  "ctric": 8934,
  "cu": 4166,
  "cus": 5388,
  "cuse": 6557,
  "cused": 7546,
  "cuss": 4526,
  "cut": 3279,
  "cy": 1680,
  "cycle": 3459,
  "cycles": 9361,
  "d": 100,
  "da": 7842,
  "dam": 6093,
  "day": 1123,
  "dd": 612,
  "dded": 1069,
  "ddie": 7483,
  "dding": 7700,
  "ddy": 5053,
  "de": 1565,
  "ded": 5514,
  "del": 4240,
  "den": 2225,
  "der": 1580,
  "des": 9789,
  "dest": 3635,
  "dge": 2382,
  "die": 6184,
  "dies": 6292,
  "dile": 3173,
  "ding": 5262,
  "dle": 2830,
  "do": 5189,
  "dog": 9795,
  "dom": 3553,
  "dy": 988,
  "e": 101,
  "ead": 1754,
  "eah": 6391,
  "eal": 6638,
  "ealing": 9862,
  "ear": 1110,
  "eared": 2076,
  "ears": 8114,
  "eat": 9302,
  "eath": 5353,
  "eb": 2047,
  "ebecca": 8497,
  "ebook": 3608,
  "ebra": 3597,
  "ec": 478,
  "ecause": 4541,
  "ecca": 7815,
  "ect": 1264,
  "ected": 4408,
  "ecting": 4951,
  "ecture": 5038,
  "ed": 264,
  "edding": 5898,
  "eddy": 1702,
  "edic": 9280,
  "edient": 3046,
  "edn": 4930,
  "ednesday": 4931,
  "eds": 7365,
  "edy": 3241,
  "ee": 1620,
  "eed": 6484,
  "een": 7655,
  "eep": 5382,
  "eer": 4009,
  "eese": 7146,
  "eet": 7188,
  "ef": 4269,
  "ek": 2502,
  "el": 424,
  "elcome": 4536,
  "elery": 3536,
  "elia": 7227,
  "elie": 7746,
  "elieve": 8556,
  "eling": 9070,
  "ell": 546,
  "ella": 1928,
  "elle": 6817,
  "ellie": 9287,
  "ellig": 3358,
  "elling": 8930,
  "ello": 1188,
  "ellow": 8582,
  "elly": 2283,
  "elope": 8598,
  "elp": 2575,
  "els": 9575,
  "elt": 535,
  "elvet": 5732,
  "ely": 1506,
  "em": 969,
  "ember": 1166,
  "emember": 4973,
  "ement": 4681,
  "emma": 8479,
  "emon": 9899,
  "emy": 1962,
  "en": 301,
  "ena": 5772,
  "ence": 1697,
  "ences": 6608,
  "end": 305,
  "endant": 9442,
  "ended": 8333,
  "ending": 8743,
  "endoft": 377,
  "endoftext": 378,
  "endy": 7027,
  "ened": 591,
  "ening": 8127,
  "enny": 3148,
  "enry": 4726,
  "ens": 2152,
  "ense": 3981,
  "ensive": 2606,
  "ent": 384,
  "ention": 3697,
  "ently": 7603,
  "entr": 9443,
  "ents": 5348,
  "enty": 6146,
  "eor": 4450,
  "eorge": 4508,
  "ep": 631,
  "epend": 2158,
  "ept": 6755,
  "er": 282,
  "era": 2486,
  "erable": 3120,
  "eration": 4974,
  "erc": 4725,
  "ere": 1852,
  "ered": 1325,
  "eremy": 9942,
  "erest": 2244,
  "erg": 9603,
  "ering": 8869,
  "erk": 8443,
  "erly": 2377,
  "erm": 7707,
  "ern": 5922,
  "ero": 4578,
  "eropl": 3269,
  "erp": 2945,
  "erpiece": 8682,
  "erries": 2711,
  "erry": 1969,
  "ers": 730,
  "ert": 2213,
  "ertain": 7192,
  "erts": 8905,
  "ery": 2239,
  "es": 387,
  "esday": 3885,
  "esome": 6290,
  "espite": 7640,
  "ess": 788,
  "esses": 9246,
  "essie": 3458,
  "est": 2211,
  "ester": 5228,
  "esterday": 5231,
  "et": 309,
  "etah": 8744,
  "etch": 5158,
  "etchup": 8797,
  "ete": 3555,
  "eter": 2053,
  "eterin": 4472,
  "eterinarian": 4474,
  "eth": 2323,
  "ets": 9226,
  "etter": 783,
  "ettle": 8809,
  "etty": 6903,
  "ety": 5489,
  "eve": 5392,
  "ever": 2289,
  "everse": 9844,
  "evin": 7970,
  "ex": 337,
  "expected": 921,
  "ext": 361,
  "ey": 1857,
  "f": 102,
  "fall": 7477,
  "fast": 4268,
  "father": 7990,
  "fe": 718,
  "fere": 1289,
  "ff": 843,
  "ffic": 4919,
  "fic": 2868,
  "fied": 5727,
  "fire": 8036,
  "fish": 1877,
  "fit": 6609,
  "five": 8296,
  "fived": 9851,
  "fl": 6691,
  "flowers": 9071,
  "fly": 7430,
  "fore": 1062,
  "form": 7747,
  "fort": 1808,
  "fortable": 2131,
  "fortunately": 5339,
  "found": 8076,
  "free": 9416,
  "freeze": 7677,
  "ft": 1206,
  "fted": 7514,
  "fter": 698,
  "ful": 526,
  "fully": 1669,
  "fus": 8526,
  "fused": 1987,
  "g": 103,
  "gan": 1074,
  "gar": 9212,
  "ge": 791,
  "ged": 778,
  "gen": 4102,
  "ger": 1039,
  "gers": 6394,
  "ges": 4787,
  "gest": 2507,
  "get": 451,
  "getable": 2720,
  "gether": 460,
  "getic": 9379,
  "gg": 1831,
  "ggles": 9893,
  "ggy": 7457,
  "gie": 5069,
  "ging": 3400,
  "gly": 2071,
  "go": 6212,
  "good": 8683,
  "gr": 9677,
  "ground": 2928,
  "gry": 836,
  "gu": 3073,
  "guess": 9470,
  "gy": 1716,
  "h": 104,
  "ha": 5730,
  "he": 258,
  "head": 3872,
  "heart": 4739,
  "hed": 489,
  "hee": 6210,
  "hel": 8275,
  "hello": 5662,
  "hen": 497,
  "her": 370,
  "here": 808,
  "hero": 4587,
  "hes": 960,
  "hest": 4884,
  "hett": 3341,
  "hew": 7387,
  "hi": 6993,
  "hic": 3926,
  "hind": 5699,
  "hing": 519,
  "hings": 9294,
  "hip": 3398,
  "hn": 1240,
  "hny": 9247,
  "ho": 6939,
  "hog": 6967,
  "hole": 8854,
  "hood": 5027,
  "host": 3237,
  "house": 4960,
  "how": 9330,
  "ht": 421,
  "htray": 4054,
  "htub": 3779,
  "i": 105,
  "ia": 581,
  "iable": 3139,
  "ial": 852,
  "ially": 4820,
  "iam": 7143,
  "ian": 2052,
  "iant": 2920,
  "iar": 6493,
  "ib": 6053,
  "ibb": 5914,
  "ibbit": 7135,
  "ibbles": 9288,
  "ibi": 8059,
  "ible": 1861,
  "ibly": 9399,
  "ic": 471,
  "ica": 6155,
  "icate": 9512,
  "ice": 554,
  "iced": 1422,
  "icer": 4613,
  "ich": 1793,
  "ichael": 7178,
  "iches": 4210,
  "ici": 8468,
  "icing": 5428,
  "icious": 9255,
  "ick": 628,
  "icked": 2579,
  "icking": 9049,
  "icky": 4679,
  "icop": 3207,
  "icopter": 3208,
  "icorn": 6144,
  "ict": 3037,
  "iction": 4124,
  "ictionary": 4131,
  "icy": 1446,
  "id": 293,
  "iday": 4584,
  "iddle": 3025,
  "ide": 433,
  "ided": 5779,
  "idence": 8961,
  "ident": 3002,
  "ider": 7829,
  "ides": 5574,
  "idey": 8849,
  "idge": 2010,
  "iding": 7193,
  "ido": 6485,
  "ids": 5555,
  "idy": 9004,
  "ie": 606,
  "iece": 7088,
  "ied": 1278,
  "ief": 3332,
  "iel": 8042,
  "ield": 1509,
  "ien": 5802,
  "ience": 4357,
  "iens": 8308,
  "ient": 1356,
  "ier": 1959,
  "iers": 5333,
  "ies": 1000,
  "iest": 4150,
  "iet": 1638,
  "iew": 3889,
  "if": 625,
  "ife": 2284,
  "ifer": 9852,
  "iff": 2617,
  "ifi": 5030,
  "iform": 4350,
  "iful": 1001,
  "ifully": 9134,
  "ig": 313,
  "igail": 5592,
  "igator": 3556,
  "iger": 2399,
  "igers": 7268,
  "igg": 1919,
  "igger": 8024,
  "iggie": 6874,
  "iggles": 9760,
  "iggly": 5123,
  "iggy": 5834,
  "igh": 1910,
  "ighed": 2758,
  "ighing": 7953,
  "ight": 531,
  "ighting": 7319,
  "igi": 4697,
  "iginal": 3035,
  "ign": 1311,
  "igning": 6997,
  "igzag": 4221,
  "ik": 4265,
  "ike": 1331,
  "iki": 4477,
  "iky": 9533,
  "il": 316,
  "ila": 1382,
  "ild": 925,
  "ilda": 7604,
  "ile": 604,
  "iled": 564,
  "iles": 6981,
  "ilet": 4128,
  "iley": 7403,
  "ili": 9248,
  "iling": 2167,
  "ilities": 8692,
  "ility": 7210,
  "ilk": 2041,
  "ill": 453,
  "illa": 3588,
  "illed": 7183,
  "illie": 4910,
  "illy": 1099,
  "ilo": 6287,
  "ilot": 3932,
  "ilt": 3019,
  "ilty": 3262,
  "ily": 360,
  "im": 290,
  "imal": 776,
  "imb": 911,
  "ime": 400,
  "imed": 4634,
  "iment": 8356,
  "imes": 1213,
  "imi": 1778,
  "immer": 7006,
  "immering": 7551,
  "imney": 4052,
  "imon": 7157,
  "imp": 2685,
  "in": 270,
  "ina": 2613,
  "inal": 3018,
  "inary": 3176,
  "ination": 4002,
  "ince": 4665,
  "inch": 8350,
  "ind": 449,
  "inda": 6094,
  "indr": 6820,
  "indy": 5809,
  "ine": 825,
  "ined": 1930,
  "ines": 3847,
  "iness": 2992,
  "ing": 299,
  "inger": 8608,
  "ingly": 9464,
  "ingo": 7032,
  "ings": 575,
  "ining": 6185,
  "ink": 758,
  "inking": 4822,
  "inkle": 6398,
  "inky": 3090,
  "inny": 7913,
  "ino": 5351,
  "ins": 1501,
  "int": 6551,
  "inted": 8324,
  "iny": 760,
  "io": 3134,
  "iolet": 8805,
  "ion": 859,
  "iona": 7504,
  "ions": 2329,
  "ious": 1205,
  "ip": 941,
  "ipe": 3153,
  "ipes": 7704,
  "ipment": 4877,
  "ipop": 3217,
  "ipp": 1724,
  "ipped": 1993,
  "ipper": 7333,
  "ipping": 5149,
  "ippy": 5065,
  "ips": 5092,
  "ique": 2806,
  "ir": 306,
  "ira": 5982,
  "irac": 8518,
  "ircle": 8765,
  "ird": 423,
  "ire": 1797,
  "ired": 1097,
  "iri": 8334,
  "irit": 3690,
  "irl": 8628,
  "irm": 6252,
  "iron": 3829,
  "irp": 2046,
  "irpy": 2297,
  "irr": 2409,
  "irrel": 1095,
  "irring": 5442,
  "irst": 1083,
  "irsty": 2950,
  "irt": 2064,
  "irth": 1990,
  "irthday": 1991,
  "irts": 5680,
  "is": 287,
  "isa": 1968,
  "isapp": 9916,
  "isc": 7718,
  "iscuit": 8170,
  "isdom": 5862,
  "ise": 686,
  "ised": 792,
  "ises": 1820,
  "ish": 640,
  "ished": 1060,
  "ishes": 5530,
  "ishing": 5385,
  "isible": 9705,
  "ising": 5235,
  "ision": 3613,
  "isions": 7798,
  "isk": 1904,
  "iskers": 1947,
  "ison": 4433,
  "isp": 2658,
  "iss": 1075,
  "issa": 8200,
  "isses": 5110,
  "ission": 5393,
  "issors": 2634,
  "ist": 660,
  "isted": 3478,
  "isten": 5550,
  "ister": 1642,
  "istle": 6320,
  "istol": 3901,
  "istory": 9738,
  "isty": 4902,
  "isy": 1308,
  "it": 274,
  "ita": 7552,
  "ital": 3466,
  "itch": 1905,
  "itched": 6942,
  "itches": 6802,
  "ite": 725,
  "ited": 667,
  "itely": 6669,
  "ites": 9773,
  "ith": 328,
  "ither": 3366,
  "iti": 7156,
  "ities": 5875,
  "iting": 2424,
  "ition": 7880,
  "ito": 3672,
  "its": 8989,
  "itt": 374,
  "itted": 7105,
  "itten": 1664,
  "ittens": 4932,
  "itter": 2642,
  "itting": 1758,
  "ittle": 396,
  "itty": 981,
  "itude": 7234,
  "iture": 4417,
  "ity": 2258,
  "ium": 4394,
  "iv": 3205,
  "ival": 4236,
  "ive": 681,
  "ived": 5163,
  "iver": 1807,
  "iversity": 7116,
  "ivery": 7087,
  "ives": 6971,
  "ivi": 8148,
  "ivia": 8459,
  "iving": 9077,
  "ivity": 7077,
  "ix": 1499,
  "iz": 948,
  "ize": 2207,
  "ized": 1448,
  "izes": 4849,
  "izing": 5587,
  "izz": 2347,
  "izza": 9796,
  "izzes": 9262,
  "izzie": 6749,
  "izzy": 2346,
  "j": 106,
  "jam": 6057,
  "jamas": 6218,
  "ject": 3636,
  "jest": 9220,
  "jo": 7090,
  "joy": 1193,
  "joyed": 6009,
  "k": 107,
  "kay": 963,
  "ke": 346,
  "ked": 335,
  "keep": 3891,
  "keeper": 4011,
  "keepers": 9648,
  "kele": 3732,
  "keleton": 3734,
  "kelly": 6382,
  "ken": 1351,
  "key": 1487,
  "kin": 2273,
  "king": 616,
  "kins": 5355,
  "kn": 2857,
  "known": 2867,
  "ky": 6636,
  "l": 108,
  "la": 3782,
  "lace": 2844,
  "laimed": 4946,
  "laire": 6161,
  "land": 2963,
  "lasses": 3808,
  "lay": 6348,
  "lc": 1585,
  "lcan": 3411,
  "lcano": 3420,
  "ld": 342,
  "le": 303,
  "lease": 993,
  "lebr": 2696,
  "led": 1170,
  "lee": 6941,
  "leep": 1136,
  "lem": 2028,
  "len": 6714,
  "lephant": 6892,
  "ler": 6148,
  "lers": 9066,
  "les": 971,
  "less": 1601,
  "lest": 9242,
  "let": 2331,
  "lets": 6833,
  "lew": 770,
  "lex": 4586,
  "ley": 6046,
  "lf": 864,
  "lied": 8134,
  "lier": 5793,
  "lies": 3700,
  "light": 2906,
  "line": 7944,
  "ling": 2143,
  "lish": 9518,
  "live": 2999,
  "ll": 294,
  "lla": 2031,
  "llas": 8142,
  "lle": 7531,
  "lled": 6627,
  "llen": 6986,
  "llie": 1975,
  "lling": 7254,
  "llipop": 3218,
  "llo": 2379,
  "llow": 1225,
  "lls": 8891,
  "lly": 1273,
  "lo": 8911,
  "loe": 5968,
  "loo": 4014,
  "look": 5017,
  "looking": 5098,
  "lor": 9475,
  "low": 4436,
  "lower": 2236,
  "lowers": 5943,
  "lph": 3162,
  "ls": 5741,
  "lt": 9417,
  "lter": 4279,
  "lu": 4173,
  "luffy": 1093,
  "lves": 2698,
  "ly": 468,
  "lyn": 9706,
  "m": 109,
  "ma": 1111,
  "man": 1600,
  "mare": 4816,
  "mas": 6930,
  "match": 8552,
  "mates": 8090,
  "mb": 2583,
  "mble": 4897,
  "mbre": 3008,
  "me": 1870,
  "med": 4421,
  "medi": 5269,
  "mediately": 5271,
  "mel": 8892,
  "men": 4840,
  "mend": 4504,
  "ment": 2414,
  "ments": 7443,
  "meow": 8695,
  "mer": 2314,
  "mered": 8795,
  "mers": 9491,
  "met": 3089,
  "mie": 9729,
  "mies": 8043,
  "mine": 8469,
  "ming": 2449,
  "mm": 5132,
  "more": 854,
  "most": 3053,
  "mother": 5801,
  "munk": 8646,
  "my": 490,
  "n": 110,
  "na": 4381,
  "nam": 3668,
  "nce": 5175,
  "nd": 261,
  "nder": 672,
  "ndma": 1385,
  "ndpa": 2644,
  "ne": 6988,
  "neath": 6318,
  "ned": 2503,
  "ner": 1621,
  "ners": 6214,
  "ness": 2673,
  "net": 9694,
  "ney": 3983,
  "ng": 1173,
  "nger": 3698,
  "nic": 2648,
  "nie": 6333,
  "nies": 6907,
  "night": 4388,
  "ning": 994,
  "njoy": 6051,
  "nn": 737,
  "nna": 771,
  "no": 6855,
  "noon": 4880,
  "not": 2184,
  "nt": 348,
  "ntil": 7621,
  "ny": 620,
  "o": 111,
  "ob": 577,
  "obile": 3753,
  "obody": 7205,
  "oby": 3711,
  "oc": 2454,
  "ocer": 4091,
  "oceros": 4109,
  "ock": 1087,
  "ocked": 2413,
  "ody": 6413,
  "oe": 4724,
  "oey": 7304,
  "of": 307,
  "off": 8314,
  "offe": 3899,
  "offee": 3902,
  "ofia": 7762,
  "oft": 364,
  "og": 764,
  "oga": 7556,
  "oger": 8183,
  "oggy": 2111,
  "ogn": 4258,
  "ogo": 5785,
  "oh": 5885,
  "oin": 3189,
  "oke": 6760,
  "ol": 1868,
  "ola": 4361,
  "old": 3876,
  "olin": 3438,
  "oline": 6639,
  "oll": 9366,
  "olly": 1636,
  "olog": 4518,
  "om": 284,
  "oman": 2515,
  "omas": 5824,
  "omb": 8171,
  "ome": 430,
  "omed": 4244,
  "omeday": 5334,
  "omes": 3416,
  "omet": 549,
  "oming": 5743,
  "ommend": 4517,
  "omobile": 3763,
  "omp": 7954,
  "on": 291,
  "ond": 2863,
  "one": 518,
  "ones": 2473,
  "onest": 2397,
  "oney": 1404,
  "ong": 532,
  "ongrat": 7557,
  "ongratul": 7560,
  "oni": 7532,
  "onies": 7386,
  "onna": 7599,
  "onnie": 8250,
  "ons": 1804,
  "ont": 2385,
  "ony": 2783,
  "oo": 334,
  "ood": 470,
  "oof": 4614,
  "ooh": 9695,
  "ook": 595,
  "ooks": 8419,
  "ooky": 8527,
  "ool": 957,
  "oom": 1350,
  "oomy": 2455,
  "oon": 986,
  "oop": 2253,
  "oor": 8290,
  "oose": 2149,
  "oosh": 8152,
  "oot": 9007,
  "op": 534,
  "ope": 2268,
  "opes": 7808,
  "oph": 2216,
  "ophia": 6719,
  "ophie": 4693,
  "ophone": 3786,
  "opl": 3268,
  "ople": 880,
  "oppy": 2580,
  "ops": 5141,
  "or": 304,
  "ora": 6467,
  "oral": 5050,
  "ord": 1748,
  "order": 8194,
  "ordinary": 8810,
  "ore": 448,
  "ored": 5548,
  "ores": 4979,
  "ories": 5079,
  "oring": 7516,
  "ork": 2460,
  "orking": 7985,
  "orm": 1578,
  "ormous": 2939,
  "orn": 1210,
  "orrow": 2448,
  "orry": 2819,
  "ors": 2182,
  "orse": 8490,
  "orsie": 9204,
  "ort": 873,
  "orted": 5233,
  "orter": 7766,
  "orth": 9904,
  "ortunately": 8738,
  "ory": 2961,
  "os": 1659,
  "osaur": 2581,
  "oscope": 7986,
  "ose": 2304,
  "osed": 5381,
  "osity": 5561,
  "oss": 9914,
  "ossible": 6870,
  "ost": 2093,
  "ot": 300,
  "ote": 2679,
  "oth": 661,
  "other": 506,
  "othy": 9289,
  "otion": 9228,
  "oto": 3256,
  "ots": 8277,
  "ott": 1481,
  "otte": 8260,
  "otten": 4846,
  "otter": 3941,
  "ou": 275,
  "ouch": 6525,
  "ouched": 9272,
  "oud": 636,
  "oug": 512,
  "ough": 949,
  "ought": 563,
  "ould": 392,
  "oun": 1643,
  "ounce": 7426,
  "ounced": 7624,
  "ound": 405,
  "ount": 1219,
  "ountain": 2062,
  "oup": 1529,
  "our": 752,
  "ouraged": 8850,
  "ourn": 2135,
  "ours": 3143,
  "ous": 684,
  "ouse": 556,
  "ousy": 7865,
  "out": 416,
  "outh": 1516,
  "ove": 2100,
  "oved": 5461,
  "over": 8823,
  "ow": 320,
  "owed": 2688,
  "ower": 1543,
  "owl": 1084,
  "own": 522,
  "oy": 1013,
  "oys": 5771,
  "p": 112,
  "pa": 2566,
  "pack": 3187,
  "pan": 9785,
  "par": 3767,
  "parent": 7489,
  "pe": 1523,
  "peat": 9436,
  "pec": 840,
  "pect": 2295,
  "pected": 905,
  "pecting": 7405,
  "ped": 5721,
  "pen": 7023,
  "per": 3877,
  "pes": 3061,
  "ph": 1528,
  "phant": 1923,
  "pid": 3020,
  "pit": 8866,
  "pite": 6508,
  "pl": 818,
  "place": 4029,
  "plash": 5664,
  "play": 4045,
  "please": 5536,
  "po": 8315,
  "poison": 9437,
  "pop": 9042,
  "port": 2769,
  "pot": 578,
  "pp": 331,
  "pped": 650,
  "pper": 2186,
  "ppers": 5821,
  "ppies": 7671,
  "pping": 2148,
  "ppy": 1360,
  "pr": 8812,
  "pril": 9016,
  "prin": 7325,
  "prints": 7883,
  "pt": 1017,
  "pted": 5105,
  "q": 113,
  "qu": 692,
  "quake": 4862,
  "que": 1260,
  "quest": 4733,
  "quet": 8392,
  "quito": 3693,
  "r": 114,
  "ra": 457,
  "rac": 7541,
  "racadabra": 9032,
  "ract": 1953,
  "racted": 9303,
  "rag": 2632,
  "rage": 3642,
  "raged": 5156,
  "ragile": 2764,
  "ragon": 9149,
  "raid": 2492,
  "rance": 6735,
  "rap": 9696,
  "rass": 2421,
  "rat": 7450,
  "ray": 2792,
  "re": 273,
  "read": 2102,
  "ready": 4019,
  "ream": 865,
  "reat": 4853,
  "rec": 5006,
  "reci": 5073,
  "rect": 7721,
  "red": 1405,
  "ree": 1026,
  "reed": 1236,
  "reek": 4176,
  "reen": 2990,
  "reeze": 4852,
  "reg": 9451,
  "rel": 1016,
  "ren": 1661,
  "rench": 8576,
  "render": 4378,
  "rent": 9778,
  "repeat": 9444,
  "res": 4326,
  "ress": 1019,
  "resses": 4941,
  "rest": 8095,
  "ret": 629,
  "retch": 6925,
  "retty": 8082,
  "reverse": 8427,
  "rew": 1179,
  "rework": 3491,
  "rey": 7724,
  "ri": 322,
  "riage": 4971,
  "rian": 8408,
  "ric": 3830,
  "ricane": 4583,
  "rick": 8968,
  "rie": 8281,
  "ried": 573,
  "riend": 357,
  "riends": 5784,
  "rier": 7795,
  "ries": 1559,
  "rig": 6965,
  "riger": 4375,
  "rigerator": 4376,
  "right": 5128,
  "rigued": 7052,
  "rill": 2217,
  "rilliant": 2972,
  "rily": 8175,
  "rin": 5350,
  "ring": 5357,
  "rink": 6690,
  "rious": 6950,
  "ris": 8363,
  "rise": 4607,
  "river": 7038,
  "rm": 876,
  "rmomet": 4327,
  "rmometer": 4339,
  "rn": 3171,
  "rnie": 9405,
  "ro": 793,
  "rob": 2719,
  "robe": 2753,
  "rod": 4481,
  "roken": 8337,
  "rom": 829,
  "romise": 7600,
  "ron": 4022,
  "rons": 8176,
  "room": 1530,
  "rophone": 3864,
  "ror": 8990,
  "rosc": 3920,
  "roscope": 3930,
  "ross": 1671,
  "rosty": 6816,
  "rot": 1660,
  "rough": 8998,
  "round": 540,
  "row": 1609,
  "rr": 5303,
  "rrr": 6622,
  "rs": 5811,
  "rum": 9797,
  "rup": 7947,
  "ry": 447,
  "s": 115,
  "sa": 9604,
  "saw": 9391,
  "sc": 1960,
  "scape": 2659,
  "scar": 9427,
  "screen": 8634,
  "se": 379,
  "sed": 5118,
  "seek": 6149,
  "self": 1089,
  "selves": 2934,
  "seph": 9853,
  "sequ": 6657,
  "ser": 2734,
  "sers": 9150,
  "ses": 1783,
  "sess": 9012,
  "set": 1886,
  "seum": 3987,
  "sey": 9313,
  "sh": 1380,
  "shadow": 8384,
  "shaped": 8548,
  "she": 9984,
  "shine": 2912,
  "ship": 5423,
  "shm": 7791,
  "shmallow": 7796,
  "side": 527,
  "sie": 9213,
  "sing": 5490,
  "sit": 5315,
  "sity": 4509,
  "sm": 6443,
  "smelling": 9700,
  "sn": 8689,
  "snap": 9161,
  "so": 1064,
  "sol": 8219,
  "solut": 9826,
  "solutely": 9976,
  "son": 6503,
  "sorry": 9614,
  "sp": 2451,
  "spec": 4836,
  "specially": 4847,
  "ss": 569,
  "sses": 6059,
  "ssible": 5221,
  "ssss": 8053,
  "ssy": 9179,
  "st": 352,
  "stairs": 4126,
  "stalk": 8434,
  "stand": 9380,
  "stead": 1767,
  "step": 6856,
  "steps": 7605,
  "ster": 1258,
  "sters": 5256,
  "stic": 3757,
  "stick": 7184,
  "stop": 9854,
  "storm": 9098,
  "str": 9445,
  "stri": 4289,
  "sty": 6671,
  "sw": 1929,
  "sy": 1941,
  "t": 116,
  "tain": 4967,
  "te": 4228,
  "ted": 472,
  "ten": 6044,
  "ter": 444,
  "tern": 3550,
  "ters": 7161,
  "th": 1004,
  "tha": 7523,
  "thank": 4506,
  "that": 9281,
  "the": 7195,
  "ther": 5437,
  "thing": 1156,
  "this": 9494,
  "though": 6541,
  "ths": 9392,
  "thy": 1625,
  "time": 3863,
  "ting": 1151,
  "tle": 6647,
  "to": 2279,
  "tock": 8023,
  "ton": 1564,
  "ts": 1676,
  "tt": 3295,
  "tuce": 6556,
  "ture": 978,
  "ty": 583,
  "u": 117,
  "ual": 2684,
  "ually": 2404,
  "ub": 2069,
  "ubby": 3386,
  "ube": 3335,
  "uc": 599,
  "uce": 2510,
  "ucet": 4004,
  "uch": 1126,
  "uck": 638,
  "ucked": 5124,
  "uckily": 6141,
  "ucky": 1550,
  "uct": 4978,
  "uctantly": 6284,
  "ucture": 4447,
  "ucy": 655,
  "ud": 5810,
  "udd": 734,
  "udden": 886,
  "uddenly": 900,
  "uddles": 6174,
  "uddy": 1534,
  "ude": 7053,
  "udge": 9837,
  "udged": 8604,
  "udy": 9229,
  "ue": 441,
  "ued": 1630,
  "ueen": 6893,
  "uel": 7896,
  "ues": 5713,
  "uesday": 5083,
  "uess": 7211,
  "uest": 6215,
  "uff": 961,
  "uffin": 7955,
  "uffy": 1040,
  "ug": 432,
  "ugar": 9183,
  "ugg": 2310,
  "uggage": 4420,
  "ugged": 3993,
  "ugging": 8420,
  "uggles": 6585,
  "uing": 7201,
  "uit": 1133,
  "uke": 5996,
  "ul": 503,
  "ula": 9649,
  "ular": 2208,
  "ulb": 3516,
  "ulf": 9544,
  "ulif": 3437,
  "ull": 754,
  "ully": 1650,
  "ulp": 7991,
  "ult": 2477,
  "ults": 6530,
  "ulu": 3479,
  "uly": 6344,
  "um": 499,
  "umb": 2039,
  "umber": 2132,
  "umbers": 3423,
  "umble": 5277,
  "umbled": 3713,
  "umbling": 7297,
  "ume": 2690,
  "umes": 5369,
  "umm": 6035,
  "ummer": 4312,
  "ummies": 7251,
  "ummy": 951,
  "ump": 657,
  "umpet": 3299,
  "umpy": 2075,
  "un": 355,
  "una": 1855,
  "unately": 5148,
  "unch": 1817,
  "unched": 7872,
  "und": 3016,
  "unday": 4972,
  "under": 7887,
  "undred": 7647,
  "une": 5363,
  "unes": 8586,
  "ung": 2156,
  "ungle": 2996,
  "unity": 8125,
  "unk": 2436,
  "unn": 2864,
  "unnel": 3185,
  "unnies": 5740,
  "unny": 1012,
  "uno": 9717,
  "unt": 2124,
  "up": 2188,
  "uper": 8480,
  "upid": 9081,
  "uppy": 7040,
  "ups": 5177,
  "upt": 9438,
  "ur": 462,
  "urb": 3607,
  "urch": 3865,
  "ure": 621,
  "ured": 4111,
  "uring": 3738,
  "urious": 7894,
  "urity": 9725,
  "urkey": 3385,
  "urn": 804,
  "urniture": 4418,
  "urp": 705,
  "urple": 9605,
  "urpr": 751,
  "urrender": 8203,
  "urricane": 9855,
  "urry": 5863,
  "urse": 2434,
  "urt": 794,
  "us": 649,
  "usan": 6213,
  "use": 5965,
  "used": 1803,
  "uses": 9215,
  "ush": 1845,
  "ushed": 3746,
  "ushes": 9905,
  "ushing": 7339,
  "usia": 3603,
  "usie": 3629,
  "using": 7033,
  "usion": 9779,
  "ust": 670,
  "usted": 6668,
  "uster": 8618,
  "ustr": 2732,
  "usty": 7369,
  "ut": 323,
  "ute": 2633,
  "utes": 3766,
  "uth": 3357,
  "utor": 4256,
  "utter": 5449,
  "uxu": 5207,
  "uzz": 7313,
  "v": 118,
  "va": 5340,
  "val": 8395,
  "vant": 8049,
  "vator": 3620,
  "ve": 353,
  "veal": 4492,
  "ved": 419,
  "vel": 1849,
  "ven": 782,
  "venir": 9432,
  "vent": 1054,
  "ventually": 2650,
  "ver": 321,
  "vered": 7499,
  "vering": 9915,
  "vers": 6776,
  "verse": 8377,
  "very": 351,
  "ves": 1635,
  "vest": 5410,
  "vet": 4479,
  "vice": 4147,
  "vin": 6494,
  "ving": 827,
  "vision": 4136,
  "vous": 2551,
  "vroom": 6788,
  "vy": 8498,
  "w": 119,
  "walk": 5440,
  "war": 9022,
  "ward": 2375,
  "wards": 4635,
  "was": 3915,
  "washer": 3923,
  "water": 8725,
  "way": 487,
  "ways": 706,
  "we": 2474,
  "web": 3860,
  "weed": 6948,
  "ween": 4839,
  "weet": 3421,
  "wel": 2360,
  "welcome": 9151,
  "well": 9508,
  "wh": 5929,
  "what": 8092,
  "where": 1369,
  "while": 7606,
  "why": 9721,
  "wise": 7978,
  "wk": 7291,
  "work": 3805,
  "working": 9830,
  "worm": 8599,
  "x": 120,
  "xible": 2933,
  "xu": 5185,
  "xy": 4250,
  "xygen": 4904,
  "y": 121,
  "yal": 2874,
  "yan": 7028,
  "yard": 2350,
  "yd": 8906,
  "ye": 3455,
  "year": 4722,
  "years": 7755,
  "yes": 6926,
  "ying": 3039,
  "yl": 8520,
  "yle": 9222,
  "yler": 8528,
  "ym": 2817,
  "you": 6342,
  "yth": 4801,
  "ythm": 4804,
  "z": 122,
  "zag": 4200,
  "ze": 1741,
  "zed": 3291,
  "zen": 5795,
  "zes": 6231,
  "zie": 6365,
  "zing": 5613,
  "zoom": 7688,
  "zy": 1218,
  "zz": 1674,
  "zzy": 3529,
  "{": 123,
  "|": 124,
  "|>": 376,
  "}": 125,
  "~": 126,
  "": 127,
  "—": 7036,
  "’": 1324,
  "“": 1106,
  "”": 1102,
  "”,": 9106,
  "”.": 6082,
  "…": 8991,
  "�": 163
}